{
  "version": "1.0",
  "truncation": null,
  "padding": null,
  "added_tokens": [
    {
      "id": 0,
      "content": "[UNK]",
      "single_word": false,
      "lstrip": false,
      "rstrip": false,
      "normalized": false,
      "special": true
    },
    {
      "id": 1,
      "content": "[PAD]",
      "single_word": false,
      "lstrip": false,
      "rstrip": false,
      "normalized": false,
      "special": true
    },
    {
      "id": 2,
      "content": "[MASK]",
      "single_word": false,
      "lstrip": false,
      "rstrip": false,
      "normalized": false,
      "special": true
    },
    {
      "id": 3,
      "content": "[SOS]",
      "single_word": false,
      "lstrip": false,
      "rstrip": false,
      "normalized": false,
      "special": true
    },
    {
      "id": 4,
      "content": "[EOS]",
      "single_word": false,
      "lstrip": false,
      "rstrip": false,
      "normalized": false,
      "special": true
    }
  ],
  "normalizer": {
    "type": "Lowercase"
  },
  "pre_tokenizer": {
    "type": "Whitespace"
  },
  "post_processor": {
    "type": "TemplateProcessing",
    "single": [
      {
        "SpecialToken": {
          "id": "[SOS]",
          "type_id": 0
        }
      },
      {
        "Sequence": {
          "id": "A",
          "type_id": 0
        }
      },
      {
        "SpecialToken": {
          "id": "[EOS]",
          "type_id": 0
        }
      }
    ],
    "pair": [
      {
        "Sequence": {
          "id": "A",
          "type_id": 0
        }
      },
      {
        "Sequence": {
          "id": "B",
          "type_id": 1
        }
      }
    ],
    "special_tokens": {
      "[EOS]": {
        "id": "[EOS]",
        "ids": [
          4
        ],
        "tokens": [
          "[EOS]"
        ]
      },
      "[SOS]": {
        "id": "[SOS]",
        "ids": [
          3
        ],
        "tokens": [
          "[SOS]"
        ]
      }
    }
  },
  "decoder": null,
  "model": {
    "type": "BPE",
    "dropout": null,
    "unk_token": "[UNK]",
    "continuing_subword_prefix": null,
    "end_of_word_suffix": null,
    "fuse_unk": false,
    "byte_fallback": false,
    "ignore_merges": false,
    "vocab": {
      "[UNK]": 0,
      "[PAD]": 1,
      "[MASK]": 2,
      "[SOS]": 3,
      "[EOS]": 4,
      "!": 5,
      "\"": 6,
      "#": 7,
      "$": 8,
      "%": 9,
      "&": 10,
      "'": 11,
      "(": 12,
      ")": 13,
      "*": 14,
      "+": 15,
      ",": 16,
      "-": 17,
      ".": 18,
      "/": 19,
      "0": 20,
      "1": 21,
      "2": 22,
      "3": 23,
      "4": 24,
      "5": 25,
      "6": 26,
      "7": 27,
      "8": 28,
      "9": 29,
      ":": 30,
      ";": 31,
      "<": 32,
      "=": 33,
      ">": 34,
      "?": 35,
      "@": 36,
      "[": 37,
      "]": 38,
      "^": 39,
      "_": 40,
      "`": 41,
      "a": 42,
      "b": 43,
      "c": 44,
      "d": 45,
      "e": 46,
      "f": 47,
      "g": 48,
      "h": 49,
      "i": 50,
      "j": 51,
      "k": 52,
      "l": 53,
      "m": 54,
      "n": 55,
      "o": 56,
      "p": 57,
      "q": 58,
      "r": 59,
      "s": 60,
      "t": 61,
      "u": 62,
      "v": 63,
      "w": 64,
      "x": 65,
      "y": 66,
      "z": 67,
      "{": 68,
      "|": 69,
      "}": 70,
      "~": 71,
      "¡": 72,
      "¢": 73,
      "£": 74,
      "¥": 75,
      "§": 76,
      "°": 77,
      "±": 78,
      "²": 79,
      "´": 80,
      "µ": 81,
      "¶": 82,
      "·": 83,
      "¼": 84,
      "½": 85,
      "¿": 86,
      "×": 87,
      "ß": 88,
      "à": 89,
      "á": 90,
      "â": 91,
      "ã": 92,
      "ä": 93,
      "å": 94,
      "æ": 95,
      "ç": 96,
      "è": 97,
      "é": 98,
      "ê": 99,
      "ë": 100,
      "ì": 101,
      "í": 102,
      "î": 103,
      "ï": 104,
      "ð": 105,
      "ñ": 106,
      "ò": 107,
      "ó": 108,
      "ô": 109,
      "õ": 110,
      "ö": 111,
      "÷": 112,
      "ø": 113,
      "ù": 114,
      "ú": 115,
      "û": 116,
      "ü": 117,
      "ý": 118,
      "þ": 119,
      "ÿ": 120,
      "ā": 121,
      "ă": 122,
      "ą": 123,
      "ć": 124,
      "ċ": 125,
      "č": 126,
      "ď": 127,
      "đ": 128,
      "ē": 129,
      "ė": 130,
      "ę": 131,
      "ě": 132,
      "ĝ": 133,
      "ğ": 134,
      "ġ": 135,
      "ħ": 136,
      "ī": 137,
      "ĭ": 138,
      "ı": 139,
      "ļ": 140,
      "ł": 141,
      "ń": 142,
      "ņ": 143,
      "ň": 144,
      "ŋ": 145,
      "ō": 146,
      "ŏ": 147,
      "ő": 148,
      "œ": 149,
      "ř": 150,
      "ś": 151,
      "ş": 152,
      "š": 153,
      "ţ": 154,
      "ť": 155,
      "ũ": 156,
      "ū": 157,
      "ŭ": 158,
      "ů": 159,
      "ŵ": 160,
      "ź": 161,
      "ż": 162,
      "ž": 163,
      "ơ": 164,
      "ư": 165,
      "ƿ": 166,
      "ǀ": 167,
      "ǁ": 168,
      "ǂ": 169,
      "ǃ": 170,
      "ǎ": 171,
      "ǐ": 172,
      "ǒ": 173,
      "ǔ": 174,
      "ǚ": 175,
      "ǜ": 176,
      "ǥ": 177,
      "ǵ": 178,
      "ș": 179,
      "ț": 180,
      "ɐ": 181,
      "ɑ": 182,
      "ɒ": 183,
      "ɔ": 184,
      "ɕ": 185,
      "ɖ": 186,
      "ə": 187,
      "ɛ": 188,
      "ɜ": 189,
      "ɡ": 190,
      "ɢ": 191,
      "ɣ": 192,
      "ɤ": 193,
      "ɥ": 194,
      "ɦ": 195,
      "ɨ": 196,
      "ɪ": 197,
      "ɫ": 198,
      "ɭ": 199,
      "ɯ": 200,
      "ɳ": 201,
      "ɵ": 202,
      "ɸ": 203,
      "ɹ": 204,
      "ɾ": 205,
      "ʀ": 206,
      "ʁ": 207,
      "ʂ": 208,
      "ʃ": 209,
      "ʈ": 210,
      "ʊ": 211,
      "ʌ": 212,
      "ʎ": 213,
      "ʏ": 214,
      "ʒ": 215,
      "ʔ": 216,
      "ʕ": 217,
      "ʘ": 218,
      "ʰ": 219,
      "ʱ": 220,
      "ʲ": 221,
      "ʷ": 222,
      "ʻ": 223,
      "ʼ": 224,
      "ʾ": 225,
      "ʿ": 226,
      "ˀ": 227,
      "ˇ": 228,
      "ˈ": 229,
      "ˌ": 230,
      "ː": 231,
      "ˑ": 232,
      "˚": 233,
      "ˤ": 234,
      "˥": 235,
      "˧": 236,
      "˨": 237,
      "˩": 238,
      "˭": 239,
      "̀": 240,
      "́": 241,
      "̃": 242,
      "̄": 243,
      "̇": 244,
      "̌": 245,
      "̍": 246,
      "̞": 247,
      "̠": 248,
      "̤": 249,
      "̥": 250,
      "̧": 251,
      "̩": 252,
      "̪": 253,
      "̯": 254,
      "͡": 255,
      "ά": 256,
      "έ": 257,
      "ή": 258,
      "ί": 259,
      "α": 260,
      "β": 261,
      "γ": 262,
      "δ": 263,
      "ε": 264,
      "ζ": 265,
      "η": 266,
      "θ": 267,
      "ι": 268,
      "κ": 269,
      "λ": 270,
      "μ": 271,
      "ν": 272,
      "ξ": 273,
      "ο": 274,
      "π": 275,
      "ρ": 276,
      "ς": 277,
      "σ": 278,
      "τ": 279,
      "υ": 280,
      "φ": 281,
      "χ": 282,
      "ψ": 283,
      "ω": 284,
      "ό": 285,
      "ύ": 286,
      "ώ": 287,
      "а": 288,
      "б": 289,
      "в": 290,
      "г": 291,
      "д": 292,
      "е": 293,
      "ж": 294,
      "з": 295,
      "и": 296,
      "й": 297,
      "к": 298,
      "л": 299,
      "м": 300,
      "н": 301,
      "о": 302,
      "п": 303,
      "р": 304,
      "с": 305,
      "т": 306,
      "у": 307,
      "ф": 308,
      "х": 309,
      "ц": 310,
      "ч": 311,
      "ш": 312,
      "щ": 313,
      "ъ": 314,
      "ы": 315,
      "ь": 316,
      "э": 317,
      "ю": 318,
      "я": 319,
      "ё": 320,
      "є": 321,
      "і": 322,
      "ї": 323,
      "ј": 324,
      "ў": 325,
      "ѣ": 326,
      "ѧ": 327,
      "ѩ": 328,
      "ѫ": 329,
      "ѭ": 330,
      "ѳ": 331,
      "ѵ": 332,
      "ҳ": 333,
      "ҷ": 334,
      "ա": 335,
      "բ": 336,
      "ի": 337,
      "լ": 338,
      "կ": 339,
      "հ": 340,
      "յ": 341,
      "ն": 342,
      "պ": 343,
      "ս": 344,
      "տ": 345,
      "ր": 346,
      "ց": 347,
      "ְ": 348,
      "ִ": 349,
      "ֵ": 350,
      "ַ": 351,
      "ָ": 352,
      "ֹ": 353,
      "ּ": 354,
      "ֿ": 355,
      "ׁ": 356,
      "ׂ": 357,
      "א": 358,
      "ב": 359,
      "ג": 360,
      "ד": 361,
      "ה": 362,
      "ו": 363,
      "ז": 364,
      "ח": 365,
      "ט": 366,
      "י": 367,
      "ך": 368,
      "ל": 369,
      "ם": 370,
      "מ": 371,
      "ן": 372,
      "נ": 373,
      "ס": 374,
      "ע": 375,
      "פ": 376,
      "ץ": 377,
      "צ": 378,
      "ק": 379,
      "ר": 380,
      "ש": 381,
      "ת": 382,
      "ײ": 383,
      "ء": 384,
      "أ": 385,
      "إ": 386,
      "ئ": 387,
      "ا": 388,
      "ب": 389,
      "ة": 390,
      "ت": 391,
      "ث": 392,
      "ج": 393,
      "ح": 394,
      "خ": 395,
      "د": 396,
      "ذ": 397,
      "ر": 398,
      "س": 399,
      "ش": 400,
      "ص": 401,
      "ض": 402,
      "ظ": 403,
      "ع": 404,
      "ـ": 405,
      "ف": 406,
      "ق": 407,
      "ك": 408,
      "ل": 409,
      "م": 410,
      "ن": 411,
      "ه": 412,
      "و": 413,
      "ى": 414,
      "ي": 415,
      "ٍ": 416,
      "َ": 417,
      "ُ": 418,
      "ِ": 419,
      "ّ": 420,
      "ْ": 421,
      "ٔ": 422,
      "پ": 423,
      "گ": 424,
      "ی": 425,
      "ܐ": 426,
      "ܝ": 427,
      "ܢ": 428,
      "ܩ": 429,
      "ܪ": 430,
      "ः": 431,
      "आ": 432,
      "ई": 433,
      "क": 434,
      "ख": 435,
      "ग": 436,
      "ठ": 437,
      "ड": 438,
      "ण": 439,
      "त": 440,
      "द": 441,
      "ध": 442,
      "न": 443,
      "प": 444,
      "ब": 445,
      "म": 446,
      "य": 447,
      "र": 448,
      "ष": 449,
      "स": 450,
      "ा": 451,
      "ि": 452,
      "ु": 453,
      "ॊ": 454,
      "्": 455,
      "জ": 456,
      "প": 457,
      "ম": 458,
      "য": 459,
      "র": 460,
      "ল": 461,
      "স": 462,
      "া": 463,
      "্": 464,
      "ಕ": 465,
      "ಚ": 466,
      "ಜ": 467,
      "ಪ": 468,
      "ಮ": 469,
      "ಯ": 470,
      "ರ": 471,
      "ಲ": 472,
      "ಶ": 473,
      "ಸ": 474,
      "ಾ": 475,
      "ಿ": 476,
      "ು": 477,
      "್": 478,
      "ข": 479,
      "ง": 480,
      "ด": 481,
      "น": 482,
      "ม": 483,
      "ย": 484,
      "ร": 485,
      "ล": 486,
      "ว": 487,
      "ศ": 488,
      "ส": 489,
      "อ": 490,
      "า": 491,
      "ิ": 492,
      "ี": 493,
      "เ": 494,
      "แ": 495,
      "โ": 496,
      "ใ": 497,
      "ไ": 498,
      "་": 499,
      "ད": 500,
      "བ": 501,
      "ོ": 502,
      "န": 503,
      "သ": 504,
      "ာ": 505,
      "း": 506,
      "ሂ": 507,
      "ላ": 508,
      "ሪ": 509,
      "ሻ": 510,
      "ቡ": 511,
      "ታ": 512,
      "ን": 513,
      "ᏹ": 514,
      "ᵻ": 515,
      "ᶢ": 516,
      "ḍ": 517,
      "ḗ": 518,
      "ḥ": 519,
      "ḱ": 520,
      "ḷ": 521,
      "ṃ": 522,
      "ṅ": 523,
      "ṇ": 524,
      "ṛ": 525,
      "ṣ": 526,
      "ṭ": 527,
      "ẓ": 528,
      "ả": 529,
      "ấ": 530,
      "ế": 531,
      "ề": 532,
      "ễ": 533,
      "ỉ": 534,
      "ố": 535,
      "ồ": 536,
      "ớ": 537,
      "ờ": 538,
      "ụ": 539,
      "ử": 540,
      "ữ": 541,
      "ἀ": 542,
      "ἁ": 543,
      "ἄ": 544,
      "ἐ": 545,
      "ἑ": 546,
      "ἔ": 547,
      "ἡ": 548,
      "ἥ": 549,
      "ἰ": 550,
      "ἱ": 551,
      "ἴ": 552,
      "ἵ": 553,
      "ἶ": 554,
      "ὀ": 555,
      "ὐ": 556,
      "ὑ": 557,
      "ὠ": 558,
      "ὰ": 559,
      "ὲ": 560,
      "ὶ": 561,
      "ὸ": 562,
      "ῆ": 563,
      "ῖ": 564,
      "ῦ": 565,
      "ῶ": 566,
      "​": 567,
      "‌": 568,
      "‍": 569,
      "‎": 570,
      "‑": 571,
      "–": 572,
      "—": 573,
      "‘": 574,
      "’": 575,
      "‚": 576,
      "“": 577,
      "”": 578,
      "•": 579,
      "…": 580,
      "′": 581,
      "″": 582,
      "›": 583,
      "⁄": 584,
      "⁊": 585,
      "₂": 586,
      "₤": 587,
      "₥": 588,
      "€": 589,
      "₯": 590,
      "₹": 591,
      "№": 592,
      "ℛ": 593,
      "⅓": 594,
      "→": 595,
      "∅": 596,
      "∈": 597,
      "−": 598,
      "∖": 599,
      "∗": 600,
      "√": 601,
      "∝": 602,
      "≈": 603,
      "≡": 604,
      "≥": 605,
      "⋅": 606,
      "◌": 607,
      "♆": 608,
      "♠": 609,
      "♯": 610,
      "❤": 611,
      "⟨": 612,
      "⟩": 613,
      "ⲏ": 614,
      "ⲓ": 615,
      "ⲙ": 616,
      "ⲭ": 617,
      "。": 618,
      "《": 619,
      "》": 620,
      "〜": 621,
      "い": 622,
      "さ": 623,
      "た": 624,
      "つ": 625,
      "て": 626,
      "の": 627,
      "は": 628,
      "ひ": 629,
      "ふ": 630,
      "ぶ": 631,
      "む": 632,
      "ら": 633,
      "り": 634,
      "る": 635,
      "ろ": 636,
      "ァ": 637,
      "イ": 638,
      "カ": 639,
      "キ": 640,
      "ク": 641,
      "グ": 642,
      "コ": 643,
      "シ": 644,
      "ジ": 645,
      "ス": 646,
      "セ": 647,
      "ゼ": 648,
      "タ": 649,
      "ダ": 650,
      "チ": 651,
      "ッ": 652,
      "デ": 653,
      "ト": 654,
      "パ": 655,
      "ピ": 656,
      "フ": 657,
      "プ": 658,
      "マ": 659,
      "ミ": 660,
      "メ": 661,
      "モ": 662,
      "ャ": 663,
      "ュ": 664,
      "ラ": 665,
      "リ": 666,
      "ル": 667,
      "レ": 668,
      "ロ": 669,
      "ワ": 670,
      "ン": 671,
      "ー": 672,
      "㓾": 673,
      "丁": 674,
      "七": 675,
      "三": 676,
      "上": 677,
      "下": 678,
      "不": 679,
      "业": 680,
      "东": 681,
      "中": 682,
      "丹": 683,
      "主": 684,
      "义": 685,
      "之": 686,
      "书": 687,
      "争": 688,
      "事": 689,
      "二": 690,
      "云": 691,
      "五": 692,
      "亜": 693,
      "产": 694,
      "京": 695,
      "人": 696,
      "今": 697,
      "介": 698,
      "仔": 699,
      "仕": 700,
      "他": 701,
      "代": 702,
      "仪": 703,
      "伐": 704,
      "会": 705,
      "伝": 706,
      "伯": 707,
      "佐": 708,
      "体": 709,
      "何": 710,
      "佬": 711,
      "來": 712,
      "侍": 713,
      "俄": 714,
      "信": 715,
      "候": 716,
      "像": 717,
      "元": 718,
      "先": 719,
      "光": 720,
      "克": 721,
      "免": 722,
      "入": 723,
      "八": 724,
      "公": 725,
      "兵": 726,
      "典": 727,
      "冶": 728,
      "凹": 729,
      "分": 730,
      "切": 731,
      "刘": 732,
      "利": 733,
      "制": 734,
      "前": 735,
      "剎": 736,
      "剑": 737,
      "劇": 738,
      "劉": 739,
      "力": 740,
      "动": 741,
      "包": 742,
      "北": 743,
      "匠": 744,
      "区": 745,
      "十": 746,
      "千": 747,
      "卅": 748,
      "卌": 749,
      "南": 750,
      "博": 751,
      "卫": 752,
      "印": 753,
      "厘": 754,
      "又": 755,
      "双": 756,
      "发": 757,
      "受": 758,
      "叠": 759,
      "口": 760,
      "古": 761,
      "只": 762,
      "可": 763,
      "司": 764,
      "合": 765,
      "吉": 766,
      "后": 767,
      "吐": 768,
      "呣": 769,
      "呷": 770,
      "咊": 771,
      "和": 772,
      "唐": 773,
      "唔": 774,
      "問": 775,
      "喜": 776,
      "囍": 777,
      "四": 778,
      "団": 779,
      "国": 780,
      "图": 781,
      "國": 782,
      "圕": 783,
      "圖": 784,
      "土": 785,
      "地": 786,
      "块": 787,
      "坤": 788,
      "坪": 789,
      "城": 790,
      "域": 791,
      "埠": 792,
      "基": 793,
      "堂": 794,
      "塊": 795,
      "境": 796,
      "士": 797,
      "変": 798,
      "复": 799,
      "大": 800,
      "天": 801,
      "夷": 802,
      "奉": 803,
      "奐": 804,
      "女": 805,
      "奴": 806,
      "她": 807,
      "妹": 808,
      "婎": 809,
      "媠": 810,
      "子": 811,
      "字": 812,
      "学": 813,
      "宁": 814,
      "它": 815,
      "宇": 816,
      "守": 817,
      "安": 818,
      "宗": 819,
      "家": 820,
      "寧": 821,
      "審": 822,
      "对": 823,
      "导": 824,
      "将": 825,
      "尉": 826,
      "導": 827,
      "小": 828,
      "島": 829,
      "川": 830,
      "州": 831,
      "巡": 832,
      "工": 833,
      "巴": 834,
      "布": 835,
      "帝": 836,
      "帥": 837,
      "師": 838,
      "常": 839,
      "平": 840,
      "庁": 841,
      "庆": 842,
      "库": 843,
      "府": 844,
      "庫": 845,
      "康": 846,
      "廚": 847,
      "廷": 848,
      "建": 849,
      "廿": 850,
      "开": 851,
      "弘": 852,
      "張": 853,
      "当": 854,
      "征": 855,
      "後": 856,
      "徒": 857,
      "從": 858,
      "御": 859,
      "忒": 860,
      "思": 861,
      "总": 862,
      "恢": 863,
      "息": 864,
      "惡": 865,
      "惰": 866,
      "愛": 867,
      "憂": 868,
      "懸": 869,
      "成": 870,
      "战": 871,
      "戦": 872,
      "戰": 873,
      "手": 874,
      "才": 875,
      "批": 876,
      "技": 877,
      "把": 878,
      "抗": 879,
      "折": 880,
      "拉": 881,
      "拿": 882,
      "按": 883,
      "挑": 884,
      "捨": 885,
      "提": 886,
      "援": 887,
      "撫": 888,
      "支": 889,
      "政": 890,
      "教": 891,
      "文": 892,
      "斗": 893,
      "斬": 894,
      "斯": 895,
      "新": 896,
      "方": 897,
      "於": 898,
      "族": 899,
      "日": 900,
      "旧": 901,
      "昇": 902,
      "明": 903,
      "星": 904,
      "時": 905,
      "普": 906,
      "曲": 907,
      "書": 908,
      "曹": 909,
      "替": 910,
      "月": 911,
      "有": 912,
      "朝": 913,
      "木": 914,
      "术": 915,
      "朱": 916,
      "李": 917,
      "杜": 918,
      "来": 919,
      "杭": 920,
      "東": 921,
      "杷": 922,
      "松": 923,
      "枇": 924,
      "林": 925,
      "校": 926,
      "案": 927,
      "桓": 928,
      "楊": 929,
      "業": 930,
      "槐": 931,
      "様": 932,
      "樂": 933,
      "標": 934,
      "檀": 935,
      "次": 936,
      "歌": 937,
      "武": 938,
      "毋": 939,
      "比": 940,
      "民": 941,
      "水": 942,
      "氵": 943,
      "汉": 944,
      "江": 945,
      "汶": 946,
      "沐": 947,
      "沖": 948,
      "河": 949,
      "泉": 950,
      "法": 951,
      "泥": 952,
      "洞": 953,
      "洲": 954,
      "流": 955,
      "济": 956,
      "浙": 957,
      "浦": 958,
      "海": 959,
      "淨": 960,
      "淮": 961,
      "清": 962,
      "済": 963,
      "渣": 964,
      "渤": 965,
      "湖": 966,
      "準": 967,
      "滑": 968,
      "漢": 969,
      "漳": 970,
      "潮": 971,
      "澄": 972,
      "火": 973,
      "灾": 974,
      "炉": 975,
      "烏": 976,
      "爭": 977,
      "爱": 978,
      "父": 979,
      "片": 980,
      "牠": 981,
      "特": 982,
      "献": 983,
      "獻": 984,
      "王": 985,
      "现": 986,
      "珊": 987,
      "理": 988,
      "琵": 989,
      "琶": 990,
      "瑚": 991,
      "瓦": 992,
      "瓩": 993,
      "用": 994,
      "甫": 995,
      "田": 996,
      "番": 997,
      "異": 998,
      "白": 999,
      "的": 1000,
      "皆": 1001,
      "皇": 1002,
      "盛": 1003,
      "督": 1004,
      "知": 1005,
      "石": 1006,
      "礻": 1007,
      "社": 1008,
      "祂": 1009,
      "祐": 1010,
      "神": 1011,
      "禅": 1012,
      "福": 1013,
      "秀": 1014,
      "秣": 1015,
      "程": 1016,
      "竜": 1017,
      "章": 1018,
      "竹": 1019,
      "節": 1020,
      "篆": 1021,
      "籲": 1022,
      "米": 1023,
      "粁": 1024,
      "糎": 1025,
      "系": 1026,
      "約": 1027,
      "紅": 1028,
      "紐": 1029,
      "紫": 1030,
      "紹": 1031,
      "統": 1032,
      "綠": 1033,
      "維": 1034,
      "総": 1035,
      "緑": 1036,
      "緣": 1037,
      "緩": 1038,
      "縣": 1039,
      "總": 1040,
      "織": 1041,
      "红": 1042,
      "绍": 1043,
      "经": 1044,
      "统": 1045,
      "维": 1046,
      "美": 1047,
      "義": 1048,
      "羽": 1049,
      "習": 1050,
      "考": 1051,
      "耶": 1052,
      "耿": 1053,
      "肉": 1054,
      "胡": 1055,
      "腐": 1056,
      "腹": 1057,
      "膺": 1058,
      "臣": 1059,
      "臨": 1060,
      "興": 1061,
      "舍": 1062,
      "航": 1063,
      "船": 1064,
      "良": 1065,
      "节": 1066,
      "苏": 1067,
      "苗": 1068,
      "英": 1069,
      "草": 1070,
      "菩": 1071,
      "華": 1072,
      "萨": 1073,
      "蒲": 1074,
      "蕃": 1075,
      "薩": 1076,
      "藍": 1077,
      "藏": 1078,
      "藩": 1079,
      "虫": 1080,
      "蜀": 1081,
      "蝴": 1082,
      "蝶": 1083,
      "衛": 1084,
      "表": 1085,
      "西": 1086,
      "覆": 1087,
      "見": 1088,
      "親": 1089,
      "言": 1090,
      "詞": 1091,
      "試": 1092,
      "話": 1093,
      "語": 1094,
      "説": 1095,
      "議": 1096,
      "讀": 1097,
      "让": 1098,
      "试": 1099,
      "话": 1100,
      "语": 1101,
      "豆": 1102,
      "豊": 1103,
      "豔": 1104,
      "起": 1105,
      "越": 1106,
      "趙": 1107,
      "軍": 1108,
      "通": 1109,
      "逸": 1110,
      "過": 1111,
      "道": 1112,
      "邑": 1113,
      "那": 1114,
      "郎": 1115,
      "部": 1116,
      "都": 1117,
      "鄴": 1118,
      "釁": 1119,
      "重": 1120,
      "金": 1121,
      "針": 1122,
      "銖": 1123,
      "鋪": 1124,
      "铺": 1125,
      "長": 1126,
      "长": 1127,
      "門": 1128,
      "閏": 1129,
      "閩": 1130,
      "關": 1131,
      "门": 1132,
      "问": 1133,
      "闽": 1134,
      "陋": 1135,
      "院": 1136,
      "陳": 1137,
      "陵": 1138,
      "陽": 1139,
      "隶": 1140,
      "隸": 1141,
      "集": 1142,
      "雍": 1143,
      "雙": 1144,
      "雨": 1145,
      "雲": 1146,
      "震": 1147,
      "青": 1148,
      "韓": 1149,
      "韩": 1150,
      "音": 1151,
      "頓": 1152,
      "題": 1153,
      "顯": 1154,
      "顿": 1155,
      "题": 1156,
      "风": 1157,
      "食": 1158,
      "館": 1159,
      "騷": 1160,
      "驗": 1161,
      "验": 1162,
      "體": 1163,
      "高": 1164,
      "鬱": 1165,
      "魂": 1166,
      "魄": 1167,
      "魏": 1168,
      "鮮": 1169,
      "鱻": 1170,
      "鲁": 1171,
      "鲜": 1172,
      "齉": 1173,
      "龍": 1174,
      "龘": 1175,
      "龢": 1176,
      "ꀕ": 1177,
      "ꜣ": 1178,
      "ꭰ": 1179,
      "ꭳ": 1180,
      "ꭶ": 1181,
      "ꭸ": 1182,
      "ꭹ": 1183,
      "ꮀ": 1184,
      "ꮃ": 1185,
      "ꮉ": 1186,
      "ꮎ": 1187,
      "ꮝ": 1188,
      "ꮟ": 1189,
      "ꮤ": 1190,
      "ꮿ": 1191,
      "고": 1192,
      "교": 1193,
      "국": 1194,
      "그": 1195,
      "기": 1196,
      "나": 1197,
      "대": 1198,
      "도": 1199,
      "독": 1200,
      "동": 1201,
      "라": 1202,
      "람": 1203,
      "래": 1204,
      "려": 1205,
      "로": 1206,
      "름": 1207,
      "리": 1208,
      "물": 1209,
      "방": 1210,
      "보": 1211,
      "부": 1212,
      "비": 1213,
      "사": 1214,
      "선": 1215,
      "소": 1216,
      "수": 1217,
      "슈": 1218,
      "스": 1219,
      "신": 1220,
      "아": 1221,
      "예": 1222,
      "을": 1223,
      "이": 1224,
      "인": 1225,
      "작": 1226,
      "장": 1227,
      "쟁": 1228,
      "전": 1229,
      "조": 1230,
      "족": 1231,
      "컴": 1232,
      "큰": 1233,
      "통": 1234,
      "파": 1235,
      "퍼": 1236,
      "하": 1237,
      "한": 1238,
      "합": 1239,
      "해": 1240,
      "현": 1241,
      "회": 1242,
      "ﬁ": 1243,
      "ﬂ": 1244,
      "︘": 1245,
      "﻿": 1246,
      "，": 1247,
      "～": 1248,
      "�": 1249,
      "𐀊": 1250,
      "𐀍": 1251,
      "𐀚": 1252,
      "𐀞": 1253,
      "𒂵": 1254,
      "𒄑": 1255,
      "𒆳": 1256,
      "𒈪": 1257,
      "𒊒": 1258,
      "𒊕": 1259,
      "𒌦": 1260,
      "𠔻": 1261,
      "𪚥": 1262,
      "𪜶": 1263,
      "th": 1264,
      "in": 1265,
      "the": 1266,
      "an": 1267,
      "er": 1268,
      "on": 1269,
      "re": 1270,
      "at": 1271,
      "en": 1272,
      "ed": 1273,
      "al": 1274,
      "st": 1275,
      "or": 1276,
      "of": 1277,
      "ar": 1278,
      "and": 1279,
      "as": 1280,
      "it": 1281,
      "es": 1282,
      "ic": 1283,
      "is": 1284,
      "ion": 1285,
      "to": 1286,
      "ing": 1287,
      "ro": 1288,
      "le": 1289,
      "ou": 1290,
      "ch": 1291,
      "ent": 1292,
      "se": 1293,
      "wh": 1294,
      "de": 1295,
      "il": 1296,
      "om": 1297,
      "be": 1298,
      "ol": 1299,
      "ct": 1300,
      "am": 1301,
      "ly": 1302,
      "ation": 1303,
      "for": 1304,
      "un": 1305,
      "ad": 1306,
      "ve": 1307,
      "ce": 1308,
      "ur": 1309,
      "con": 1310,
      "ig": 1311,
      "im": 1312,
      "ver": 1313,
      "us": 1314,
      "ir": 1315,
      "ow": 1316,
      "id": 1317,
      "was": 1318,
      "ul": 1319,
      "op": 1320,
      "ter": 1321,
      "la": 1322,
      "ge": 1323,
      "wi": 1324,
      "mo": 1325,
      "ra": 1326,
      "by": 1327,
      "pe": 1328,
      "com": 1329,
      "ist": 1330,
      "are": 1331,
      "te": 1332,
      "ma": 1333,
      "with": 1334,
      "su": 1335,
      "ne": 1336,
      "res": 1337,
      "pro": 1338,
      "that": 1339,
      "ab": 1340,
      "ut": 1341,
      "man": 1342,
      "ri": 1343,
      "ity": 1344,
      "he": 1345,
      "ate": 1346,
      "per": 1347,
      "ci": 1348,
      "ot": 1349,
      "00": 1350,
      "all": 1351,
      "ment": 1352,
      "di": 1353,
      "ex": 1354,
      "ere": 1355,
      "ther": 1356,
      "ap": 1357,
      "19": 1358,
      "li": 1359,
      "ac": 1360,
      "rom": 1361,
      "oun": 1362,
      "em": 1363,
      "so": 1364,
      "we": 1365,
      "cl": 1366,
      "from": 1367,
      "ers": 1368,
      "ant": 1369,
      "art": 1370,
      "ich": 1371,
      "et": 1372,
      "what": 1373,
      "qu": 1374,
      "ies": 1375,
      "ld": 1376,
      "lo": 1377,
      "ian": 1378,
      "ag": 1379,
      "ha": 1380,
      "igh": 1381,
      "um": 1382,
      "po": 1383,
      "ive": 1384,
      "which": 1385,
      "ated": 1386,
      "ish": 1387,
      "were": 1388,
      "ical": 1389,
      "fe": 1390,
      "ess": 1391,
      "por": 1392,
      "sh": 1393,
      "od": 1394,
      "over": 1395,
      "ain": 1396,
      "der": 1397,
      "cent": 1398,
      "ia": 1399,
      "du": 1400,
      "wor": 1401,
      "ear": 1402,
      "ber": 1403,
      "ay": 1404,
      "ill": 1405,
      "act": 1406,
      "ph": 1407,
      "af": 1408,
      "gh": 1409,
      "end": 1410,
      "ud": 1411,
      "ast": 1412,
      "tr": 1413,
      "up": 1414,
      "one": 1415,
      "ll": 1416,
      "ary": 1417,
      "port": 1418,
      "ard": 1419,
      "au": 1420,
      "ke": 1421,
      "ally": 1422,
      "vi": 1423,
      "ous": 1424,
      "its": 1425,
      "not": 1426,
      "our": 1427,
      "out": 1428,
      "ass": 1429,
      "red": 1430,
      "ame": 1431,
      "form": 1432,
      "his": 1433,
      "fic": 1434,
      "other": 1435,
      "ong": 1436,
      "br": 1437,
      "ions": 1438,
      "str": 1439,
      "part": 1440,
      "ine": 1441,
      "pr": 1442,
      "bo": 1443,
      "20": 1444,
      "co": 1445,
      "age": 1446,
      "ult": 1447,
      "cont": 1448,
      "this": 1449,
      "est": 1450,
      "comm": 1451,
      "me": 1452,
      "ans": 1453,
      "new": 1454,
      "pl": 1455,
      "ure": 1456,
      "ub": 1457,
      "ight": 1458,
      "has": 1459,
      "have": 1460,
      "land": 1461,
      "iv": 1462,
      "cor": 1463,
      "comp": 1464,
      "ence": 1465,
      "but": 1466,
      "who": 1467,
      "iz": 1468,
      "pt": 1469,
      "gre": 1470,
      "their": 1471,
      "gu": 1472,
      "pres": 1473,
      "pla": 1474,
      "also": 1475,
      "ome": 1476,
      "pre": 1477,
      "ations": 1478,
      "own": 1479,
      "fir": 1480,
      "ev": 1481,
      "ign": 1482,
      "200": 1483,
      "18": 1484,
      "had": 1485,
      "mar": 1486,
      "fer": 1487,
      "gen": 1488,
      "king": 1489,
      "ates": 1490,
      "),": 1491,
      "ial": 1492,
      "do": 1493,
      "most": 1494,
      "cre": 1495,
      "coun": 1496,
      "fo": 1497,
      "col": 1498,
      "ip": 1499,
      "ition": 1500,
      "av": 1501,
      "ound": 1502,
      "dis": 1503,
      "can": 1504,
      "many": 1505,
      "pol": 1506,
      "ren": 1507,
      "sy": 1508,
      "ck": 1509,
      "first": 1510,
      "ced": 1511,
      "ach": 1512,
      "min": 1513,
      "ance": 1514,
      "inter": 1515,
      "year": 1516,
      "ser": 1517,
      "ction": 1518,
      "int": 1519,
      "vel": 1520,
      "gro": 1521,
      "spe": 1522,
      "sp": 1523,
      "how": 1524,
      "no": 1525,
      "city": 1526,
      "ater": 1527,
      "nor": 1528,
      "tim": 1529,
      "incl": 1530,
      "wo": 1531,
      "ould": 1532,
      "si": 1533,
      "did": 1534,
      "low": 1535,
      "fi": 1536,
      "ces": 1537,
      "pos": 1538,
      "og": 1539,
      "att": 1540,
      "uring": 1541,
      "war": 1542,
      "201": 1543,
      "such": 1544,
      "used": 1545,
      "mon": 1546,
      "gr": 1547,
      "vers": 1548,
      "ite": 1549,
      "bet": 1550,
      "when": 1551,
      "par": 1552,
      "more": 1553,
      "able": 1554,
      "they": 1555,
      "pop": 1556,
      "some": 1557,
      "lar": 1558,
      "ited": 1559,
      "ational": 1560,
      "el": 1561,
      "ric": 1562,
      "after": 1563,
      "lic": 1564,
      "been": 1565,
      ").": 1566,
      "reg": 1567,
      "ens": 1568,
      "ele": 1569,
      "des": 1570,
      "pub": 1571,
      "ding": 1572,
      "ta": 1573,
      "ory": 1574,
      "ger": 1575,
      "rel": 1576,
      "cr": 1577,
      "sch": 1578,
      "ty": 1579,
      "vic": 1580,
      "cess": 1581,
      "ough": 1582,
      "ks": 1583,
      "os": 1584,
      "ef": 1585,
      "eng": 1586,
      "during": 1587,
      "rou": 1588,
      "ts": 1589,
      "into": 1590,
      "than": 1591,
      "kn": 1592,
      "west": 1593,
      "lish": 1594,
      "world": 1595,
      "her": 1596,
      "tra": 1597,
      "ism": 1598,
      "fin": 1599,
      "med": 1600,
      "je": 1601,
      "air": 1602,
      "ree": 1603,
      "gan": 1604,
      "ile": 1605,
      "two": 1606,
      "ors": 1607,
      "state": 1608,
      "ury": 1609,
      "bec": 1610,
      "fr": 1611,
      "sou": 1612,
      "amer": 1613,
      "popul": 1614,
      "under": 1615,
      "national": 1616,
      "there": 1617,
      "ved": 1618,
      "oc": 1619,
      "use": 1620,
      "rough": 1621,
      "ual": 1622,
      "cial": 1623,
      "ever": 1624,
      "ities": 1625,
      "uni": 1626,
      "ten": 1627,
      "large": 1628,
      "may": 1629,
      "car": 1630,
      "time": 1631,
      "includ": 1632,
      "gover": 1633,
      "ue": 1634,
      "ds": 1635,
      "jo": 1636,
      "day": 1637,
      "ang": 1638,
      "ident": 1639,
      "fl": 1640,
      "ire": 1641,
      "ased": 1642,
      "amp": 1643,
      "only": 1644,
      "americ": 1645,
      "ca": 1646,
      "bu": 1647,
      "son": 1648,
      "ase": 1649,
      "sa": 1650,
      "arch": 1651,
      "ween": 1652,
      "between": 1653,
      "vis": 1654,
      "tem": 1655,
      "ted": 1656,
      "eu": 1657,
      "led": 1658,
      "states": 1659,
      "high": 1660,
      "ble": 1661,
      "mus": 1662,
      "cons": 1663,
      "cur": 1664,
      "any": 1665,
      "les": 1666,
      "ern": 1667,
      "century": 1668,
      "stem": 1669,
      "ative": 1670,
      "sub": 1671,
      "produ": 1672,
      "these": 1673,
      "ments": 1674,
      "public": 1675,
      "arm": 1676,
      "govern": 1677,
      "where": 1678,
      "system": 1679,
      "go": 1680,
      "ry": 1681,
      "ics": 1682,
      "000": 1683,
      "velop": 1684,
      "way": 1685,
      "peop": 1686,
      "develop": 1687,
      "olog": 1688,
      "cted": 1689,
      "ak": 1690,
      "main": 1691,
      "fa": 1692,
      "united": 1693,
      "gener": 1694,
      "rit": 1695,
      "num": 1696,
      "though": 1697,
      "char": 1698,
      "stru": 1699,
      "ok": 1700,
      "cap": 1701,
      "trans": 1702,
      "if": 1703,
      "ind": 1704,
      "play": 1705,
      "cy": 1706,
      "peri": 1707,
      "fore": 1708,
      "ents": 1709,
      "euro": 1710,
      "loc": 1711,
      "ution": 1712,
      "ince": 1713,
      "through": 1714,
      "val": 1715,
      "ose": 1716,
      "old": 1717,
      "tri": 1718,
      "call": 1719,
      "brit": 1720,
      "bor": 1721,
      "univers": 1722,
      "ale": 1723,
      "pow": 1724,
      "mu": 1725,
      "indi": 1726,
      "would": 1727,
      "people": 1728,
      "ann": 1729,
      "ating": 1730,
      "while": 1731,
      "illion": 1732,
      "them": 1733,
      "ines": 1734,
      "sc": 1735,
      "group": 1736,
      "ital": 1737,
      "dom": 1738,
      "ious": 1739,
      "known": 1740,
      "hu": 1741,
      "lan": 1742,
      "europe": 1743,
      "ists": 1744,
      "found": 1745,
      "vol": 1746,
      "offic": 1747,
      "dif": 1748,
      "hist": 1749,
      "jor": 1750,
      "ho": 1751,
      "east": 1752,
      "ack": 1753,
      "sup": 1754,
      "work": 1755,
      "17": 1756,
      "leg": 1757,
      "ice": 1758,
      "emp": 1759,
      "north": 1760,
      "sel": 1761,
      "major": 1762,
      "government": 1763,
      "years": 1764,
      "mi": 1765,
      "als": 1766,
      "buil": 1767,
      "pa": 1768,
      "gy": 1769,
      "about": 1770,
      "cts": 1771,
      "ven": 1772,
      "uss": 1773,
      "fol": 1774,
      "cond": 1775,
      "ool": 1776,
      "ily": 1777,
      "inst": 1778,
      "dep": 1779,
      "well": 1780,
      "school": 1781,
      "ason": 1782,
      "ful": 1783,
      "ss": 1784,
      "na": 1785,
      "law": 1786,
      "tain": 1787,
      "ural": 1788,
      "tur": 1789,
      "mem": 1790,
      "dist": 1791,
      "add": 1792,
      "south": 1793,
      "ular": 1794,
      "199": 1795,
      "iss": 1796,
      "ward": 1797,
      "set": 1798,
      "ju": 1799,
      "und": 1800,
      "ob": 1801,
      "vid": 1802,
      "including": 1803,
      "cept": 1804,
      "var": 1805,
      "contin": 1806,
      "ific": 1807,
      "ins": 1808,
      "ually": 1809,
      "bro": 1810,
      "10": 1811,
      "ants": 1812,
      "ton": 1813,
      "mil": 1814,
      "ib": 1815,
      "tor": 1816,
      "soci": 1817,
      "pri": 1818,
      "ving": 1819,
      "ered": 1820,
      "gree": 1821,
      "called": 1822,
      "both": 1823,
      "early": 1824,
      "urch": 1825,
      "ft": 1826,
      "15": 1827,
      "hy": 1828,
      "ized": 1829,
      "wn": 1830,
      "ship": 1831,
      "langu": 1832,
      "however": 1833,
      "became": 1834,
      "ange": 1835,
      "tre": 1836,
      "\".": 1837,
      "made": 1838,
      "polit": 1839,
      "number": 1840,
      "ting": 1841,
      "ures": 1842,
      "ond": 1843,
      "organ": 1844,
      "0s": 1845,
      "uc": 1846,
      "power": 1847,
      "fil": 1848,
      "long": 1849,
      "ms": 1850,
      "ina": 1851,
      "sign": 1852,
      "cult": 1853,
      "met": 1854,
      "again": 1855,
      "follow": 1856,
      "later": 1857,
      "elect": 1858,
      "ically": 1859,
      "three": 1860,
      "music": 1861,
      "hou": 1862,
      "like": 1863,
      "she": 1864,
      "american": 1865,
      "ians": 1866,
      "ress": 1867,
      "oper": 1868,
      "class": 1869,
      "sur": 1870,
      "ath": 1871,
      "million": 1872,
      "ves": 1873,
      "commun": 1874,
      "stand": 1875,
      "ple": 1876,
      "16": 1877,
      "recor": 1878,
      "ause": 1879,
      "speci": 1880,
      "ning": 1881,
      "since": 1882,
      "population": 1883,
      "differ": 1884,
      "test": 1885,
      "requ": 1886,
      "try": 1887,
      "being": 1888,
      "sever": 1889,
      "orig": 1890,
      "contro": 1891,
      "ise": 1892,
      "lead": 1893,
      "sim": 1894,
      "ters": 1895,
      "fam": 1896,
      "second": 1897,
      "period": 1898,
      "sol": 1899,
      "ide": 1900,
      "ages": 1901,
      "ii": 1902,
      "stud": 1903,
      "ude": 1904,
      "ys": 1905,
      ".\"": 1906,
      "trad": 1907,
      "light": 1908,
      "mer": 1909,
      "\",": 1910,
      "ep": 1911,
      "que": 1912,
      "university": 1913,
      "church": 1914,
      "present": 1915,
      "incre": 1916,
      "come": 1917,
      "british": 1918,
      "vent": 1919,
      "often": 1920,
      "cla": 1921,
      "cour": 1922,
      "chr": 1923,
      "bers": 1924,
      "mark": 1925,
      "origin": 1926,
      "human": 1927,
      "mid": 1928,
      "12": 1929,
      "ctive": 1930,
      "198": 1931,
      "less": 1932,
      "exp": 1933,
      "area": 1934,
      "ban": 1935,
      "lim": 1936,
      "ablish": 1937,
      "establish": 1938,
      "roman": 1939,
      "name": 1940,
      "flu": 1941,
      "then": 1942,
      "ature": 1943,
      "vil": 1944,
      "ild": 1945,
      "sm": 1946,
      "sing": 1947,
      "sci": 1948,
      "unt": 1949,
      "hn": 1950,
      "bi": 1951,
      "ral": 1952,
      "const": 1953,
      "depend": 1954,
      "four": 1955,
      "nam": 1956,
      "ga": 1957,
      "ility": 1958,
      "moder": 1959,
      "phil": 1960,
      "ru": 1961,
      "rench": 1962,
      "several": 1963,
      "minist": 1964,
      "cer": 1965,
      "country": 1966,
      "island": 1967,
      "tion": 1968,
      "del": 1969,
      "result": 1970,
      "197": 1971,
      "consid": 1972,
      "fact": 1973,
      "cover": 1974,
      "thern": 1975,
      "french": 1976,
      "dire": 1977,
      "ace": 1978,
      "cro": 1979,
      "vie": 1980,
      "point": 1981,
      "partic": 1982,
      "econ": 1983,
      "lit": 1984,
      "bur": 1985,
      "econom": 1986,
      "colle": 1987,
      "mat": 1988,
      "bar": 1989,
      "based": 1990,
      "him": 1991,
      "german": 1992,
      "fed": 1993,
      "against": 1994,
      "self": 1995,
      "tech": 1996,
      "head": 1997,
      "ore": 1998,
      "side": 1999,
      "need": 2000,
      "john": 2001,
      "suc": 2002,
      "modern": 2003,
      "relig": 2004,
      "will": 2005,
      "acter": 2006,
      "does": 2007,
      "eld": 2008,
      "great": 2009,
      "largest": 2010,
      "ium": 2011,
      "pon": 2012,
      "ings": 2013,
      "milit": 2014,
      "non": 2015,
      "cit": 2016,
      "rest": 2017,
      "cu": 2018,
      "writ": 2019,
      "14": 2020,
      "much": 2021,
      "prim": 2022,
      "tro": 2023,
      "because": 2024,
      "although": 2025,
      "indu": 2026,
      "now": 2027,
      "empire": 2028,
      "tal": 2029,
      "each": 2030,
      "house": 2031,
      "import": 2032,
      "right": 2033,
      "servic": 2034,
      "turn": 2035,
      "bre": 2036,
      "christ": 2037,
      "pra": 2038,
      "until": 2039,
      "common": 2040,
      "pat": 2041,
      "western": 2042,
      "remain": 2043,
      "support": 2044,
      "region": 2045,
      "tit": 2046,
      "ology": 2047,
      "har": 2048,
      "among": 2049,
      "feder": 2050,
      "could": 2051,
      "ese": 2052,
      "general": 2053,
      "vide": 2054,
      "president": 2055,
      "language": 2056,
      "techn": 2057,
      "influ": 2058,
      "pal": 2059,
      "196": 2060,
      "lack": 2061,
      "small": 2062,
      "lin": 2063,
      "allow": 2064,
      "ended": 2065,
      "ti": 2066,
      "net": 2067,
      "hol": 2068,
      "afric": 2069,
      "vir": 2070,
      "13": 2071,
      "season": 2072,
      "comple": 2073,
      "around": 2074,
      "io": 2075,
      "roy": 2076,
      "appro": 2077,
      "ken": 2078,
      "view": 2079,
      "pass": 2080,
      "back": 2081,
      "cri": 2082,
      "my": 2083,
      "before": 2084,
      "rele": 2085,
      "194": 2086,
      "began": 2087,
      "ars": 2088,
      "stri": 2089,
      "near": 2090,
      "fied": 2091,
      "accor": 2092,
      "down": 2093,
      "different": 2094,
      "cas": 2095,
      "gram": 2096,
      "place": 2097,
      "gra": 2098,
      "life": 2099,
      "gin": 2100,
      "international": 2101,
      "line": 2102,
      "stre": 2103,
      "person": 2104,
      "include": 2105,
      "ps": 2106,
      "political": 2107,
      "success": 2108,
      "uary": 2109,
      "design": 2110,
      "those": 2111,
      "within": 2112,
      "vision": 2113,
      "ie": 2114,
      "child": 2115,
      "continu": 2116,
      "bal": 2117,
      "ref": 2118,
      "xt": 2119,
      "same": 2120,
      "ball": 2121,
      "european": 2122,
      "building": 2123,
      "military": 2124,
      "ick": 2125,
      "mber": 2126,
      "appe": 2127,
      "som": 2128,
      "along": 2129,
      "bus": 2130,
      "even": 2131,
      "off": 2132,
      "50": 2133,
      "water": 2134,
      "order": 2135,
      "chines": 2136,
      "according": 2137,
      "press": 2138,
      "ety": 2139,
      "sw": 2140,
      "win": 2141,
      "term": 2142,
      "men": 2143,
      "english": 2144,
      "late": 2145,
      "ext": 2146,
      "show": 2147,
      "army": 2148,
      "ran": 2149,
      "start": 2150,
      "imate": 2151,
      "home": 2152,
      "histor": 2153,
      "tradition": 2154,
      "lat": 2155,
      "dec": 2156,
      "une": 2157,
      "cal": 2158,
      "bc": 2159,
      "hel": 2160,
      "effe": 2161,
      "bas": 2162,
      "town": 2163,
      "development": 2164,
      "control": 2165,
      "leag": 2166,
      "bir": 2167,
      "ised": 2168,
      "russ": 2169,
      "ization": 2170,
      "another": 2171,
      "open": 2172,
      "ample": 2173,
      "cast": 2174,
      "curren": 2175,
      "last": 2176,
      "central": 2177,
      "move": 2178,
      "jap": 2179,
      "social": 2180,
      "japan": 2181,
      "process": 2182,
      "very": 2183,
      "wide": 2184,
      "ined": 2185,
      "chinese": 2186,
      "company": 2187,
      "rad": 2188,
      "ons": 2189,
      "sum": 2190,
      "app": 2191,
      "mal": 2192,
      "ames": 2193,
      "ences": 2194,
      "gn": 2195,
      "due": 2196,
      "cop": 2197,
      "formed": 2198,
      "example": 2199,
      "educ": 2200,
      "cra": 2201,
      "nat": 2202,
      "associ": 2203,
      "let": 2204,
      "fun": 2205,
      "greek": 2206,
      "popular": 2207,
      "fur": 2208,
      "thir": 2209,
      "sk": 2210,
      "members": 2211,
      "direct": 2212,
      "posed": 2213,
      "league": 2214,
      "using": 2215,
      "alth": 2216,
      "china": 2217,
      "independ": 2218,
      "see": 2219,
      "republic": 2220,
      "tries": 2221,
      "ped": 2222,
      "team": 2223,
      "field": 2224,
      "treat": 2225,
      "ired": 2226,
      "thor": 2227,
      "cut": 2228,
      "species": 2229,
      "following": 2230,
      "mic": 2231,
      "countries": 2232,
      "rece": 2233,
      "yor": 2234,
      "ject": 2235,
      "ston": 2236,
      "top": 2237,
      "constit": 2238,
      "30": 2239,
      "vo": 2240,
      "bey": 2241,
      "ives": 2242,
      "established": 2243,
      "dest": 2244,
      "force": 2245,
      "mand": 2246,
      "grow": 2247,
      "search": 2248,
      "ze": 2249,
      "important": 2250,
      "liam": 2251,
      "ort": 2252,
      "prof": 2253,
      "bour": 2254,
      "attle": 2255,
      "beli": 2256,
      "still": 2257,
      "white": 2258,
      "bed": 2259,
      "ash": 2260,
      "run": 2261,
      "ade": 2262,
      "195": 2263,
      "vari": 2264,
      "particular": 2265,
      "ially": 2266,
      "areas": 2267,
      "chang": 2268,
      "def": 2269,
      "ission": 2270,
      "ived": 2271,
      "thod": 2272,
      "france": 2273,
      "crit": 2274,
      "camp": 2275,
      "atic": 2276,
      "isl": 2277,
      "needed": 2278,
      "york": 2279,
      "struct": 2280,
      "refer": 2281,
      "lear": 2282,
      "report": 2283,
      "god": 2284,
      "ator": 2285,
      "ared": 2286,
      "ged": 2287,
      "considered": 2288,
      "viet": 2289,
      "jew": 2290,
      "level": 2291,
      "mb": 2292,
      "bra": 2293,
      "local": 2294,
      "court": 2295,
      "lond": 2296,
      "loy": 2297,
      "instit": 2298,
      "death": 2299,
      "den": 2300,
      "itions": 2301,
      "equ": 2302,
      "ener": 2303,
      "groups": 2304,
      "black": 2305,
      "ner": 2306,
      "11": 2307,
      "program": 2308,
      "forces": 2309,
      "addition": 2310,
      "25": 2311,
      "london": 2312,
      "respon": 2313,
      "pur": 2314,
      "federal": 2315,
      "typ": 2316,
      "hal": 2317,
      "mad": 2318,
      "lu": 2319,
      "just": 2320,
      "ribut": 2321,
      "history": 2322,
      "party": 2323,
      "tle": 2324,
      "times": 2325,
      "located": 2326,
      "become": 2327,
      "record": 2328,
      "current": 2329,
      "ict": 2330,
      "stu": 2331,
      "ord": 2332,
      "union": 2333,
      "position": 2334,
      "kingdom": 2335,
      "gest": 2336,
      "official": 2337,
      "film": 2338,
      "developed": 2339,
      "igr": 2340,
      "bel": 2341,
      "civil": 2342,
      "sty": 2343,
      "ail": 2344,
      "five": 2345,
      "former": 2346,
      "put": 2347,
      "ham": 2348,
      "ron": 2349,
      "jan": 2350,
      "sla": 2351,
      "standard": 2352,
      "claim": 2353,
      "fran": 2354,
      "sen": 2355,
      "inte": 2356,
      "ides": 2357,
      "dy": 2358,
      "prote": 2359,
      "read": 2360,
      "sequ": 2361,
      "stat": 2362,
      "cup": 2363,
      "sal": 2364,
      "ize": 2365,
      "descri": 2366,
      "cing": 2367,
      "tu": 2368,
      "193": 2369,
      "feat": 2370,
      "held": 2371,
      "conne": 2372,
      "ster": 2373,
      "author": 2374,
      "han": 2375,
      "adv": 2376,
      "signific": 2377,
      "ox": 2378,
      "hun": 2379,
      "ient": 2380,
      "rul": 2381,
      "research": 2382,
      "moun": 2383,
      "wa": 2384,
      "energy": 2385,
      "dr": 2386,
      "pen": 2387,
      "ilar": 2388,
      "bs": 2389,
      "giv": 2390,
      "percent": 2391,
      "similar": 2392,
      "dra": 2393,
      "india": 2394,
      "free": 2395,
      "event": 2396,
      "ody": 2397,
      "ling": 2398,
      "provid": 2399,
      "issu": 2400,
      "pract": 2401,
      "az": 2402,
      "fac": 2403,
      "tern": 2404,
      ".[": 2405,
      "nic": 2406,
      "plic": 2407,
      "conf": 2408,
      "mit": 2409,
      "revol": 2410,
      "every": 2411,
      "ied": 2412,
      "gress": 2413,
      "exist": 2414,
      "get": 2415,
      "mor": 2416,
      "studi": 2417,
      "type": 2418,
      "religious": 2419,
      "wom": 2420,
      "club": 2421,
      "river": 2422,
      "colon": 2423,
      "sible": 2424,
      "cil": 2425,
      "center": 2426,
      "tele": 2427,
      "ute": 2428,
      "wil": 2429,
      "ley": 2430,
      "cul": 2431,
      "wards": 2432,
      "ctions": 2433,
      "victor": 2434,
      "ness": 2435,
      "ris": 2436,
      "gs": 2437,
      "vest": 2438,
      "post": 2439,
      "character": 2440,
      "market": 2441,
      "represent": 2442,
      "third": 2443,
      "various": 2444,
      "capital": 2445,
      "eth": 2446,
      "service": 2447,
      "significant": 2448,
      "defin": 2449,
      "plan": 2450,
      "hom": 2451,
      "foot": 2452,
      "ories": 2453,
      "inc": 2454,
      "hand": 2455,
      "formation": 2456,
      "intro": 2457,
      "ency": 2458,
      "2010": 2459,
      "rock": 2460,
      "disc": 2461,
      "gl": 2462,
      "dle": 2463,
      "ality": 2464,
      "bud": 2465,
      "ently": 2466,
      "ply": 2467,
      "40": 2468,
      "territ": 2469,
      "rich": 2470,
      "eastern": 2471,
      "san": 2472,
      "migr": 2473,
      "arab": 2474,
      "domin": 2475,
      "street": 2476,
      "usually": 2477,
      "soviet": 2478,
      "introdu": 2479,
      "built": 2480,
      "archite": 2481,
      "wood": 2482,
      "ability": 2483,
      "inv": 2484,
      "further": 2485,
      "init": 2486,
      "middle": 2487,
      "hip": 2488,
      "ked": 2489,
      "mass": 2490,
      "ste": 2491,
      "ah": 2492,
      "begin": 2493,
      "chan": 2494,
      "contain": 2495,
      "compe": 2496,
      "ological": 2497,
      "march": 2498,
      "publish": 2499,
      "dro": 2500,
      "education": 2501,
      "family": 2502,
      "forms": 2503,
      "single": 2504,
      "fall": 2505,
      "cially": 2506,
      "uk": 2507,
      "sep": 2508,
      "prin": 2509,
      "royal": 2510,
      "alb": 2511,
      "broad": 2512,
      "change": 2513,
      "liter": 2514,
      "aver": 2515,
      "vin": 2516,
      "gal": 2517,
      "took": 2518,
      "istic": 2519,
      "grad": 2520,
      "england": 2521,
      "jud": 2522,
      "make": 2523,
      "dig": 2524,
      "redu": 2525,
      "book": 2526,
      "song": 2527,
      "reach": 2528,
      "without": 2529,
      "sun": 2530,
      "six": 2531,
      "few": 2532,
      "britain": 2533,
      "separ": 2534,
      "individ": 2535,
      "tic": 2536,
      "pers": 2537,
      "best": 2538,
      "tember": 2539,
      "cir": 2540,
      "lay": 2541,
      "ges": 2542,
      "philos": 2543,
      "pan": 2544,
      "ek": 2545,
      "administ": 2546,
      "northern": 2547,
      "study": 2548,
      "philosop": 2549,
      "economic": 2550,
      "body": 2551,
      "ination": 2552,
      "citation": 2553,
      "college": 2554,
      "fre": 2555,
      "gust": 2556,
      "occur": 2557,
      "sex": 2558,
      "band": 2559,
      "southern": 2560,
      "battle": 2561,
      "council": 2562,
      "wal": 2563,
      "anim": 2564,
      "mult": 2565,
      "september": 2566,
      "2008": 2567,
      "culture": 2568,
      "cell": 2569,
      "ata": 2570,
      "month": 2571,
      "olic": 2572,
      "activ": 2573,
      "included": 2574,
      "stry": 2575,
      "bert": 2576,
      "individual": 2577,
      "mean": 2578,
      "cogn": 2579,
      "2013": 2580,
      "constitution": 2581,
      "chi": 2582,
      "christian": 2583,
      "sam": 2584,
      "game": 2585,
      "iness": 2586,
      "ential": 2587,
      "mater": 2588,
      "geor": 2589,
      "board": 2590,
      "natural": 2591,
      "sto": 2592,
      "ensive": 2593,
      "bl": 2594,
      "total": 2595,
      "sea": 2596,
      "america": 2597,
      "take": 2598,
      "clo": 2599,
      "imes": 2600,
      "da": 2601,
      "released": 2602,
      "june": 2603,
      "came": 2604,
      "uses": 2605,
      "canad": 2606,
      "album": 2607,
      "invol": 2608,
      "hi": 2609,
      "tw": 2610,
      "architect": 2611,
      "continued": 2612,
      "..": 2613,
      "station": 2614,
      "others": 2615,
      "blo": 2616,
      "stral": 2617,
      "children": 2618,
      "ben": 2619,
      "know": 2620,
      "range": 2621,
      "polic": 2622,
      "gar": 2623,
      "2009": 2624,
      "comb": 2625,
      "rule": 2626,
      "ways": 2627,
      "tour": 2628,
      "august": 2629,
      "vious": 2630,
      "constru": 2631,
      "otto": 2632,
      "original": 2633,
      "bes": 2634,
      "ified": 2635,
      "said": 2636,
      "ops": 2637,
      "park": 2638,
      "protest": 2639,
      "schools": 2640,
      "raph": 2641,
      "60": 2642,
      "thing": 2643,
      "ators": 2644,
      "works": 2645,
      "african": 2646,
      "created": 2647,
      "24": 2648,
      "revolution": 2649,
      "100": 2650,
      "scient": 2651,
      "sour": 2652,
      "medi": 2653,
      "january": 2654,
      "paris": 2655,
      "squ": 2656,
      "ana": 2657,
      "demo": 2658,
      "parts": 2659,
      "placed": 2660,
      "tempt": 2661,
      "ril": 2662,
      "kes": 2663,
      "2011": 2664,
      "earli": 2665,
      "exe": 2666,
      "cities": 2667,
      "lower": 2668,
      "fort": 2669,
      "ime": 2670,
      "return": 2671,
      "egy": 2672,
      "rights": 2673,
      "ba": 2674,
      "ats": 2675,
      "sent": 2676,
      "egypt": 2677,
      "liber": 2678,
      "july": 2679,
      "throughout": 2680,
      "special": 2681,
      "list": 2682,
      "systems": 2683,
      "priv": 2684,
      "germany": 2685,
      "production": 2686,
      "produced": 2687,
      "attempt": 2688,
      "ka": 2689,
      "command": 2690,
      "far": 2691,
      "decl": 2692,
      "ctor": 2693,
      "kill": 2694,
      "ional": 2695,
      "students": 2696,
      "unch": 2697,
      "cath": 2698,
      "higher": 2699,
      "action": 2700,
      "2007": 2701,
      "thus": 2702,
      "queen": 2703,
      "real": 2704,
      "material": 2705,
      "nast": 2706,
      "trade": 2707,
      "tober": 2708,
      "generally": 2709,
      "road": 2710,
      "depart": 2711,
      "lands": 2712,
      "bell": 2713,
      "ival": 2714,
      "played": 2715,
      "women": 2716,
      "key": 2717,
      "october": 2718,
      "espe": 2719,
      "close": 2720,
      "mp": 2721,
      "phys": 2722,
      "commer": 2723,
      "2012": 2724,
      "especially": 2725,
      "austral": 2726,
      "ls": 2727,
      "host": 2728,
      "days": 2729,
      "serv": 2730,
      "21": 2731,
      "half": 2732,
      "proper": 2733,
      "video": 2734,
      "rate": 2735,
      "concept": 2736,
      "span": 2737,
      "experi": 2738,
      "ole": 2739,
      "19th": 2740,
      "emper": 2741,
      "23": 2742,
      "asing": 2743,
      "km": 2744,
      "pred": 2745,
      "2014": 2746,
      "saw": 2747,
      "recent": 2748,
      "ming": 2749,
      "mex": 2750,
      "football": 2751,
      "nav": 2752,
      "previous": 2753,
      "tar": 2754,
      "administr": 2755,
      "bit": 2756,
      "pread": 2757,
      "method": 2758,
      "sure": 2759,
      "sof": 2760,
      "ports": 2761,
      "given": 2762,
      "hest": 2763,
      "short": 2764,
      "dece": 2765,
      "ross": 2766,
      "employ": 2767,
      "wind": 2768,
      "average": 2769,
      "nation": 2770,
      "mexic": 2771,
      "ither": 2772,
      "corpor": 2773,
      "avail": 2774,
      "cou": 2775,
      "beyon": 2776,
      "series": 2777,
      "science": 2778,
      "temper": 2779,
      "ker": 2780,
      "business": 2781,
      "victoria": 2782,
      "nal": 2783,
      "ison": 2784,
      "ites": 2785,
      "health": 2786,
      "ining": 2787,
      "era": 2788,
      "strong": 2789,
      "somet": 2790,
      "rail": 2791,
      "bon": 2792,
      "earth": 2793,
      "carri": 2794,
      "ably": 2795,
      "ground": 2796,
      "traditional": 2797,
      "profess": 2798,
      "pain": 2799,
      "languages": 2800,
      "frequ": 2801,
      "russian": 2802,
      "argu": 2803,
      "opin": 2804,
      "games": 2805,
      "style": 2806,
      "sound": 2807,
      "ished": 2808,
      "distric": 2809,
      "rap": 2810,
      "december": 2811,
      "named": 2812,
      "termin": 2813,
      "april": 2814,
      "asser": 2815,
      "craft": 2816,
      "announ": 2817,
      "ni": 2818,
      "grand": 2819,
      "mountain": 2820,
      "finan": 2821,
      "invest": 2822,
      "cost": 2823,
      "food": 2824,
      "case": 2825,
      "role": 2826,
      "80": 2827,
      "won": 2828,
      "cle": 2829,
      "enced": 2830,
      "green": 2831,
      "recogn": 2832,
      "arily": 2833,
      "dut": 2834,
      "relation": 2835,
      "anti": 2836,
      "minor": 2837,
      "sometimes": 2838,
      "live": 2839,
      "should": 2840,
      "japanese": 2841,
      "budd": 2842,
      "ples": 2843,
      "suf": 2844,
      "private": 2845,
      "electric": 2846,
      "hig": 2847,
      "contra": 2848,
      "22": 2849,
      "dan": 2850,
      "making": 2851,
      "today": 2852,
      "tibet": 2853,
      "2006": 2854,
      "nove": 2855,
      "ith": 2856,
      "foreign": 2857,
      "ches": 2858,
      "left": 2859,
      "highest": 2860,
      "good": 2861,
      "november": 2862,
      "ago": 2863,
      "imately": 2864,
      "nes": 2865,
      "ained": 2866,
      "compan": 2867,
      "muse": 2868,
      "cé": 2869,
      "hab": 2870,
      "fail": 2871,
      "having": 2872,
      "cultural": 2873,
      "enter": 2874,
      "ided": 2875,
      "ending": 2876,
      "model": 2877,
      "quar": 2878,
      "islam": 2879,
      "ae": 2880,
      "regard": 2881,
      "majority": 2882,
      "influence": 2883,
      "evol": 2884,
      "text": 2885,
      "certain": 2886,
      "hard": 2887,
      "portu": 2888,
      "latin": 2889,
      "schol": 2890,
      "word": 2891,
      "rather": 2892,
      "anci": 2893,
      "nap": 2894,
      "maint": 2895,
      "face": 2896,
      "heav": 2897,
      "ograph": 2898,
      "row": 2899,
      "fron": 2900,
      "ene": 2901,
      "must": 2902,
      "ottoman": 2903,
      "tempor": 2904,
      "proble": 2905,
      "dri": 2906,
      "hous": 2907,
      "idence": 2908,
      "dar": 2909,
      "che": 2910,
      "particularly": 2911,
      "manu": 2912,
      "founded": 2913,
      "fri": 2914,
      "attack": 2915,
      "increased": 2916,
      "spanish": 2917,
      "eved": 2918,
      "emperor": 2919,
      "society": 2920,
      "sele": 2921,
      "billion": 2922,
      "moved": 2923,
      "office": 2924,
      "successful": 2925,
      "bom": 2926,
      "received": 2927,
      "ible": 2928,
      "adop": 2929,
      "commit": 2930,
      "armen": 2931,
      "ned": 2932,
      "187": 2933,
      "growth": 2934,
      "audi": 2935,
      "mis": 2936,
      "aren": 2937,
      "aged": 2938,
      "isra": 2939,
      "quest": 2940,
      "islands": 2941,
      "verse": 2942,
      "across": 2943,
      "discover": 2944,
      "final": 2945,
      "super": 2946,
      "ption": 2947,
      "published": 2948,
      "terms": 2949,
      "beyoncé": 2950,
      "launch": 2951,
      "community": 2952,
      "ots": 2953,
      "interest": 2954,
      "dam": 2955,
      "princi": 2956,
      "catholic": 2957,
      "za": 2958,
      "20th": 2959,
      "agree": 2960,
      "ius": 2961,
      "lled": 2962,
      "ships": 2963,
      "available": 2964,
      "theory": 2965,
      "enci": 2966,
      "instru": 2967,
      "ones": 2968,
      "mel": 2969,
      "movement": 2970,
      "cross": 2971,
      "labor": 2972,
      "communic": 2973,
      "ids": 2974,
      "inste": 2975,
      "africa": 2976,
      "fra": 2977,
      "coast": 2978,
      "reason": 2979,
      "mission": 2980,
      "space": 2981,
      "indian": 2982,
      "offer": 2983,
      "dynast": 2984,
      "ancient": 2985,
      "ler": 2986,
      "27": 2987,
      "care": 2988,
      "legal": 2989,
      "accept": 2990,
      "date": 2991,
      "written": 2992,
      "father": 2993,
      "appear": 2994,
      "nations": 2995,
      "urban": 2996,
      "aries": 2997,
      "william": 2998,
      "ices": 2999,
      "hor": 3000,
      "treaty": 3001,
      "meas": 3002,
      "syn": 3003,
      "rought": 3004,
      "industri": 3005,
      "aff": 3006,
      "museum": 3007,
      "ring": 3008,
      "fest": 3009,
      "imper": 3010,
      "impro": 3011,
      "rome": 3012,
      "execut": 3013,
      "sug": 3014,
      "fle": 3015,
      "glo": 3016,
      "nel": 3017,
      "asia": 3018,
      "acy": 3019,
      "secre": 3020,
      "ai": 3021,
      "pun": 3022,
      "plant": 3023,
      "upon": 3024,
      "records": 3025,
      "color": 3026,
      "ured": 3027,
      "cho": 3028,
      "ues": 3029,
      "itself": 3030,
      "hold": 3031,
      "either": 3032,
      "muslim": 3033,
      "promo": 3034,
      "ama": 3035,
      "data": 3036,
      "ental": 3037,
      "never": 3038,
      "190": 3039,
      "cat": 3040,
      "ateg": 3041,
      "don": 3042,
      "ping": 3043,
      "2015": 3044,
      "industry": 3045,
      "introduced": 3046,
      "member": 3047,
      "media": 3048,
      "bul": 3049,
      "pot": 3050,
      "xed": 3051,
      "george": 3052,
      "estim": 3053,
      "oto": 3054,
      "possible": 3055,
      "asse": 3056,
      "uran": 3057,
      "beginning": 3058,
      "pruss": 3059,
      "occup": 3060,
      "haven": 3061,
      "rup": 3062,
      "compu": 3063,
      "febr": 3064,
      "february": 3065,
      "effect": 3066,
      "emer": 3067,
      "ties": 3068,
      "uries": 3069,
      "services": 3070,
      "anal": 3071,
      "suggest": 3072,
      "sil": 3073,
      "lines": 3074,
      "mac": 3075,
      "increasing": 3076,
      "ought": 3077,
      "cks": 3078,
      "affe": 3079,
      "gun": 3080,
      "envir": 3081,
      "financial": 3082,
      "ense": 3083,
      "accoun": 3084,
      "neigh": 3085,
      "abo": 3086,
      "related": 3087,
      "say": 3088,
      "2005": 3089,
      "distin": 3090,
      "ery": 3091,
      "lling": 3092,
      "technology": 3093,
      "environ": 3094,
      ".,": 3095,
      "chem": 3096,
      "bill": 3097,
      "square": 3098,
      "base": 3099,
      "rain": 3100,
      "served": 3101,
      "amoun": 3102,
      "respe": 3103,
      "radio": 3104,
      "ases": 3105,
      "whe": 3106,
      "hood": 3107,
      "teen": 3108,
      "exam": 3109,
      "aircraft": 3110,
      "28": 3111,
      "sha": 3112,
      "uan": 3113,
      "youn": 3114,
      "access": 3115,
      "micro": 3116,
      "independent": 3117,
      "conc": 3118,
      "tex": 3119,
      "changes": 3120,
      "26": 3121,
      "announced": 3122,
      "itive": 3123,
      "selves": 3124,
      "atory": 3125,
      "county": 3126,
      "instead": 3127,
      "omin": 3128,
      "teach": 3129,
      "manufact": 3130,
      "acc": 3131,
      "followed": 3132,
      "rote": 3133,
      "information": 3134,
      "hen": 3135,
      "kore": 3136,
      "outh": 3137,
      "seen": 3138,
      "sexual": 3139,
      "construction": 3140,
      "desp": 3141,
      "scri": 3142,
      "department": 3143,
      "almost": 3144,
      "parliam": 3145,
      "bacter": 3146,
      "night": 3147,
      "thought": 3148,
      "primary": 3149,
      "district": 3150,
      "knowled": 3151,
      "tail": 3152,
      "minister": 3153,
      "television": 3154,
      "ows": 3155,
      "greater": 3156,
      "mother": 3157,
      "ends": 3158,
      "seven": 3159,
      "themselves": 3160,
      "active": 3161,
      "except": 3162,
      "apt": 3163,
      "relative": 3164,
      "allowed": 3165,
      "wrote": 3166,
      "jects": 3167,
      "viol": 3168,
      "acade": 3169,
      "29": 3170,
      "aut": 3171,
      "provide": 3172,
      "mag": 3173,
      "consider": 3174,
      "classical": 3175,
      "foc": 3176,
      "brought": 3177,
      "spo": 3178,
      "once": 3179,
      "associated": 3180,
      "despite": 3181,
      "least": 3182,
      "devic": 3183,
      "resident": 3184,
      "express": 3185,
      "napole": 3186,
      "idge": 3187,
      "capac": 3188,
      "dynasty": 3189,
      "ali": 3190,
      "policy": 3191,
      "ctively": 3192,
      "jewish": 3193,
      "fem": 3194,
      "hour": 3195,
      "hing": 3196,
      "structure": 3197,
      "ica": 3198,
      "appoint": 3199,
      "anted": 3200,
      "plants": 3201,
      "chopin": 3202,
      "eli": 3203,
      "past": 3204,
      "die": 3205,
      "theast": 3206,
      "utions": 3207,
      "ford": 3208,
      "police": 3209,
      "jews": 3210,
      "chief": 3211,
      "napoleon": 3212,
      "acks": 3213,
      "arts": 3214,
      "mot": 3215,
      "gold": 3216,
      "inse": 3217,
      "events": 3218,
      "oly": 3219,
      "coming": 3220,
      "tax": 3221,
      "leading": 3222,
      "commercial": 3223,
      "mun": 3224,
      "full": 3225,
      "laws": 3226,
      "greece": 3227,
      "imperial": 3228,
      "flo": 3229,
      "stor": 3230,
      "ethnic": 3231,
      "centuries": 3232,
      "entire": 3233,
      "indic": 3234,
      "champ": 3235,
      "parliament": 3236,
      "lon": 3237,
      "lect": 3238,
      "concern": 3239,
      "enna": 3240,
      "next": 3241,
      "via": 3242,
      "specific": 3243,
      "increase": 3244,
      "fav": 3245,
      "regul": 3246,
      "hall": 3247,
      "remained": 3248,
      "version": 3249,
      "condu": 3250,
      "complete": 3251,
      "native": 3252,
      "loss": 3253,
      "90": 3254,
      "race": 3255,
      "metro": 3256,
      "independence": 3257,
      "consist": 3258,
      "500": 3259,
      "miss": 3260,
      "caused": 3261,
      "whose": 3262,
      "organization": 3263,
      "185": 3264,
      "outside": 3265,
      "meet": 3266,
      "designed": 3267,
      "territory": 3268,
      "perfor": 3269,
      "living": 3270,
      "described": 3271,
      "ilities": 3272,
      "vot": 3273,
      "neg": 3274,
      "decis": 3275,
      "week": 3276,
      "approx": 3277,
      "186": 3278,
      "speed": 3279,
      "hib": 3280,
      "ades": 3281,
      "expe": 3282,
      "ification": 3283,
      "required": 3284,
      "cod": 3285,
      "tru": 3286,
      "toge": 3287,
      "division": 3288,
      "von": 3289,
      "prior": 3290,
      "congress": 3291,
      "working": 3292,
      "leaders": 3293,
      "buildings": 3294,
      "ify": 3295,
      "started": 3296,
      "dutch": 3297,
      "sib": 3298,
      "together": 3299,
      "award": 3300,
      "resist": 3301,
      "cases": 3302,
      "religion": 3303,
      "cens": 3304,
      "campa": 3305,
      "ances": 3306,
      "environment": 3307,
      "campaign": 3308,
      "status": 3309,
      "performan": 3310,
      "nasser": 3311,
      "typically": 3312,
      "pit": 3313,
      "eventually": 3314,
      "little": 3315,
      "thro": 3316,
      "diale": 3317,
      "lied": 3318,
      "big": 3319,
      "applic": 3320,
      "ane": 3321,
      "wall": 3322,
      "association": 3323,
      "mexico": 3324,
      "fire": 3325,
      "sain": 3326,
      "mary": 3327,
      "economy": 3328,
      "spir": 3329,
      "network": 3330,
      "visit": 3331,
      "cele": 3332,
      "limited": 3333,
      "istan": 3334,
      "complex": 3335,
      "architecture": 3336,
      "died": 3337,
      "elev": 3338,
      "scientific": 3339,
      "va": 3340,
      "reported": 3341,
      "studies": 3342,
      "ceed": 3343,
      "stom": 3344,
      "forced": 3345,
      "powers": 3346,
      "airport": 3347,
      "israel": 3348,
      "contribut": 3349,
      "183": 3350,
      "vention": 3351,
      "conflic": 3352,
      "mill": 3353,
      "counter": 3354,
      "standing": 3355,
      "includes": 3356,
      "front": 3357,
      "born": 3358,
      "lies": 3359,
      "secret": 3360,
      "reser": 3361,
      "jing": 3362,
      "engine": 3363,
      "exper": 3364,
      "words": 3365,
      "broadcast": 3366,
      "secur": 3367,
      "ened": 3368,
      "referred": 3369,
      "taken": 3370,
      "companies": 3371,
      "iran": 3372,
      "deb": 3373,
      "birth": 3374,
      "premi": 3375,
      "marri": 3376,
      "hon": 3377,
      "cru": 3378,
      "peace": 3379,
      "americans": 3380,
      "expand": 3381,
      "summer": 3382,
      "van": 3383,
      "birds": 3384,
      "sit": 3385,
      "utes": 3386,
      "wealth": 3387,
      "regions": 3388,
      "critic": 3389,
      "troops": 3390,
      "antic": 3391,
      "cot": 3392,
      "speak": 3393,
      "citiz": 3394,
      "australia": 3395,
      "widely": 3396,
      "ising": 3397,
      "mechan": 3398,
      "cub": 3399,
      "numer": 3400,
      "above": 3401,
      "cause": 3402,
      "ately": 3403,
      "subsequ": 3404,
      "dou": 3405,
      "hill": 3406,
      "pose": 3407,
      "title": 3408,
      "pay": 3409,
      "room": 3410,
      "centre": 3411,
      "oil": 3412,
      "augh": 3413,
      "canada": 3414,
      "celebr": 3415,
      "temporary": 3416,
      "demon": 3417,
      "lou": 3418,
      "bank": 3419,
      "domest": 3420,
      "supre": 3421,
      "famous": 3422,
      "passed": 3423,
      "alex": 3424,
      "bron": 3425,
      "tv": 3426,
      "thous": 3427,
      "lost": 3428,
      "graph": 3429,
      "ior": 3430,
      "approximately": 3431,
      "ki": 3432,
      "annual": 3433,
      "provided": 3434,
      "pi": 3435,
      "stic": 3436,
      "star": 3437,
      "189": 3438,
      "acqu": 3439,
      "governor": 3440,
      "prince": 3441,
      "stone": 3442,
      "sec": 3443,
      "help": 3444,
      "eston": 3445,
      "legisl": 3446,
      "inal": 3447,
      "boo": 3448,
      "went": 3449,
      "70": 3450,
      "rang": 3451,
      "swit": 3452,
      "fig": 3453,
      "atl": 3454,
      "knowledge": 3455,
      "box": 3456,
      "thousand": 3457,
      "aking": 3458,
      "leader": 3459,
      "diffic": 3460,
      "imp": 3461,
      "means": 3462,
      "meaning": 3463,
      "thre": 3464,
      "188": 3465,
      "destroy": 3466,
      "source": 3467,
      "transport": 3468,
      "ye": 3469,
      "philosophy": 3470,
      "claimed": 3471,
      "carol": 3472,
      "settle": 3473,
      "ake": 3474,
      "defe": 3475,
      "subst": 3476,
      "aring": 3477,
      "divid": 3478,
      "ira": 3479,
      "demonstr": 3480,
      "paul": 3481,
      "zer": 3482,
      "reached": 3483,
      "\")": 3484,
      "dise": 3485,
      "difficult": 3486,
      "attra": 3487,
      "2004": 3488,
      "card": 3489,
      "greg": 3490,
      "opened": 3491,
      "mont": 3492,
      "olymp": 3493,
      "kind": 3494,
      "months": 3495,
      "estimated": 3496,
      "domestic": 3497,
      "scot": 3498,
      "hit": 3499,
      "site": 3500,
      "ray": 3501,
      "italy": 3502,
      "windows": 3503,
      "spread": 3504,
      "mostly": 3505,
      "prime": 3506,
      "45": 3507,
      "code": 3508,
      "boston": 3509,
      "election": 3510,
      "particip": 3511,
      "famil": 3512,
      "universal": 3513,
      "regular": 3514,
      "gave": 3515,
      "personal": 3516,
      "authority": 3517,
      "you": 3518,
      "commonly": 3519,
      "nearly": 3520,
      "universities": 3521,
      "hop": 3522,
      "lor": 3523,
      "nature": 3524,
      "democr": 3525,
      "ney": 3526,
      "medical": 3527,
      "operations": 3528,
      "industrial": 3529,
      "nan": 3530,
      "bran": 3531,
      "palace": 3532,
      "oles": 3533,
      "2000": 3534,
      "larger": 3535,
      "fund": 3536,
      "auto": 3537,
      "iii": 3538,
      "elected": 3539,
      "conserv": 3540,
      "rus": 3541,
      "why": 3542,
      "charles": 3543,
      "decla": 3544,
      "commission": 3545,
      "(\"": 3546,
      "fut": 3547,
      "apple": 3548,
      "evidence": 3549,
      "fla": 3550,
      "teams": 3551,
      "jour": 3552,
      "ony": 3553,
      "philip": 3554,
      "italian": 3555,
      "earlier": 3556,
      "assemb": 3557,
      "arri": 3558,
      "austri": 3559,
      "soon": 3560,
      "isms": 3561,
      "involved": 3562,
      "rise": 3563,
      "size": 3564,
      "orient": 3565,
      "constant": 3566,
      "administration": 3567,
      "eight": 3568,
      "sat": 3569,
      "replaced": 3570,
      "primarily": 3571,
      "bri": 3572,
      "excl": 3573,
      "ireland": 3574,
      "produce": 3575,
      "oce": 3576,
      "break": 3577,
      "35": 3578,
      "motion": 3579,
      "oney": 3580,
      "release": 3581,
      "computer": 3582,
      "alexand": 3583,
      "wer": 3584,
      "berg": 3585,
      "originally": 3586,
      "regional": 3587,
      "genet": 3588,
      "sett": 3589,
      "ram": 3590,
      "spect": 3591,
      "suffer": 3592,
      "security": 3593,
      "los": 3594,
      "largely": 3595,
      "supreme": 3596,
      "variety": 3597,
      "mouth": 3598,
      "animals": 3599,
      "nine": 3600,
      "glass": 3601,
      "orthod": 3602,
      "orthodox": 3603,
      "theat": 3604,
      "historical": 3605,
      "prevent": 3606,
      "dru": 3607,
      "russia": 3608,
      "rid": 3609,
      "too": 3610,
      "washing": 3611,
      "islamic": 3612,
      "afi": 3613,
      "solar": 3614,
      "fight": 3615,
      "thin": 3616,
      "blue": 3617,
      "compon": 3618,
      "gadd": 3619,
      "spr": 3620,
      "prov": 3621,
      "saint": 3622,
      "mes": 3623,
      "away": 3624,
      "sho": 3625,
      "border": 3626,
      "wat": 3627,
      "plann": 3628,
      "transl": 3629,
      "docu": 3630,
      "invas": 3631,
      "habit": 3632,
      "hunting": 3633,
      "artists": 3634,
      "global": 3635,
      "function": 3636,
      "ength": 3637,
      "separate": 3638,
      "necess": 3639,
      "sold": 3640,
      "adopted": 3641,
      "amount": 3642,
      "stad": 3643,
      "share": 3644,
      "clear": 3645,
      "ging": 3646,
      "connect": 3647,
      "atives": 3648,
      "types": 3649,
      "poly": 3650,
      "vert": 3651,
      "young": 3652,
      "sor": 3653,
      "photo": 3654,
      "project": 3655,
      "chemical": 3656,
      "drop": 3657,
      "james": 3658,
      "elements": 3659,
      "operation": 3660,
      "hot": 3661,
      "rapid": 3662,
      "chest": 3663,
      "agric": 3664,
      "gradu": 3665,
      "travel": 3666,
      "itor": 3667,
      "ets": 3668,
      "beha": 3669,
      "torch": 3670,
      "scholars": 3671,
      "quality": 3672,
      "acts": 3673,
      "agricult": 3674,
      "sports": 3675,
      "believed": 3676,
      "levels": 3677,
      "ded": 3678,
      "ready": 3679,
      "wel": 3680,
      "dav": 3681,
      "killed": 3682,
      "round": 3683,
      "ji": 3684,
      "deal": 3685,
      "washington": 3686,
      "gaddafi": 3687,
      "winter": 3688,
      "okla": 3689,
      "custom": 3690,
      "approach": 3691,
      "eval": 3692,
      "divided": 3693,
      "thes": 3694,
      "kar": 3695,
      "icle": 3696,
      "hay": 3697,
      "gas": 3698,
      "184": 3699,
      "dic": 3700,
      "ware": 3701,
      "log": 3702,
      "smaller": 3703,
      "numerous": 3704,
      "whether": 3705,
      "usion": 3706,
      "oklahom": 3707,
      "tee": 3708,
      "onna": 3709,
      "practice": 3710,
      "agreement": 3711,
      "sess": 3712,
      "libr": 3713,
      "cali": 3714,
      "pel": 3715,
      "integr": 3716,
      "behavi": 3717,
      "hund": 3718,
      "mir": 3719,
      "portion": 3720,
      "experience": 3721,
      "ference": 3722,
      "paper": 3723,
      "influenced": 3724,
      "brother": 3725,
      "issue": 3726,
      "madonna": 3727,
      "paren": 3728,
      "crim": 3729,
      "campus": 3730,
      "remains": 3731,
      "response": 3732,
      "ino": 3733,
      "declared": 3734,
      "churches": 3735,
      "ners": 3736,
      "yale": 3737,
      "print": 3738,
      "neighbor": 3739,
      "situ": 3740,
      "future": 3741,
      "hind": 3742,
      "isen": 3743,
      "effic": 3744,
      "maintain": 3745,
      "census": 3746,
      "ula": 3747,
      "lying": 3748,
      "temperature": 3749,
      "promin": 3750,
      "ored": 3751,
      "comes": 3752,
      "perform": 3753,
      "monarch": 3754,
      "supported": 3755,
      "whom": 3756,
      "fif": 3757,
      "bay": 3758,
      "carolina": 3759,
      "infe": 3760,
      "oklahoma": 3761,
      "news": 3762,
      "changed": 3763,
      "psy": 3764,
      "pope": 3765,
      "hydro": 3766,
      ",\"": 3767,
      "bridge": 3768,
      "features": 3769,
      "institute": 3770,
      "istics": 3771,
      "directly": 3772,
      "performance": 3773,
      "eve": 3774,
      "sole": 3775,
      "acters": 3776,
      "ering": 3777,
      "characters": 3778,
      "experim": 3779,
      "ention": 3780,
      "climate": 3781,
      "subject": 3782,
      "compet": 3783,
      "script": 3784,
      "digital": 3785,
      "atlantic": 3786,
      "might": 3787,
      "villa": 3788,
      "electron": 3789,
      "institutions": 3790,
      "relationship": 3791,
      "scale": 3792,
      "bourne": 3793,
      "himself": 3794,
      "physical": 3795,
      "stra": 3796,
      "phy": 3797,
      "plement": 3798,
      "recording": 3799,
      "literature": 3800,
      "ida": 3801,
      "cris": 3802,
      "hundred": 3803,
      "75": 3804,
      "spa": 3805,
      "longer": 3806,
      "spain": 3807,
      "tware": 3808,
      "software": 3809,
      "ror": 3810,
      "thom": 3811,
      "distribut": 3812,
      "anthro": 3813,
      "identity": 3814,
      "defined": 3815,
      "flor": 3816,
      "cred": 3817,
      "officially": 3818,
      "symb": 3819,
      "nuc": 3820,
      "recorded": 3821,
      "cis": 3822,
      "2003": 3823,
      "iger": 3824,
      "copper": 3825,
      "igen": 3826,
      "added": 3827,
      "mountains": 3828,
      "professional": 3829,
      "ami": 3830,
      "currently": 3831,
      "writing": 3832,
      "houses": 3833,
      "immigr": 3834,
      "extre": 3835,
      "mainly": 3836,
      "pc": 3837,
      "virgin": 3838,
      "threat": 3839,
      "nar": 3840,
      "decre": 3841,
      "actions": 3842,
      "numbers": 3843,
      "gi": 3844,
      "fu": 3845,
      "manage": 3846,
      "aven": 3847,
      "polog": 3848,
      "ordin": 3849,
      "formal": 3850,
      "survi": 3851,
      "keep": 3852,
      "province": 3853,
      "jes": 3854,
      "require": 3855,
      "henry": 3856,
      "sens": 3857,
      "core": 3858,
      "bish": 3859,
      "likely": 3860,
      "humans": 3861,
      "cha": 3862,
      "18th": 3863,
      "relatively": 3864,
      "discuss": 3865,
      "tun": 3866,
      "stated": 3867,
      "downtown": 3868,
      "mas": 3869,
      "players": 3870,
      "paci": 3871,
      "stop": 3872,
      "store": 3873,
      "create": 3874,
      "earliest": 3875,
      "money": 3876,
      "heavy": 3877,
      "parties": 3878,
      "sus": 3879,
      "fell": 3880,
      "avo": 3881,
      "therefore": 3882,
      "ja": 3883,
      "communities": 3884,
      "previously": 3885,
      "iel": 3886,
      "highly": 3887,
      "melbourne": 3888,
      "portugu": 3889,
      "happ": 3890,
      "marked": 3891,
      "stream": 3892,
      "evolution": 3893,
      "ria": 3894,
      "organiz": 3895,
      "max": 3896,
      "kil": 3897,
      "activity": 3898,
      "conflict": 3899,
      "wid": 3900,
      "heart": 3901,
      "firm": 3902,
      "prom": 3903,
      "executive": 3904,
      "ocean": 3905,
      "ya": 3906,
      "reli": 3907,
      "contemporary": 3908,
      "labour": 3909,
      "airs": 3910,
      "festival": 3911,
      "resp": 3912,
      "lod": 3913,
      "nia": 3914,
      "neu": 3915,
      "initially": 3916,
      "gain": 3917,
      "copy": 3918,
      "mosa": 3919,
      "soldi": 3920,
      "expans": 3921,
      "worldwide": 3922,
      "training": 3923,
      "incorpor": 3924,
      "cotton": 3925,
      "lived": 3926,
      "hum": 3927,
      "concl": 3928,
      "mut": 3929,
      "hosp": 3930,
      "motor": 3931,
      "eisen": 3932,
      "female": 3933,
      "problems": 3934,
      "louis": 3935,
      "sand": 3936,
      "interpre": 3937,
      "launched": 3938,
      "ec": 3939,
      "towards": 3940,
      "wit": 3941,
      "premier": 3942,
      "determin": 3943,
      "notable": 3944,
      "portuguese": 3945,
      "load": 3946,
      "2001": 3947,
      "catal": 3948,
      "valu": 3949,
      "altern": 3950,
      "chic": 3951,
      "stadium": 3952,
      "fish": 3953,
      "internet": 3954,
      "categ": 3955,
      "isation": 3956,
      "hours": 3957,
      "onic": 3958,
      "demand": 3959,
      "assist": 3960,
      "ranked": 3961,
      "oldest": 3962,
      "encies": 3963,
      "owned": 3964,
      "colum": 3965,
      "houston": 3966,
      "ko": 3967,
      "invent": 3968,
      "aving": 3969,
      "cade": 3970,
      "musical": 3971,
      "pacific": 3972,
      "burg": 3973,
      "better": 3974,
      "dol": 3975,
      "ously": 3976,
      "mann": 3977,
      "jur": 3978,
      "reed": 3979,
      "stren": 3980,
      "atures": 3981,
      "stations": 3982,
      "bacteria": 3983,
      "wing": 3984,
      "products": 3985,
      "sac": 3986,
      "defence": 3987,
      "mur": 3988,
      "medic": 3989,
      "occurred": 3990,
      "coura": 3991,
      "serve": 3992,
      "value": 3993,
      "fast": 3994,
      "path": 3995,
      "eisenhow": 3996,
      "farm": 3997,
      "pton": 3998,
      "fourth": 3999,
      "section": 4000,
      "concer": 4001,
      "kerry": 4002,
      "pattern": 4003,
      "eisenhower": 4004,
      "always": 4005,
      "mob": 4006,
      "ideas": 4007,
      "resulted": 4008,
      "flow": 4009,
      "gaz": 4010,
      "champion": 4011,
      "dna": 4012,
      "latter": 4013,
      "resulting": 4014,
      "brain": 4015,
      "anthropolog": 4016,
      "gla": 4017,
      "dogs": 4018,
      "doct": 4019,
      "unit": 4020,
      "canadian": 4021,
      "names": 4022,
      "wild": 4023,
      "phen": 4024,
      "crisis": 4025,
      "ses": 4026,
      "jected": 4027,
      "electr": 4028,
      "freed": 4029,
      "compared": 4030,
      "individuals": 4031,
      "streng": 4032,
      "poor": 4033,
      "discovered": 4034,
      "ech": 4035,
      "signed": 4036,
      "antib": 4037,
      "historic": 4038,
      "dre": 4039,
      "returned": 4040,
      "soft": 4041,
      "metropolit": 4042,
      "hospital": 4043,
      "bapt": 4044,
      "circ": 4045,
      "occas": 4046,
      "miles": 4047,
      "polish": 4048,
      "las": 4049,
      "ems": 4050,
      "indigen": 4051,
      "books": 4052,
      "daily": 4053,
      "mathem": 4054,
      "alle": 4055,
      "progress": 4056,
      "cab": 4057,
      "indigenous": 4058,
      "invasion": 4059,
      "65": 4060,
      "dance": 4061,
      "pu": 4062,
      "vast": 4063,
      "clos": 4064,
      "growing": 4065,
      "metropolitan": 4066,
      "minority": 4067,
      "igned": 4068,
      "shif": 4069,
      "audio": 4070,
      "mach": 4071,
      "provin": 4072,
      "31": 4073,
      "300": 4074,
      "voc": 4075,
      "zinc": 4076,
      "purch": 4077,
      "iated": 4078,
      "note": 4079,
      "relations": 4080,
      "...": 4081,
      "units": 4082,
      "wars": 4083,
      "appeared": 4084,
      "review": 4085,
      "spring": 4086,
      "concent": 4087,
      "creation": 4088,
      "bound": 4089,
      "ying": 4090,
      "2002": 4091,
      "marsh": 4092,
      "kings": 4093,
      "hell": 4094,
      "student": 4095,
      "match": 4096,
      "examples": 4097,
      "southeast": 4098,
      "transfer": 4099,
      "sense": 4100,
      "magaz": 4101,
      "songs": 4102,
      "bing": 4103,
      "qual": 4104,
      "feature": 4105,
      "tained": 4106,
      "newspa": 4107,
      "benef": 4108,
      "give": 4109,
      "conditions": 4110,
      "gg": 4111,
      "expansion": 4112,
      "aur": 4113,
      "becoming": 4114,
      "repe": 4115,
      "irish": 4116,
      "surface": 4117,
      "appointed": 4118,
      "soldiers": 4119,
      "adult": 4120,
      "multip": 4121,
      "ires": 4122,
      "phas": 4123,
      "dog": 4124,
      "basic": 4125,
      "lord": 4126,
      "flight": 4127,
      "sources": 4128,
      "metal": 4129,
      "adoles": 4130,
      "responsible": 4131,
      "forts": 4132,
      "extreme": 4133,
      "performed": 4134,
      "liby": 4135,
      "ert": 4136,
      "restr": 4137,
      "techni": 4138,
      "immedi": 4139,
      "quick": 4140,
      "presence": 4141,
      "hap": 4142,
      "rect": 4143,
      "below": 4144,
      "families": 4145,
      ");": 4146,
      "onom": 4147,
      "1980s": 4148,
      "starting": 4149,
      "issues": 4150,
      "philosoph": 4151,
      "committee": 4152,
      "sph": 4153,
      "encoura": 4154,
      "territories": 4155,
      "populations": 4156,
      "intell": 4157,
      "clubs": 4158,
      "proposed": 4159,
      "cand": 4160,
      "py": 4161,
      "already": 4162,
      "arist": 4163,
      "genes": 4164,
      "residents": 4165,
      "insects": 4166,
      "korea": 4167,
      "mart": 4168,
      "potential": 4169,
      "eas": 4170,
      "mandol": 4171,
      "competition": 4172,
      "cere": 4173,
      "ky": 4174,
      "yet": 4175,
      "helped": 4176,
      "stage": 4177,
      "step": 4178,
      "foundation": 4179,
      "jer": 4180,
      "resour": 4181,
      "devices": 4182,
      "400": 4183,
      "acu": 4184,
      "avenue": 4185,
      "speaking": 4186,
      "percentage": 4187,
      "richard": 4188,
      "perman": 4189,
      "belief": 4190,
      "intellig": 4191,
      "kin": 4192,
      "rat": 4193,
      "faith": 4194,
      "asian": 4195,
      "fully": 4196,
      "library": 4197,
      "carry": 4198,
      "covered": 4199,
      "true": 4200,
      "plat": 4201,
      "granted": 4202,
      "valley": 4203,
      "emphas": 4204,
      "films": 4205,
      "medieval": 4206,
      "anta": 4207,
      "spoken": 4208,
      "aim": 4209,
      "arct": 4210,
      "gue": 4211,
      "wides": 4212,
      "content": 4213,
      "programs": 4214,
      "contrast": 4215,
      "ena": 4216,
      "sell": 4217,
      "course": 4218,
      "behind": 4219,
      "portugal": 4220,
      "intel": 4221,
      "sir": 4222,
      "dell": 4223,
      "imum": 4224,
      "headquar": 4225,
      "ipo": 4226,
      "reven": 4227,
      "degree": 4228,
      "wr": 4229,
      "attacks": 4230,
      "wrest": 4231,
      "albert": 4232,
      "achi": 4233,
      "180": 4234,
      "48": 4235,
      "atom": 4236,
      "gene": 4237,
      "management": 4238,
      "cannot": 4239,
      "troit": 4240,
      "zone": 4241,
      "frank": 4242,
      "tered": 4243,
      "plymouth": 4244,
      "friend": 4245,
      "mich": 4246,
      "aled": 4247,
      "exhib": 4248,
      "nut": 4249,
      "detroit": 4250,
      "mixed": 4251,
      "activities": 4252,
      "account": 4253,
      "proto": 4254,
      "phone": 4255,
      "mond": 4256,
      "resistance": 4257,
      "conver": 4258,
      "aid": 4259,
      "rates": 4260,
      "1970s": 4261,
      "genetic": 4262,
      "racial": 4263,
      "finally": 4264,
      "bin": 4265,
      "robert": 4266,
      "master": 4267,
      "assembly": 4268,
      "thomas": 4269,
      "usive": 4270,
      "citizens": 4271,
      "78": 4272,
      "ols": 4273,
      "fair": 4274,
      "iter": 4275,
      "product": 4276,
      "continent": 4277,
      "ush": 4278,
      "thousands": 4279,
      "length": 4280,
      "edition": 4281,
      "sover": 4282,
      "failed": 4283,
      "reign": 4284,
      "uranium": 4285,
      "iron": 4286,
      "desc": 4287,
      "tory": 4288,
      "agreed": 4289,
      "effects": 4290,
      "roun": 4291,
      "ched": 4292,
      "extra": 4293,
      "question": 4294,
      "niger": 4295,
      "decided": 4296,
      "omet": 4297,
      "find": 4298,
      "armed": 4299,
      "amed": 4300,
      "limit": 4301,
      "additional": 4302,
      "awards": 4303,
      "quake": 4304,
      "ug": 4305,
      "izing": 4306,
      "respond": 4307,
      "hism": 4308,
      "reduced": 4309,
      "defeated": 4310,
      "quant": 4311,
      "david": 4312,
      "jesus": 4313,
      "holds": 4314,
      "applied": 4315,
      "sales": 4316,
      "ather": 4317,
      "pie": 4318,
      "track": 4319,
      "contest": 4320,
      "idea": 4321,
      "ruled": 4322,
      "peoples": 4323,
      "controlled": 4324,
      "vote": 4325,
      "investig": 4326,
      "prominent": 4327,
      "lad": 4328,
      "format": 4329,
      "extensive": 4330,
      "basis": 4331,
      "taking": 4332,
      "widespread": 4333,
      "liver": 4334,
      "advant": 4335,
      "places": 4336,
      "animal": 4337,
      "secretary": 4338,
      "phal": 4339,
      "disease": 4340,
      "33": 4341,
      "div": 4342,
      "1990s": 4343,
      "purpose": 4344,
      "armenian": 4345,
      "improve": 4346,
      "anced": 4347,
      "antenna": 4348,
      "multiple": 4349,
      "love": 4350,
      "compar": 4351,
      "aspe": 4352,
      "weap": 4353,
      "location": 4354,
      "officials": 4355,
      "eties": 4356,
      "journal": 4357,
      "oral": 4358,
      "ampton": 4359,
      "nd": 4360,
      "theatre": 4361,
      "allows": 4362,
      "argued": 4363,
      "fill": 4364,
      "joined": 4365,
      "contains": 4366,
      "aging": 4367,
      "supply": 4368,
      "apol": 4369,
      "kh": 4370,
      "mm": 4371,
      "artist": 4372,
      "bring": 4373,
      "grew": 4374,
      "protestant": 4375,
      "geograph": 4376,
      "liberal": 4377,
      "tibetan": 4378,
      "chicago": 4379,
      "property": 4380,
      "prob": 4381,
      "iation": 4382,
      "ises": 4383,
      "tel": 4384,
      "delhi": 4385,
      "jian": 4386,
      "noted": 4387,
      "bronx": 4388,
      "rare": 4389,
      "matter": 4390,
      "cking": 4391,
      "iles": 4392,
      "folk": 4393,
      "crown": 4394,
      "democratic": 4395,
      "doctr": 4396,
      "snow": 4397,
      "income": 4398,
      "pict": 4399,
      "possib": 4400,
      "concentr": 4401,
      "inno": 4402,
      "phon": 4403,
      "crime": 4404,
      "implement": 4405,
      "identified": 4406,
      "colonial": 4407,
      "95": 4408,
      "beyond": 4409,
      "resol": 4410,
      "herit": 4411,
      "cells": 4412,
      "lee": 4413,
      "prison": 4414,
      "continue": 4415,
      "ieve": 4416,
      "gard": 4417,
      "aves": 4418,
      "achieve": 4419,
      "nob": 4420,
      "critical": 4421,
      "distinct": 4422,
      "ode": 4423,
      "reform": 4424,
      "turk": 4425,
      "existence": 4426,
      "orial": 4427,
      "ques": 4428,
      "whole": 4429,
      "guard": 4430,
      "hua": 4431,
      "letter": 4432,
      "definition": 4433,
      "navy": 4434,
      "colleg": 4435,
      "ax": 4436,
      "adel": 4437,
      "gained": 4438,
      "qing": 4439,
      "upper": 4440,
      "sym": 4441,
      "staff": 4442,
      "olympic": 4443,
      "cting": 4444,
      "mc": 4445,
      "lif": 4446,
      "republican": 4447,
      "ny": 4448,
      "tuc": 4449,
      "older": 4450,
      "mitted": 4451,
      "forest": 4452,
      "pet": 4453,
      "equip": 4454,
      "route": 4455,
      "braz": 4456,
      "ension": 4457,
      "object": 4458,
      "link": 4459,
      "rules": 4460,
      "ffic": 4461,
      "vary": 4462,
      "spirit": 4463,
      "settlement": 4464,
      "gall": 4465,
      "cathe": 4466,
      "miami": 4467,
      "believe": 4468,
      "wan": 4469,
      "ivity": 4470,
      "batt": 4471,
      "idol": 4472,
      "endo": 4473,
      "render": 4474,
      "memory": 4475,
      "southampton": 4476,
      "zant": 4477,
      "ingu": 4478,
      "blood": 4479,
      "frequently": 4480,
      "hellen": 4481,
      ".:": 4482,
      "bann": 4483,
      "efforts": 4484,
      "emotion": 4485,
      "protection": 4486,
      "impact": 4487,
      "ita": 4488,
      "visions": 4489,
      "address": 4490,
      "zo": 4491,
      "quickly": 4492,
      "story": 4493,
      "consists": 4494,
      "1960s": 4495,
      "sumed": 4496,
      "completed": 4497,
      "decline": 4498,
      "focus": 4499,
      "gam": 4500,
      "arian": 4501,
      "possess": 4502,
      "entertain": 4503,
      "prussia": 4504,
      "zi": 4505,
      "methods": 4506,
      "alp": 4507,
      "sky": 4508,
      "tan": 4509,
      "decade": 4510,
      "organisms": 4511,
      "destroyed": 4512,
      "valenci": 4513,
      "giving": 4514,
      "conqu": 4515,
      "nuclear": 4516,
      "consum": 4517,
      "bat": 4518,
      "generation": 4519,
      "operating": 4520,
      "buddhism": 4521,
      "derived": 4522,
      "install": 4523,
      "decision": 4524,
      "tucson": 4525,
      "collection": 4526,
      "texts": 4527,
      "switzer": 4528,
      "ister": 4529,
      "64": 4530,
      "recently": 4531,
      "problem": 4532,
      "victory": 4533,
      "differences": 4534,
      "38": 4535,
      "pir": 4536,
      "pul": 4537,
      "icted": 4538,
      "element": 4539,
      "expected": 4540,
      "officers": 4541,
      "francis": 4542,
      "switzerland": 4543,
      "playing": 4544,
      "jun": 4545,
      "seattle": 4546,
      "beer": 4547,
      "lake": 4548,
      "atest": 4549,
      "greatest": 4550,
      "carbon": 4551,
      "instruments": 4552,
      "coal": 4553,
      "constitutional": 4554,
      "darwin": 4555,
      "ening": 4556,
      "provides": 4557,
      "bow": 4558,
      "eign": 4559,
      "pressure": 4560,
      "diego": 4561,
      "favor": 4562,
      "sovereign": 4563,
      "iance": 4564,
      "remo": 4565,
      "mud": 4566,
      "bia": 4567,
      "ku": 4568,
      "enn": 4569,
      "defeat": 4570,
      "32": 4571,
      "here": 4572,
      "witness": 4573,
      "reve": 4574,
      "stal": 4575,
      "ensity": 4576,
      "organizations": 4577,
      "results": 4578,
      "fal": 4579,
      "seph": 4580,
      "transition": 4581,
      "bad": 4582,
      "pin": 4583,
      "chall": 4584,
      "cles": 4585,
      "ibn": 4586,
      "deep": 4587,
      "director": 4588,
      "increasingly": 4589,
      "worth": 4590,
      "fields": 4591,
      "nanjing": 4592,
      "continental": 4593,
      "composed": 4594,
      "preser": 4595,
      "inf": 4596,
      "whitehead": 4597,
      "running": 4598,
      "practices": 4599,
      "player": 4600,
      "block": 4601,
      "ils": 4602,
      "cultures": 4603,
      "rum": 4604,
      "din": 4605,
      "infra": 4606,
      "capacity": 4607,
      "inde": 4608,
      "heat": 4609,
      "1991": 4610,
      "44": 4611,
      "lie": 4612,
      "phase": 4613,
      "secondary": 4614,
      "direction": 4615,
      "colonies": 4616,
      "saf": 4617,
      "wise": 4618,
      "sumer": 4619,
      "internal": 4620,
      "consequ": 4621,
      "temperatures": 4622,
      "munic": 4623,
      "abad": 4624,
      "communication": 4625,
      "tured": 4626,
      "florida": 4627,
      "99": 4628,
      "els": 4629,
      "male": 4630,
      "intended": 4631,
      "combined": 4632,
      "gir": 4633,
      "iot": 4634,
      "height": 4635,
      "dies": 4636,
      "respectively": 4637,
      "lam": 4638,
      "expla": 4639,
      "freedom": 4640,
      "detail": 4641,
      "establishment": 4642,
      "neighborhood": 4643,
      "municip": 4644,
      "tend": 4645,
      "refle": 4646,
      "occupied": 4647,
      "expanded": 4648,
      "sate": 4649,
      "ero": 4650,
      "elections": 4651,
      "materials": 4652,
      "enlight": 4653,
      "magazine": 4654,
      "lers": 4655,
      "prefer": 4656,
      "goal": 4657,
      "serious": 4658,
      "ket": 4659,
      "poet": 4660,
      "patent": 4661,
      "effective": 4662,
      "compound": 4663,
      "preci": 4664,
      "colla": 4665,
      "36": 4666,
      "scre": 4667,
      "rival": 4668,
      "allowing": 4669,
      "compr": 4670,
      "uded": 4671,
      "psych": 4672,
      "sector": 4673,
      "convention": 4674,
      "vice": 4675,
      "christianity": 4676,
      "document": 4677,
      "zy": 4678,
      "capt": 4679,
      "necessary": 4680,
      "charge": 4681,
      "1990": 4682,
      "offered": 4683,
      "dialects": 4684,
      "usb": 4685,
      "holy": 4686,
      "carried": 4687,
      "novel": 4688,
      "distingu": 4689,
      "points": 4690,
      "ns": 4691,
      "belong": 4692,
      "issued": 4693,
      "recognized": 4694,
      "armenia": 4695,
      "satell": 4696,
      "enough": 4697,
      "wee": 4698,
      "goth": 4699,
      "feed": 4700,
      "competit": 4701,
      "byzant": 4702,
      "cry": 4703,
      "dollar": 4704,
      "communications": 4705,
      "dur": 4706,
      "mathemat": 4707,
      "lig": 4708,
      "speech": 4709,
      "sciences": 4710,
      "remaining": 4711,
      "naval": 4712,
      "instrument": 4713,
      "strateg": 4714,
      "boy": 4715,
      "prussian": 4716,
      "dem": 4717,
      "shows": 4718,
      "slow": 4719,
      "34": 4720,
      "beth": 4721,
      "cide": 4722,
      "burke": 4723,
      "wave": 4724,
      "weight": 4725,
      "planned": 4726,
      "makes": 4727,
      "shown": 4728,
      "sax": 4729,
      "medicine": 4730,
      "ceremon": 4731,
      "intellect": 4732,
      "positions": 4733,
      "egyptian": 4734,
      "raised": 4735,
      "developing": 4736,
      "relay": 4737,
      "organized": 4738,
      "accepted": 4739,
      "gment": 4740,
      "penins": 4741,
      "150": 4742,
      "arsen": 4743,
      "captured": 4744,
      "courts": 4745,
      "railway": 4746,
      "branch": 4747,
      "candid": 4748,
      "abol": 4749,
      "alexander": 4750,
      "mole": 4751,
      "tower": 4752,
      "greeks": 4753,
      "dim": 4754,
      "spl": 4755,
      "standards": 4756,
      "analys": 4757,
      "hydrogen": 4758,
      "suit": 4759,
      "joint": 4760,
      "plays": 4761,
      "simple": 4762,
      "bird": 4763,
      "academic": 4764,
      "fifth": 4765,
      "ville": 4766,
      ".)": 4767,
      "volum": 4768,
      "defense": 4769,
      "reduce": 4770,
      "anne": 4771,
      "mention": 4772,
      "cd": 4773,
      "absor": 4774,
      "divers": 4775,
      "cold": 4776,
      "traffic": 4777,
      "adelph": 4778,
      "pian": 4779,
      "sought": 4780,
      "overall": 4781,
      "multi": 4782,
      "turned": 4783,
      "featured": 4784,
      "mandolin": 4785,
      "ament": 4786,
      "permanent": 4787,
      "onto": 4788,
      "tito": 4789,
      "dialect": 4790,
      "estonia": 4791,
      "allies": 4792,
      "worked": 4793,
      "yn": 4794,
      "chester": 4795,
      "vit": 4796,
      "represented": 4797,
      "55": 4798,
      "kans": 4799,
      "stain": 4800,
      "circu": 4801,
      "sid": 4802,
      "37": 4803,
      "autonom": 4804,
      "austria": 4805,
      "poland": 4806,
      "brazil": 4807,
      "gil": 4808,
      "rh": 4809,
      "ini": 4810,
      "meant": 4811,
      "unique": 4812,
      "australian": 4813,
      "cam": 4814,
      "literary": 4815,
      "interpret": 4816,
      "ean": 4817,
      "label": 4818,
      "cape": 4819,
      "twent": 4820,
      "ipod": 4821,
      "adelphia": 4822,
      "chos": 4823,
      "antarct": 4824,
      "reasons": 4825,
      "importance": 4826,
      "breed": 4827,
      "graduate": 4828,
      "diversity": 4829,
      "gent": 4830,
      "mam": 4831,
      "ost": 4832,
      "entered": 4833,
      "carn": 4834,
      "subsequent": 4835,
      "refused": 4836,
      "opposition": 4837,
      "learning": 4838,
      "aught": 4839,
      "califor": 4840,
      "alternative": 4841,
      "ws": 4842,
      "opposed": 4843,
      "clar": 4844,
      "communist": 4845,
      "advanced": 4846,
      "governments": 4847,
      "philadelphia": 4848,
      "emerged": 4849,
      "image": 4850,
      "corrup": 4851,
      "bce": 4852,
      "done": 4853,
      "tical": 4854,
      "channel": 4855,
      "academy": 4856,
      "tas": 4857,
      "marine": 4858,
      "extended": 4859,
      "attempted": 4860,
      "aded": 4861,
      "confeder": 4862,
      "specif": 4863,
      "letters": 4864,
      "listed": 4865,
      "iate": 4866,
      "borough": 4867,
      "yl": 4868,
      "presby": 4869,
      "nomin": 4870,
      "sl": 4871,
      "attribut": 4872,
      "ideal": 4873,
      "dead": 4874,
      "unity": 4875,
      "1920": 4876,
      "tribes": 4877,
      "peninsula": 4878,
      "kept": 4879,
      "weeks": 4880,
      "icated": 4881,
      "else": 4882,
      "christians": 4883,
      "risk": 4884,
      "punk": 4885,
      "allied": 4886,
      "decor": 4887,
      "tery": 4888,
      "comment": 4889,
      "earthquake": 4890,
      "users": 4891,
      "ager": 4892,
      "closed": 4893,
      "phe": 4894,
      "conference": 4895,
      "article": 4896,
      "surroun": 4897,
      "gor": 4898,
      "unlike": 4899,
      "device": 4900,
      "orientation": 4901,
      "sans": 4902,
      "68": 4903,
      "electro": 4904,
      "institution": 4905,
      "slaves": 4906,
      "lamp": 4907,
      "exchange": 4908,
      "traditionally": 4909,
      "negative": 4910,
      "krit": 4911,
      "pack": 4912,
      "quran": 4913,
      "things": 4914,
      "subsequently": 4915,
      "antibiot": 4916,
      "cze": 4917,
      "senate": 4918,
      "colony": 4919,
      "shi": 4920,
      "tai": 4921,
      "severe": 4922,
      "seasons": 4923,
      "environmental": 4924,
      "decades": 4925,
      "stores": 4926,
      "lt": 4927,
      "influential": 4928,
      "towns": 4929,
      "migration": 4930,
      "regarded": 4931,
      "fighting": 4932,
      "understanding": 4933,
      "lingu": 4934,
      "intelligence": 4935,
      "signal": 4936,
      "machine": 4937,
      "resources": 4938,
      "ona": 4939,
      "notably": 4940,
      "northwestern": 4941,
      "paid": 4942,
      "attend": 4943,
      "enlighten": 4944,
      "uted": 4945,
      "richmond": 4946,
      "vation": 4947,
      "compress": 4948,
      "1997": 4949,
      "opening": 4950,
      "bot": 4951,
      "rose": 4952,
      "appearance": 4953,
      "ctors": 4954,
      "178": 4955,
      "greatly": 4956,
      "components": 4957,
      "factors": 4958,
      "avoid": 4959,
      "sport": 4960,
      "positive": 4961,
      "entertainment": 4962,
      "1989": 4963,
      "headquarters": 4964,
      "enlightenment": 4965,
      "ictions": 4966,
      "fleet": 4967,
      "meeting": 4968,
      "volt": 4969,
      "affairs": 4970,
      "turkish": 4971,
      "alas": 4972,
      "cler": 4973,
      "damage": 4974,
      "measure": 4975,
      "selling": 4976,
      "apart": 4977,
      "dominant": 4978,
      "ier": 4979,
      "mess": 4980,
      "spiel": 4981,
      "suffered": 4982,
      "ez": 4983,
      "simply": 4984,
      "structures": 4985,
      "teenth": 4986,
      "exclusive": 4987,
      "fit": 4988,
      "toward": 4989,
      "elim": 4990,
      "mayor": 4991,
      "settled": 4992,
      "probably": 4993,
      "california": 4994,
      "agency": 4995,
      "spielberg": 4996,
      "exer": 4997,
      "ternal": 4998,
      "eliza": 4999,
      "cathed": 5000,
      "\"),": 5001,
      "slavic": 5002,
      "opport": 5003,
      "scholar": 5004,
      "achieved": 5005,
      "juris": 5006,
      "sey": 5007,
      "feel": 5008,
      "politics": 5009,
      "banks": 5010,
      "pure": 5011,
      "pron": 5012,
      "encod": 5013,
      "andon": 5014,
      "17th": 5015,
      "600": 5016,
      "hyder": 5017,
      "replace": 5018,
      "ancestry": 5019,
      "desert": 5020,
      "initial": 5021,
      "administrative": 5022,
      "ave": 5023,
      "lis": 5024,
      "guar": 5025,
      "floor": 5026,
      "chair": 5027,
      "workers": 5028,
      "ception": 5029,
      "request": 5030,
      "pression": 5031,
      "silver": 5032,
      "nint": 5033,
      "adolescent": 5034,
      "advantage": 5035,
      "pap": 5036,
      "ube": 5037,
      "married": 5038,
      "strength": 5039,
      "surrounding": 5040,
      "nintendo": 5041,
      "temple": 5042,
      "instance": 5043,
      "dominated": 5044,
      "clothing": 5045,
      "substant": 5046,
      "presbyter": 5047,
      "inhabit": 5048,
      "effort": 5049,
      "woman": 5050,
      "pil": 5051,
      "table": 5052,
      "renew": 5053,
      "somali": 5054,
      "protect": 5055,
      "hispan": 5056,
      "extin": 5057,
      "constructed": 5058,
      "housing": 5059,
      "frame": 5060,
      "cm": 5061,
      "peak": 5062,
      "strate": 5063,
      "somal": 5064,
      "treatment": 5065,
      "ceeded": 5066,
      "pse": 5067,
      "rd": 5068,
      "isol": 5069,
      "16th": 5070,
      "receive": 5071,
      "uch": 5072,
      "xi": 5073,
      "authorities": 5074,
      "cathedral": 5075,
      "1999": 5076,
      "movements": 5077,
      "profit": 5078,
      "muslims": 5079,
      "hayek": 5080,
      "attention": 5081,
      "edward": 5082,
      "alty": 5083,
      "look": 5084,
      "northeast": 5085,
      "connected": 5086,
      "drug": 5087,
      "weak": 5088,
      "serving": 5089,
      "bishop": 5090,
      "sanskrit": 5091,
      "hyderabad": 5092,
      "cia": 5093,
      "arrest": 5094,
      "beat": 5095,
      "ays": 5096,
      "osis": 5097,
      "explo": 5098,
      "drive": 5099,
      "wol": 5100,
      "ceived": 5101,
      "whereas": 5102,
      "marshall": 5103,
      "roughly": 5104,
      "osex": 5105,
      "abandon": 5106,
      "equal": 5107,
      "maintained": 5108,
      "poses": 5109,
      "1992": 5110,
      "showed": 5111,
      "studio": 5112,
      "persian": 5113,
      "gger": 5114,
      "chain": 5115,
      "preced": 5116,
      "values": 5117,
      "ada": 5118,
      "significantly": 5119,
      "incorporated": 5120,
      "bass": 5121,
      "veh": 5122,
      "disci": 5123,
      "osla": 5124,
      "closely": 5125,
      "intellectual": 5126,
      "ales": 5127,
      "tuvalu": 5128,
      "affected": 5129,
      "completely": 5130,
      "leadership": 5131,
      "osexual": 5132,
      "bure": 5133,
      "pak": 5134,
      "santa": 5135,
      "build": 5136,
      "weapons": 5137,
      "cav": 5138,
      "gate": 5139,
      "mong": 5140,
      "charle": 5141,
      "application": 5142,
      "prus": 5143,
      "titles": 5144,
      "negot": 5145,
      "agriculture": 5146,
      "plans": 5147,
      "tennes": 5148,
      "ordered": 5149,
      "mexican": 5150,
      "rian": 5151,
      "allo": 5152,
      "grant": 5153,
      "tons": 5154,
      "cable": 5155,
      "alliance": 5156,
      "creating": 5157,
      "characteristics": 5158,
      "avi": 5159,
      "seas": 5160,
      "enem": 5161,
      "fbi": 5162,
      "theless": 5163,
      "contact": 5164,
      "plor": 5165,
      "brown": 5166,
      "traditions": 5167,
      "libya": 5168,
      "target": 5169,
      "applications": 5170,
      "itude": 5171,
      "arms": 5172,
      "writers": 5173,
      "engineering": 5174,
      "marriage": 5175,
      "arsenal": 5176,
      "removed": 5177,
      "actually": 5178,
      "frequency": 5179,
      "evolved": 5180,
      "korean": 5181,
      "itation": 5182,
      "quarter": 5183,
      "pes": 5184,
      "attan": 5185,
      "joy": 5186,
      "cyprus": 5187,
      "barce": 5188,
      "rot": 5189,
      "cedon": 5190,
      "ranean": 5191,
      "existing": 5192,
      "49": 5193,
      "jac": 5194,
      "1998": 5195,
      "arabic": 5196,
      "judic": 5197,
      "scotland": 5198,
      "magn": 5199,
      "dipl": 5200,
      "explor": 5201,
      "dame": 5202,
      "sic": 5203,
      "transmit": 5204,
      "setting": 5205,
      "bush": 5206,
      "gradually": 5207,
      "lona": 5208,
      "kath": 5209,
      "surve": 5210,
      "describe": 5211,
      "byzantine": 5212,
      "got": 5213,
      "insp": 5214,
      "joseph": 5215,
      "hong": 5216,
      "oph": 5217,
      "voted": 5218,
      "umen": 5219,
      "ultimately": 5220,
      "sched": 5221,
      "shell": 5222,
      "bio": 5223,
      "rising": 5224,
      "km2": 5225,
      "provinces": 5226,
      "tennessee": 5227,
      "barcelona": 5228,
      "120": 5229,
      "unds": 5230,
      "macedon": 5231,
      "66": 5232,
      "owners": 5233,
      "classified": 5234,
      "revolutionary": 5235,
      "diplom": 5236,
      "47": 5237,
      "iny": 5238,
      "observ": 5239,
      "presidential": 5240,
      "virginia": 5241,
      "analysis": 5242,
      "pm": 5243,
      "accur": 5244,
      "scientists": 5245,
      "39": 5246,
      "icles": 5247,
      "feet": 5248,
      "newly": 5249,
      "daugh": 5250,
      "iraq": 5251,
      "situation": 5252,
      "jiang": 5253,
      "elizabeth": 5254,
      "poll": 5255,
      "powerful": 5256,
      "ell": 5257,
      "essential": 5258,
      "price": 5259,
      "1994": 5260,
      "cracy": 5261,
      "corporation": 5262,
      "manufacturing": 5263,
      "inated": 5264,
      "visible": 5265,
      "classes": 5266,
      "zeal": 5267,
      "diction": 5268,
      "wanted": 5269,
      "awarded": 5270,
      "dry": 5271,
      "porters": 5272,
      "depending": 5273,
      "1950s": 5274,
      "bands": 5275,
      "targe": 5276,
      "refers": 5277,
      "udes": 5278,
      "brew": 5279,
      "virt": 5280,
      "ras": 5281,
      "ado": 5282,
      "mod": 5283,
      "mediter": 5284,
      "principle": 5285,
      "mediterranean": 5286,
      "bbc": 5287,
      "duke": 5288,
      "ards": 5289,
      "equipment": 5290,
      "tree": 5291,
      "roll": 5292,
      "discovery": 5293,
      "brief": 5294,
      "ios": 5295,
      "alleg": 5296,
      "stress": 5297,
      "styles": 5298,
      "bureau": 5299,
      "online": 5300,
      "newspaper": 5301,
      "pic": 5302,
      "going": 5303,
      "slave": 5304,
      "texas": 5305,
      "vacu": 5306,
      "iled": 5307,
      "hammad": 5308,
      "degre": 5309,
      "bei": 5310,
      "degrees": 5311,
      "semi": 5312,
      "mount": 5313,
      "principal": 5314,
      "affil": 5315,
      "strugg": 5316,
      "determined": 5317,
      "flag": 5318,
      "hus": 5319,
      "versions": 5320,
      "visited": 5321,
      "formerly": 5322,
      "copyright": 5323,
      "hur": 5324,
      "zene": 5325,
      "recomm": 5326,
      "rejected": 5327,
      "technical": 5328,
      "drin": 5329,
      "honor": 5330,
      "mosaic": 5331,
      "bol": 5332,
      "ara": 5333,
      "iency": 5334,
      "entially": 5335,
      "wear": 5336,
      "viewed": 5337,
      "suggested": 5338,
      "apollo": 5339,
      "policies": 5340,
      "thetic": 5341,
      "imon": 5342,
      "bute": 5343,
      "tried": 5344,
      "raj": 5345,
      "ensions": 5346,
      "mith": 5347,
      "critics": 5348,
      "teaching": 5349,
      "shop": 5350,
      "shared": 5351,
      "catalan": 5352,
      "glaci": 5353,
      "schwar": 5354,
      "georg": 5355,
      "split": 5356,
      "\").": 5357,
      "web": 5358,
      "operate": 5359,
      "winning": 5360,
      "magnet": 5361,
      "concert": 5362,
      "sin": 5363,
      "ads": 5364,
      "swiss": 5365,
      "popularity": 5366,
      "techniques": 5367,
      "heritage": 5368,
      "gothic": 5369,
      "ff": 5370,
      "behavior": 5371,
      "fare": 5372,
      "fought": 5373,
      "neut": 5374,
      "mom": 5375,
      "claims": 5376,
      "symbol": 5377,
      "electrical": 5378,
      "leaving": 5379,
      "mind": 5380,
      "architectural": 5381,
      "epis": 5382,
      "distribution": 5383,
      "satellite": 5384,
      "yout": 5385,
      "byu": 5386,
      "speakers": 5387,
      "identify": 5388,
      "buddhist": 5389,
      "rural": 5390,
      "notre": 5391,
      "grounds": 5392,
      "occasion": 5393,
      "inspired": 5394,
      "bil": 5395,
      "hindu": 5396,
      "alco": 5397,
      "double": 5398,
      "dete": 5399,
      "normal": 5400,
      "operated": 5401,
      "holding": 5402,
      "employed": 5403,
      "2nd": 5404,
      "xbox": 5405,
      "tom": 5406,
      "kan": 5407,
      "comics": 5408,
      "biological": 5409,
      "conservative": 5410,
      "zenegger": 5411,
      "schwarzenegger": 5412,
      "extent": 5413,
      "85": 5414,
      "objects": 5415,
      "haps": 5416,
      "sphere": 5417,
      "municipal": 5418,
      "heavily": 5419,
      "indo": 5420,
      "1945": 5421,
      "czech": 5422,
      "forming": 5423,
      "inside": 5424,
      "trading": 5425,
      "views": 5426,
      "draw": 5427,
      "discipl": 5428,
      "sites": 5429,
      "spent": 5430,
      "join": 5431,
      "anglo": 5432,
      "dp": 5433,
      "stay": 5434,
      "cham": 5435,
      "dram": 5436,
      "doctrine": 5437,
      "800": 5438,
      "hang": 5439,
      "ung": 5440,
      "fication": 5441,
      "commander": 5442,
      "selection": 5443,
      "theories": 5444,
      "alum": 5445,
      "perhaps": 5446,
      "samur": 5447,
      "ik": 5448,
      "smo": 5449,
      "ulf": 5450,
      "proved": 5451,
      "storage": 5452,
      "credit": 5453,
      "vacuum": 5454,
      "ders": 5455,
      "supp": 5456,
      "46": 5457,
      "tes": 5458,
      "eral": 5459,
      "reforms": 5460,
      "advis": 5461,
      "fox": 5462,
      "acquired": 5463,
      "fine": 5464,
      "kathmand": 5465,
      "skill": 5466,
      "failure": 5467,
      "regarding": 5468,
      "output": 5469,
      "hd": 5470,
      "conquest": 5471,
      "translation": 5472,
      "immediately": 5473,
      "colleges": 5474,
      "manh": 5475,
      "ached": 5476,
      "kathmandu": 5477,
      "cher": 5478,
      "factor": 5479,
      "facilities": 5480,
      "lot": 5481,
      "movie": 5482,
      "runs": 5483,
      "dor": 5484,
      "emason": 5485,
      "marks": 5486,
      "advoc": 5487,
      "historically": 5488,
      "equival": 5489,
      "sper": 5490,
      "commonwealth": 5491,
      "historians": 5492,
      "educational": 5493,
      "pakistan": 5494,
      "ables": 5495,
      "1996": 5496,
      "1940": 5497,
      "improved": 5498,
      "alaska": 5499,
      "conducted": 5500,
      "zealand": 5501,
      "izes": 5502,
      "producing": 5503,
      "kingdoms": 5504,
      "properties": 5505,
      "acted": 5506,
      "introduction": 5507,
      "figures": 5508,
      "comcast": 5509,
      "broke": 5510,
      "expensive": 5511,
      "microsoft": 5512,
      "micha": 5513,
      "samurai": 5514,
      "rig": 5515,
      "formally": 5516,
      "vs": 5517,
      "kenaz": 5518,
      "ashkenaz": 5519,
      "vietnam": 5520,
      "yug": 5521,
      "user": 5522,
      "ologies": 5523,
      "issance": 5524,
      "classic": 5525,
      "romans": 5526,
      "providing": 5527,
      "thesis": 5528,
      "yugosla": 5529,
      "cise": 5530,
      "thur": 5531,
      "ulation": 5532,
      "moving": 5533,
      "prey": 5534,
      "combat": 5535,
      "hub": 5536,
      "console": 5537,
      "diverse": 5538,
      "expo": 5539,
      "gym": 5540,
      "reserve": 5541,
      "manhattan": 5542,
      "77": 5543,
      "density": 5544,
      "revi": 5545,
      "nether": 5546,
      "fru": 5547,
      "bond": 5548,
      "prize": 5549,
      "approved": 5550,
      "incident": 5551,
      "attacked": 5552,
      "ichuan": 5553,
      "fres": 5554,
      "ret": 5555,
      "presented": 5556,
      "germans": 5557,
      "parents": 5558,
      "anthropology": 5559,
      "dated": 5560,
      "nept": 5561,
      "geno": 5562,
      "merc": 5563,
      "employe": 5564,
      "98": 5565,
      "terror": 5566,
      "correct": 5567,
      "1988": 5568,
      "youtube": 5569,
      "itre": 5570,
      "ulated": 5571,
      "actual": 5572,
      "trop": 5573,
      "castle": 5574,
      "reports": 5575,
      "extremely": 5576,
      "adapt": 5577,
      "advance": 5578,
      "laser": 5579,
      "discrim": 5580,
      "deploy": 5581,
      "contributed": 5582,
      "manch": 5583,
      "gather": 5584,
      "freemason": 5585,
      "think": 5586,
      "rapidly": 5587,
      "divine": 5588,
      "inhabitants": 5589,
      "%.": 5590,
      "gur": 5591,
      "usal": 5592,
      "wife": 5593,
      "ficient": 5594,
      "galic": 5595,
      "stock": 5596,
      "arrived": 5597,
      "managed": 5598,
      "offices": 5599,
      "encing": 5600,
      "alone": 5601,
      "debut": 5602,
      "serves": 5603,
      "attempts": 5604,
      "declined": 5605,
      "painting": 5606,
      "shar": 5607,
      "plate": 5608,
      "syl": 5609,
      "regist": 5610,
      "turkey": 5611,
      "freder": 5612,
      "scott": 5613,
      "oth": 5614,
      "zen": 5615,
      "career": 5616,
      "lodge": 5617,
      "dates": 5618,
      "retail": 5619,
      "nigeria": 5620,
      "chosen": 5621,
      "brand": 5622,
      "lyn": 5623,
      "orders": 5624,
      "successfully": 5625,
      "concerns": 5626,
      "justice": 5627,
      "rupt": 5628,
      "presbyterian": 5629,
      "typical": 5630,
      "monast": 5631,
      "secular": 5632,
      "maximum": 5633,
      "bury": 5634,
      "seem": 5635,
      "lives": 5636,
      "voltage": 5637,
      "page": 5638,
      "licens": 5639,
      "ibm": 5640,
      "tourism": 5641,
      "component": 5642,
      "revenue": 5643,
      "fat": 5644,
      "sq": 5645,
      "employment": 5646,
      "relationships": 5647,
      "electronic": 5648,
      "circum": 5649,
      "convent": 5650,
      "shor": 5651,
      "astron": 5652,
      "fix": 5653,
      "elevator": 5654,
      "drew": 5655,
      "priest": 5656,
      "strategy": 5657,
      "sult": 5658,
      "ald": 5659,
      "paralle": 5660,
      "sony": 5661,
      "agricultural": 5662,
      "muda": 5663,
      "partners": 5664,
      "muhammad": 5665,
      "eritre": 5666,
      "accom": 5667,
      "measures": 5668,
      "experiment": 5669,
      "59": 5670,
      "dat": 5671,
      "neo": 5672,
      "weather": 5673,
      "erson": 5674,
      "functions": 5675,
      "golden": 5676,
      "officer": 5677,
      "pursu": 5678,
      "occurs": 5679,
      "guns": 5680,
      "michael": 5681,
      "arent": 5682,
      "safety": 5683,
      "42": 5684,
      "zhou": 5685,
      "destru": 5686,
      "ador": 5687,
      "races": 5688,
      "train": 5689,
      "1970": 5690,
      "precipit": 5691,
      "armies": 5692,
      "rhy": 5693,
      "yer": 5694,
      "ishes": 5695,
      "takes": 5696,
      "princess": 5697,
      "experienced": 5698,
      "neumann": 5699,
      "taught": 5700,
      "ano": 5701,
      "cel": 5702,
      "1995": 5703,
      "estonian": 5704,
      "pion": 5705,
      "iting": 5706,
      "external": 5707,
      "bern": 5708,
      "nearby": 5709,
      "roads": 5710,
      "converted": 5711,
      "causes": 5712,
      "northwest": 5713,
      "friends": 5714,
      "iment": 5715,
      "nom": 5716,
      "bear": 5717,
      "bermuda": 5718,
      "presents": 5719,
      "propos": 5720,
      "cool": 5721,
      "solid": 5722,
      "valencia": 5723,
      "57": 5724,
      "itors": 5725,
      "kilomet": 5726,
      "fash": 5727,
      "nas": 5728,
      "pool": 5729,
      "athlet": 5730,
      "bic": 5731,
      "bach": 5732,
      "rena": 5733,
      "schem": 5734,
      "apparent": 5735,
      "coastal": 5736,
      "mobile": 5737,
      "bou": 5738,
      "ams": 5739,
      "1950": 5740,
      "mix": 5741,
      "matches": 5742,
      "representatives": 5743,
      "danger": 5744,
      "mentioned": 5745,
      "carnival": 5746,
      "alcohol": 5747,
      "56": 5748,
      "collabor": 5749,
      "revealed": 5750,
      "mere": 5751,
      "acid": 5752,
      "investment": 5753,
      "aks": 5754,
      "rebel": 5755,
      "webs": 5756,
      "noble": 5757,
      "stood": 5758,
      "insect": 5759,
      "dedicated": 5760,
      "gdp": 5761,
      "mol": 5762,
      "pag": 5763,
      "slight": 5764,
      "enforce": 5765,
      "asphal": 5766,
      "soul": 5767,
      "germanic": 5768,
      "entirely": 5769,
      "citizen": 5770,
      "cript": 5771,
      "responsib": 5772,
      "streets": 5773,
      "audience": 5774,
      "piano": 5775,
      "pto": 5776,
      "industries": 5777,
      "asc": 5778,
      "peter": 5779,
      "norm": 5780,
      "continues": 5781,
      "etary": 5782,
      "boys": 5783,
      "restaur": 5784,
      "doub": 5785,
      "grade": 5786,
      "manufactur": 5787,
      "dress": 5788,
      "projects": 5789,
      "etc": 5790,
      "massive": 5791,
      "charleston": 5792,
      "hypo": 5793,
      "goods": 5794,
      "rooms": 5795,
      "immigrants": 5796,
      "congreg": 5797,
      "lock": 5798,
      "kel": 5799,
      "transportation": 5800,
      "corruption": 5801,
      "assent": 5802,
      "universe": 5803,
      "ministry": 5804,
      "eigh": 5805,
      "cycl": 5806,
      "invented": 5807,
      "sides": 5808,
      "testing": 5809,
      "radical": 5810,
      "contract": 5811,
      "eries": 5812,
      "anton": 5813,
      "capable": 5814,
      "1930s": 5815,
      "respect": 5816,
      "iranian": 5817,
      "corps": 5818,
      "12th": 5819,
      "copies": 5820,
      "principles": 5821,
      "dominic": 5822,
      "cubs": 5823,
      "volume": 5824,
      "jay": 5825,
      "reference": 5826,
      "physic": 5827,
      "electricity": 5828,
      "yell": 5829,
      "drugs": 5830,
      "archae": 5831,
      "beijing": 5832,
      "lum": 5833,
      "lev": 5834,
      "compass": 5835,
      "shel": 5836,
      "aw": 5837,
      "refu": 5838,
      "swed": 5839,
      "russians": 5840,
      "rhe": 5841,
      "count": 5842,
      "lighting": 5843,
      "bomb": 5844,
      "neptune": 5845,
      "1st": 5846,
      "yang": 5847,
      "predomin": 5848,
      "legislation": 5849,
      "phenom": 5850,
      "jul": 5851,
      "advent": 5852,
      "markets": 5853,
      "directed": 5854,
      "processes": 5855,
      "genocide": 5856,
      "%)": 5857,
      "phr": 5858,
      "prep": 5859,
      "solution": 5860,
      "distinction": 5861,
      "focused": 5862,
      "secut": 5863,
      "monu": 5864,
      "engers": 5865,
      "specifically": 5866,
      "fashion": 5867,
      "none": 5868,
      "opera": 5869,
      "myan": 5870,
      "changing": 5871,
      "billboard": 5872,
      "dub": 5873,
      "societies": 5874,
      "expressed": 5875,
      "netherlands": 5876,
      "gb": 5877,
      "disput": 5878,
      "championship": 5879,
      "strategic": 5880,
      "cc": 5881,
      "producer": 5882,
      "crow": 5883,
      "sixth": 5884,
      "watch": 5885,
      "hundreds": 5886,
      "dal": 5887,
      "gins": 5888,
      "publication": 5889,
      "supporters": 5890,
      "promoted": 5891,
      "village": 5892,
      "92": 5893,
      "athan": 5894,
      "fred": 5895,
      "iving": 5896,
      "bible": 5897,
      "slavery": 5898,
      "similarly": 5899,
      "sufficient": 5900,
      "choice": 5901,
      "neighbour": 5902,
      "saying": 5903,
      "exception": 5904,
      "eg": 5905,
      "mode": 5906,
      "lip": 5907,
      "scene": 5908,
      "patterns": 5909,
      "frederick": 5910,
      "budget": 5911,
      "dropped": 5912,
      "astronom": 5913,
      "arma": 5914,
      "sustain": 5915,
      "notes": 5916,
      "prices": 5917,
      "rice": 5918,
      "oblig": 5919,
      "originated": 5920,
      "thr": 5921,
      "bodies": 5922,
      "annually": 5923,
      "appropri": 5924,
      "connection": 5925,
      "models": 5926,
      "mile": 5927,
      "wed": 5928,
      "aste": 5929,
      "merch": 5930,
      "initi": 5931,
      "computers": 5932,
      "consci": 5933,
      "subjects": 5934,
      "gods": 5935,
      "additionally": 5936,
      "nobility": 5937,
      "myanmar": 5938,
      "debate": 5939,
      "repeated": 5940,
      "ey": 5941,
      "wu": 5942,
      "laid": 5943,
      "genome": 5944,
      "fring": 5945,
      "1979": 5946,
      "winds": 5947,
      "combination": 5948,
      "carriers": 5949,
      "consumption": 5950,
      "renaissance": 5951,
      "zed": 5952,
      "iced": 5953,
      "albums": 5954,
      "descend": 5955,
      "resolution": 5956,
      "odes": 5957,
      "effectively": 5958,
      "democracy": 5959,
      "physics": 5960,
      "360": 5961,
      "rale": 5962,
      "fault": 5963,
      "requires": 5964,
      "dark": 5965,
      "dc": 5966,
      "sed": 5967,
      "eness": 5968,
      "editor": 5969,
      "condition": 5970,
      "agencies": 5971,
      "penn": 5972,
      "judges": 5973,
      "hispanic": 5974,
      "daughter": 5975,
      "yellow": 5976,
      "ogen": 5977,
      "unic": 5978,
      "lith": 5979,
      "felt": 5980,
      "1941": 5981,
      "write": 5982,
      "sle": 5983,
      "stan": 5984,
      "depos": 5985,
      "jobs": 5986,
      "charter": 5987,
      "difference": 5988,
      "periods": 5989,
      "involve": 5990,
      "graphic": 5991,
      "witnesses": 5992,
      "circuit": 5993,
      "transmission": 5994,
      "distance": 5995,
      "losses": 5996,
      "rating": 5997,
      "persons": 5998,
      "rank": 5999,
      "96": 6000,
      "ov": 6001,
      "proportion": 6002,
      "otic": 6003,
      "flat": 6004,
      "wales": 6005,
      "ores": 6006,
      "stras": 6007,
      "strongly": 6008,
      "twenty": 6009,
      "76": 6010,
      "poetry": 6011,
      "tren": 6012,
      "biograph": 6013,
      "analy": 6014,
      "conduct": 6015,
      "iary": 6016,
      "leave": 6017,
      "usage": 6018,
      "2016": 6019,
      "limits": 6020,
      "exposure": 6021,
      "retained": 6022,
      "treated": 6023,
      "reflect": 6024,
      "usa": 6025,
      "mail": 6026,
      "divisions": 6027,
      "classification": 6028,
      "calend": 6029,
      "1939": 6030,
      "digimon": 6031,
      "jab": 6032,
      "asius": 6033,
      "causing": 6034,
      "walls": 6035,
      "fresh": 6036,
      "superi": 6037,
      "1993": 6038,
      "namib": 6039,
      "cycle": 6040,
      "founding": 6041,
      "13th": 6042,
      "variation": 6043,
      "concluded": 6044,
      "abilities": 6045,
      "gender": 6046,
      "73": 6047,
      "seed": 6048,
      "jective": 6049,
      "alongside": 6050,
      "your": 6051,
      "recover": 6052,
      "ibility": 6053,
      "writer": 6054,
      "treaties": 6055,
      "pione": 6056,
      "43": 6057,
      "ias": 6058,
      "skin": 6059,
      "judge": 6060,
      "bac": 6061,
      "foun": 6062,
      "medium": 6063,
      "baptist": 6064,
      "reaction": 6065,
      "finding": 6066,
      "contained": 6067,
      "festiv": 6068,
      "compounds": 6069,
      "raleigh": 6070,
      "gency": 6071,
      "membership": 6072,
      "motions": 6073,
      "missions": 6074,
      "benefit": 6075,
      "neutral": 6076,
      "athanasius": 6077,
      "58": 6078,
      "compre": 6079,
      "protests": 6080,
      "compression": 6081,
      "rub": 6082,
      "unes": 6083,
      "professor": 6084,
      "battles": 6085,
      "camer": 6086,
      "rebell": 6087,
      "strict": 6088,
      "buddha": 6089,
      "considerable": 6090,
      "magnetic": 6091,
      "aa": 6092,
      "attended": 6093,
      "satur": 6094,
      "ighter": 6095,
      "lowest": 6096,
      "hero": 6097,
      "250": 6098,
      "alps": 6099,
      "sters": 6100,
      "sultan": 6101,
      "homes": 6102,
      "samo": 6103,
      "demonstrated": 6104,
      "aspects": 6105,
      "chap": 6106,
      "oppon": 6107,
      "surrender": 6108,
      "legislative": 6109,
      "shift": 6110,
      "700": 6111,
      "seat": 6112,
      "bourg": 6113,
      "declar": 6114,
      "garden": 6115,
      "agu": 6116,
      "intosh": 6117,
      "philipp": 6118,
      "columbia": 6119,
      "conquered": 6120,
      "screen": 6121,
      "gross": 6122,
      "israeli": 6123,
      "figure": 6124,
      "aust": 6125,
      "anni": 6126,
      "calcul": 6127,
      "purposes": 6128,
      "narrow": 6129,
      "79": 6130,
      "warsaw": 6131,
      "efficient": 6132,
      "41": 6133,
      "arrange": 6134,
      "rivers": 6135,
      "playstation": 6136,
      "approval": 6137,
      "possibly": 6138,
      "tropical": 6139,
      "modi": 6140,
      "mental": 6141,
      "otherwise": 6142,
      "asked": 6143,
      "memorial": 6144,
      "antibiotics": 6145,
      "jam": 6146,
      "sar": 6147,
      "iding": 6148,
      "update": 6149,
      "canon": 6150,
      "1974": 6151,
      "protected": 6152,
      "documents": 6153,
      "superior": 6154,
      "len": 6155,
      "ont": 6156,
      "reality": 6157,
      "overseas": 6158,
      "warm": 6159,
      "subsid": 6160,
      "scop": 6161,
      "reading": 6162,
      "containing": 6163,
      "mers": 6164,
      "scen": 6165,
      "separation": 6166,
      "pole": 6167,
      "fect": 6168,
      "patri": 6169,
      "longest": 6170,
      "infant": 6171,
      "equivalent": 6172,
      "asphalt": 6173,
      "shap": 6174,
      "1980": 6175,
      "context": 6176,
      "rific": 6177,
      "1949": 6178,
      "offers": 6179,
      "compreh": 6180,
      "pestic": 6181,
      "croat": 6182,
      "truth": 6183,
      "ordinary": 6184,
      "refuge": 6185,
      "chart": 6186,
      "oppos": 6187,
      "lia": 6188,
      "moment": 6189,
      "mr": 6190,
      "uel": 6191,
      "delay": 6192,
      "loo": 6193,
      "firmed": 6194,
      "regime": 6195,
      "clock": 6196,
      "nepal": 6197,
      "nationally": 6198,
      "kilometres": 6199,
      "%),": 6200,
      "inn": 6201,
      "renamed": 6202,
      "metap": 6203,
      "penalty": 6204,
      "hosted": 6205,
      "indicate": 6206,
      "hellenistic": 6207,
      "sichuan": 6208,
      "enjoy": 6209,
      "1986": 6210,
      "judicial": 6211,
      "3rd": 6212,
      "practical": 6213,
      "faced": 6214,
      "coup": 6215,
      "districts": 6216,
      "gence": 6217,
      "ix": 6218,
      "separated": 6219,
      "promotion": 6220,
      "concerned": 6221,
      "theore": 6222,
      "ancy": 6223,
      "retain": 6224,
      "atmo": 6225,
      "ola": 6226,
      "ople": 6227,
      "160": 6228,
      "basket": 6229,
      "existed": 6230,
      "datab": 6231,
      "bis": 6232,
      "advert": 6233,
      "composition": 6234,
      "perceived": 6235,
      "ishing": 6236,
      "shot": 6237,
      "sts": 6238,
      "affirm": 6239,
      "cork": 6240,
      "minutes": 6241,
      "goals": 6242,
      "twice": 6243,
      "selected": 6244,
      "schedul": 6245,
      "wis": 6246,
      "door": 6247,
      "pressed": 6248,
      "encouraged": 6249,
      "girls": 6250,
      "parallel": 6251,
      "pair": 6252,
      "want": 6253,
      "sted": 6254,
      "oul": 6255,
      "absol": 6256,
      "manchester": 6257,
      "centers": 6258,
      "motors": 6259,
      "fly": 6260,
      "amend": 6261,
      "agon": 6262,
      "technologies": 6263,
      "%,": 6264,
      "bid": 6265,
      "roots": 6266,
      "forward": 6267,
      "aer": 6268,
      "pig": 6269,
      "sco": 6270,
      "xx": 6271,
      "singer": 6272,
      "studied": 6273,
      "debt": 6274,
      "diseases": 6275,
      "rein": 6276,
      "berlin": 6277,
      "fixed": 6278,
      "observed": 6279,
      "appears": 6280,
      "funds": 6281,
      "cardinal": 6282,
      "rese": 6283,
      "iring": 6284,
      "trial": 6285,
      "coalition": 6286,
      "mongol": 6287,
      "gol": 6288,
      "file": 6289,
      "engage": 6290,
      "subur": 6291,
      "1985": 6292,
      "nickn": 6293,
      "sacrific": 6294,
      "score": 6295,
      "theater": 6296,
      "uls": 6297,
      "zing": 6298,
      "guine": 6299,
      "nevertheless": 6300,
      "twel": 6301,
      "yi": 6302,
      "anger": 6303,
      "manager": 6304,
      "tuber": 6305,
      "criticism": 6306,
      "iest": 6307,
      "parks": 6308,
      "something": 6309,
      "hotel": 6310,
      "5th": 6311,
      "tox": 6312,
      "touch": 6313,
      "luther": 6314,
      "driven": 6315,
      "substantial": 6316,
      "eat": 6317,
      "khan": 6318,
      "display": 6319,
      "categories": 6320,
      "vocal": 6321,
      "lical": 6322,
      "executed": 6323,
      "efficiency": 6324,
      "picture": 6325,
      "emotions": 6326,
      "gments": 6327,
      "hung": 6328,
      "assum": 6329,
      "begun": 6330,
      "solo": 6331,
      "myth": 6332,
      "invaded": 6333,
      "biggest": 6334,
      "monarchy": 6335,
      "mason": 6336,
      "polar": 6337,
      "victim": 6338,
      "origins": 6339,
      "fuel": 6340,
      "iar": 6341,
      "kong": 6342,
      "inet": 6343,
      "protein": 6344,
      "ceremony": 6345,
      "dst": 6346,
      "liqu": 6347,
      "1987": 6348,
      "succeeded": 6349,
      "characterized": 6350,
      "gives": 6351,
      "pup": 6352,
      "sequence": 6353,
      "regulations": 6354,
      "taiwan": 6355,
      "91": 6356,
      "pom": 6357,
      "sav": 6358,
      "deliver": 6359,
      "haz": 6360,
      "ruler": 6361,
      "hands": 6362,
      ",[": 6363,
      "icut": 6364,
      "helena": 6365,
      "males": 6366,
      "oxy": 6367,
      "oxide": 6368,
      "ratio": 6369,
      "employees": 6370,
      "cence": 6371,
      "ros": 6372,
      "semin": 6373,
      "meat": 6374,
      "foss": 6375,
      "borders": 6376,
      "ski": 6377,
      "macintosh": 6378,
      "pus": 6379,
      "icon": 6380,
      "hem": 6381,
      "disast": 6382,
      "1969": 6383,
      "slo": 6384,
      "exact": 6385,
      "understand": 6386,
      "kers": 6387,
      "mist": 6388,
      "isa": 6389,
      "avian": 6390,
      "pont": 6391,
      "besides": 6392,
      "mp3": 6393,
      "criticized": 6394,
      "mosaics": 6395,
      "slightly": 6396,
      "cht": 6397,
      "beach": 6398,
      "auth": 6399,
      "beaut": 6400,
      "diver": 6401,
      "pharma": 6402,
      "safe": 6403,
      "organism": 6404,
      "funding": 6405,
      "4th": 6406,
      "jacks": 6407,
      "inher": 6408,
      "hair": 6409,
      "colors": 6410,
      "syria": 6411,
      "crus": 6412,
      "celebrated": 6413,
      "aware": 6414,
      "empt": 6415,
      "household": 6416,
      "voice": 6417,
      "bombing": 6418,
      "constantin": 6419,
      "atol": 6420,
      "compat": 6421,
      "popper": 6422,
      "useful": 6423,
      "leds": 6424,
      "1978": 6425,
      "consisting": 6426,
      "planning": 6427,
      "murder": 6428,
      "nutr": 6429,
      "interpretation": 6430,
      "declaration": 6431,
      "becomes": 6432,
      "bright": 6433,
      "ritual": 6434,
      "matic": 6435,
      "ruling": 6436,
      "hosts": 6437,
      "residential": 6438,
      "abandoned": 6439,
      "tubercul": 6440,
      "nutrition": 6441,
      "88": 6442,
      "jef": 6443,
      "ari": 6444,
      "consumer": 6445,
      "canal": 6446,
      "sie": 6447,
      "destruction": 6448,
      "outer": 6449,
      "oured": 6450,
      "jection": 6451,
      "americas": 6452,
      "settlers": 6453,
      "integrated": 6454,
      "urally": 6455,
      "defend": 6456,
      "carrier": 6457,
      "prohib": 6458,
      "descent": 6459,
      "enemy": 6460,
      "rhyth": 6461,
      "dict": 6462,
      "excess": 6463,
      "alpha": 6464,
      "founder": 6465,
      "hence": 6466,
      "conception": 6467,
      "decisions": 6468,
      "63": 6469,
      "tam": 6470,
      "rulers": 6471,
      "researchers": 6472,
      "bian": 6473,
      "nit": 6474,
      "thal": 6475,
      "thuring": 6476,
      "linked": 6477,
      "martin": 6478,
      "mous": 6479,
      "ule": 6480,
      "items": 6481,
      "clim": 6482,
      "kee": 6483,
      "belg": 6484,
      "dynam": 6485,
      "suggests": 6486,
      "champions": 6487,
      "easily": 6488,
      "6th": 6489,
      "infring": 6490,
      "enger": 6491,
      "obtain": 6492,
      "1984": 6493,
      "chairman": 6494,
      "aqu": 6495,
      "reduction": 6496,
      "bacterial": 6497,
      "visitors": 6498,
      "mechanical": 6499,
      "fs": 6500,
      "amental": 6501,
      "aces": 6502,
      "1948": 6503,
      "fundamental": 6504,
      "namibia": 6505,
      "seems": 6506,
      "brid": 6507,
      "plus": 6508,
      "turning": 6509,
      "ulate": 6510,
      "assess": 6511,
      "diff": 6512,
      "1982": 6513,
      "radiation": 6514,
      "emphasis": 6515,
      "preferred": 6516,
      "jackson": 6517,
      "fert": 6518,
      "1976": 6519,
      "affect": 6520,
      "antarctica": 6521,
      "throne": 6522,
      "stig": 6523,
      "acting": 6524,
      "insur": 6525,
      "lights": 6526,
      "headed": 6527,
      "discs": 6528,
      "interests": 6529,
      "connecticut": 6530,
      "discrimination": 6531,
      "normally": 6532,
      "calendar": 6533,
      "heter": 6534,
      "doing": 6535,
      "trees": 6536,
      "punjab": 6537,
      "1900": 6538,
      "emit": 6539,
      "15th": 6540,
      "bitumen": 6541,
      "clean": 6542,
      "ranging": 6543,
      "pieces": 6544,
      "adolescents": 6545,
      "precipitation": 6546,
      "bun": 6547,
      "ump": 6548,
      "telephone": 6549,
      "accused": 6550,
      "sections": 6551,
      "iling": 6552,
      "quite": 6553,
      "religions": 6554,
      "experiences": 6555,
      "sounds": 6556,
      "capture": 6557,
      "predominant": 6558,
      "arena": 6559,
      "accompan": 6560,
      "ithic": 6561,
      "quantum": 6562,
      "survey": 6563,
      "accompanied": 6564,
      "determ": 6565,
      "grass": 6566,
      "generated": 6567,
      "wrestling": 6568,
      "kansas": 6569,
      "determine": 6570,
      "wine": 6571,
      "empir": 6572,
      "coverage": 6573,
      "harbor": 6574,
      "senior": 6575,
      "violence": 6576,
      "criminal": 6577,
      "philosophical": 6578,
      "digest": 6579,
      "mechanism": 6580,
      "pas": 6581,
      "yuan": 6582,
      "stim": 6583,
      "14th": 6584,
      "denomin": 6585,
      "brothers": 6586,
      "lithuan": 6587,
      "inner": 6588,
      "sels": 6589,
      "angeles": 6590,
      "1960": 6591,
      "receiving": 6592,
      "drawn": 6593,
      "52": 6594,
      "hann": 6595,
      "ensure": 6596,
      "abbey": 6597,
      "plain": 6598,
      "monte": 6599,
      "balance": 6600,
      "occupation": 6601,
      "rainfall": 6602,
      "filled": 6603,
      "mathematics": 6604,
      "absolute": 6605,
      "gon": 6606,
      "feyn": 6607,
      "crete": 6608,
      "consult": 6609,
      "commerce": 6610,
      "predators": 6611,
      "navig": 6612,
      "shortly": 6613,
      "basketball": 6614,
      "feynman": 6615,
      "1914": 6616,
      "minster": 6617,
      "vised": 6618,
      "deput": 6619,
      "historian": 6620,
      "eggs": 6621,
      "festivals": 6622,
      "cular": 6623,
      "wire": 6624,
      "peas": 6625,
      "ghan": 6626,
      "correspond": 6627,
      "statement": 6628,
      "lasted": 6629,
      "sunday": 6630,
      "restricted": 6631,
      "neighborhoods": 6632,
      "ote": 6633,
      "pale": 6634,
      "onso": 6635,
      "assumed": 6636,
      "comed": 6637,
      "1971": 6638,
      "costs": 6639,
      "gers": 6640,
      "simp": 6641,
      "successor": 6642,
      "facult": 6643,
      "steel": 6644,
      "challeng": 6645,
      "aggress": 6646,
      "leads": 6647,
      "constantinople": 6648,
      "62": 6649,
      "visual": 6650,
      "mainstream": 6651,
      "epic": 6652,
      "violent": 6653,
      "cin": 6654,
      "olid": 6655,
      "interior": 6656,
      "captain": 6657,
      "estimates": 6658,
      "austrian": 6659,
      "index": 6660,
      "mals": 6661,
      "andre": 6662,
      "igan": 6663,
      "abul": 6664,
      "exceed": 6665,
      "dependent": 6666,
      "worship": 6667,
      "writes": 6668,
      "influences": 6669,
      "hanover": 6670,
      "accounts": 6671,
      "edge": 6672,
      "idal": 6673,
      "1968": 6674,
      "assistance": 6675,
      "installed": 6676,
      "stable": 6677,
      "grown": 6678,
      "1975": 6679,
      "hills": 6680,
      "compos": 6681,
      "ours": 6682,
      "votes": 6683,
      "puer": 6684,
      "purchased": 6685,
      "oted": 6686,
      "obtained": 6687,
      "prompt": 6688,
      "wildlife": 6689,
      "push": 6690,
      "ilit": 6691,
      "landing": 6692,
      "colog": 6693,
      "1972": 6694,
      "johnson": 6695,
      "featuring": 6696,
      "analog": 6697,
      "performing": 6698,
      "aism": 6699,
      "enge": 6700,
      "1918": 6701,
      "marvel": 6702,
      "cypri": 6703,
      "brook": 6704,
      "shape": 6705,
      "expression": 6706,
      "collapse": 6707,
      "occasionally": 6708,
      "veget": 6709,
      "raine": 6710,
      "hov": 6711,
      "southwest": 6712,
      "montana": 6713,
      "lords": 6714,
      "freemasonry": 6715,
      "hil": 6716,
      "inations": 6717,
      "adap": 6718,
      "dia": 6719,
      "ministers": 6720,
      "purchase": 6721,
      "piece": 6722,
      "ashkenazi": 6723,
      "images": 6724,
      "mah": 6725,
      "perception": 6726,
      "1944": 6727,
      "cution": 6728,
      "theme": 6729,
      "wider": 6730,
      "tuberculosis": 6731,
      "unci": 6732,
      "confer": 6733,
      "nels": 6734,
      "governed": 6735,
      "controvers": 6736,
      "federation": 6737,
      "performances": 6738,
      "immigration": 6739,
      "gulf": 6740,
      "ante": 6741,
      "ota": 6742,
      "diag": 6743,
      "somewhat": 6744,
      "broken": 6745,
      "susp": 6746,
      "guinea": 6747,
      "rob": 6748,
      "illery": 6749,
      "akh": 6750,
      "politic": 6751,
      "organisation": 6752,
      "controver": 6753,
      "recognition": 6754,
      "ranges": 6755,
      "dating": 6756,
      "nt": 6757,
      "rev": 6758,
      "utical": 6759,
      "thermal": 6760,
      "acle": 6761,
      "designated": 6762,
      "attributed": 6763,
      "puerto": 6764,
      "aud": 6765,
      "jaz": 6766,
      "manus": 6767,
      "earned": 6768,
      "privi": 6769,
      "cultiv": 6770,
      "needs": 6771,
      "networks": 6772,
      "casual": 6773,
      "beliefs": 6774,
      "mammals": 6775,
      "proced": 6776,
      "ries": 6777,
      "genre": 6778,
      "achuse": 6779,
      "taji": 6780,
      "scul": 6781,
      "11th": 6782,
      "franch": 6783,
      "frequent": 6784,
      "spiritual": 6785,
      "achuset": 6786,
      "usual": 6787,
      "abd": 6788,
      "burma": 6789,
      "appeal": 6790,
      "branches": 6791,
      "lodges": 6792,
      "sn": 6793,
      "compla": 6794,
      "plicit": 6795,
      "shoot": 6796,
      "pick": 6797,
      "kness": 6798,
      "governing": 6799,
      "matters": 6800,
      "furthermore": 6801,
      "spoke": 6802,
      "ching": 6803,
      "sets": 6804,
      "anye": 6805,
      "courses": 6806,
      "1973": 6807,
      "passengers": 6808,
      "massachuset": 6809,
      "massachusetts": 6810,
      "sul": 6811,
      "norman": 6812,
      "europeans": 6813,
      "ura": 6814,
      "initiated": 6815,
      "nis": 6816,
      "iso": 6817,
      "chance": 6818,
      "guam": 6819,
      "valid": 6820,
      "describes": 6821,
      "bringing": 6822,
      "maria": 6823,
      "nik": 6824,
      "category": 6825,
      "residence": 6826,
      "flour": 6827,
      "ologists": 6828,
      "homosexual": 6829,
      "pictures": 6830,
      "affirmative": 6831,
      "],": 6832,
      "sister": 6833,
      "singles": 6834,
      "patron": 6835,
      "54": 6836,
      "nich": 6837,
      "orph": 6838,
      "olithic": 6839,
      "duch": 6840,
      "innov": 6841,
      "jim": 6842,
      "smith": 6843,
      "inches": 6844,
      "ington": 6845,
      "export": 6846,
      "1911": 6847,
      "powered": 6848,
      "organic": 6849,
      "1967": 6850,
      "promote": 6851,
      "relief": 6852,
      "1920s": 6853,
      "revival": 6854,
      "website": 6855,
      "enab": 6856,
      "ribute": 6857,
      "establishing": 6858,
      "1000": 6859,
      "cart": 6860,
      "minim": 6861,
      "morning": 6862,
      "businesses": 6863,
      "responsibility": 6864,
      "flower": 6865,
      "calls": 6866,
      "reducing": 6867,
      "suffering": 6868,
      "parent": 6869,
      "\"?": 6870,
      "condem": 6871,
      "pati": 6872,
      "hara": 6873,
      "favour": 6874,
      "pella": 6875,
      "recordings": 6876,
      "mercury": 6877,
      "authors": 6878,
      "ridge": 6879,
      "ón": 6880,
      "inals": 6881,
      "seats": 6882,
      "bean": 6883,
      "admir": 6884,
      "afghan": 6885,
      "correspon": 6886,
      "westminster": 6887,
      "bishops": 6888,
      "yugoslavia": 6889,
      "eye": 6890,
      "neur": 6891,
      "diet": 6892,
      "clou": 6893,
      "spective": 6894,
      "surround": 6895,
      "personnel": 6896,
      "judaism": 6897,
      "bought": 6898,
      "represents": 6899,
      "artillery": 6900,
      "consolid": 6901,
      "developments": 6902,
      "signals": 6903,
      "restored": 6904,
      "supporting": 6905,
      "somer": 6906,
      "scheme": 6907,
      "wound": 6908,
      "utre": 6909,
      "ively": 6910,
      "monop": 6911,
      "lamps": 6912,
      "dv": 6913,
      "exists": 6914,
      "winner": 6915,
      "amounts": 6916,
      "expect": 6917,
      "arrival": 6918,
      "hovah": 6919,
      "cers": 6920,
      "eric": 6921,
      "segment": 6922,
      "jehovah": 6923,
      "huge": 6924,
      "xture": 6925,
      "extinction": 6926,
      "inqu": 6927,
      "asth": 6928,
      "oty": 6929,
      "stead": 6930,
      "rebellion": 6931,
      "sculpt": 6932,
      "nu": 6933,
      "peg": 6934,
      "rick": 6935,
      "1961": 6936,
      "execution": 6937,
      "voting": 6938,
      "chapel": 6939,
      "protocol": 6940,
      "infantry": 6941,
      "manuscript": 6942,
      "whites": 6943,
      "neither": 6944,
      "1981": 6945,
      "blacks": 6946,
      "keeping": 6947,
      "gymnast": 6948,
      "alter": 6949,
      "ouse": 6950,
      "entry": 6951,
      "fiction": 6952,
      "finished": 6953,
      "locations": 6954,
      "chron": 6955,
      "21st": 6956,
      "8th": 6957,
      "unable": 6958,
      "populous": 6959,
      "metres": 6960,
      "comparison": 6961,
      "infrastructure": 6962,
      "53": 6963,
      "kanye": 6964,
      "zhe": 6965,
      "acres": 6966,
      "fee": 6967,
      "musicians": 6968,
      "passing": 6969,
      "committed": 6970,
      "legislature": 6971,
      "emotional": 6972,
      "infrared": 6973,
      "candidates": 6974,
      "comprehensive": 6975,
      "oxygen": 6976,
      "controversy": 6977,
      "rational": 6978,
      "tact": 6979,
      "inau": 6980,
      "construct": 6981,
      "map": 6982,
      "embar": 6983,
      "romantic": 6984,
      "videos": 6985,
      "involving": 6986,
      "opinion": 6987,
      "regularly": 6988,
      "swe": 6989,
      "uting": 6990,
      "rence": 6991,
      "chemist": 6992,
      "satis": 6993,
      "cabinet": 6994,
      "cau": 6995,
      "aspir": 6996,
      "adher": 6997,
      "mos": 6998,
      "norfolk": 6999,
      "borrow": 7000,
      "depression": 7001,
      "hardware": 7002,
      "broadcasting": 7003,
      "printed": 7004,
      "diplomatic": 7005,
      "tin": 7006,
      "andes": 7007,
      "adam": 7008,
      "assass": 7009,
      "bras": 7010,
      "guit": 7011,
      "operates": 7012,
      "increases": 7013,
      "1966": 7014,
      "socialist": 7015,
      "hunter": 7016,
      "cules": 7017,
      "reaching": 7018,
      "layer": 7019,
      "requirements": 7020,
      "jurisdiction": 7021,
      "galicia": 7022,
      "siege": 7023,
      "told": 7024,
      "raw": 7025,
      "ultane": 7026,
      "2000s": 7027,
      "simultane": 7028,
      "1983": 7029,
      "economics": 7030,
      "amongst": 7031,
      "rarely": 7032,
      "database": 7033,
      "',": 7034,
      "bib": 7035,
      "fans": 7036,
      "tho": 7037,
      "characteristic": 7038,
      "circul": 7039,
      "stored": 7040,
      "conscious": 7041,
      "51": 7042,
      "bag": 7043,
      "ration": 7044,
      "wii": 7045,
      "assic": 7046,
      "doctor": 7047,
      "eleven": 7048,
      "passage": 7049,
      "conservation": 7050,
      "isolated": 7051,
      "jeff": 7052,
      "tall": 7053,
      "inate": 7054,
      "roles": 7055,
      "begins": 7056,
      "vienna": 7057,
      "expedition": 7058,
      "7th": 7059,
      "reput": 7060,
      "ardi": 7061,
      "nothing": 7062,
      "caes": 7063,
      "varies": 7064,
      "processing": 7065,
      "facility": 7066,
      "argue": 7067,
      "width": 7068,
      "files": 7069,
      "controll": 7070,
      "planet": 7071,
      "francisco": 7072,
      "tajik": 7073,
      "aya": 7074,
      "preval": 7075,
      "jean": 7076,
      "utrecht": 7077,
      "imposed": 7078,
      "minimum": 7079,
      "elite": 7080,
      "chihua": 7081,
      "happened": 7082,
      "opportunity": 7083,
      "mort": 7084,
      "inian": 7085,
      "interstate": 7086,
      "stein": 7087,
      "storm": 7088,
      "exhibition": 7089,
      "challenge": 7090,
      "somalia": 7091,
      "'.": 7092,
      "iro": 7093,
      "zz": 7094,
      "stating": 7095,
      "immun": 7096,
      "prepar": 7097,
      "tier": 7098,
      "horse": 7099,
      "flood": 7100,
      "autonomy": 7101,
      "shopping": 7102,
      "jazz": 7103,
      "flying": 7104,
      "toler": 7105,
      "merged": 7106,
      "1977": 7107,
      "evolutionary": 7108,
      "olas": 7109,
      "shire": 7110,
      "pled": 7111,
      "spot": 7112,
      "tracks": 7113,
      "mainland": 7114,
      "iful": 7115,
      "baltic": 7116,
      "terminal": 7117,
      "aspect": 7118,
      "scottish": 7119,
      "72": 7120,
      "adian": 7121,
      "artific": 7122,
      "cuis": 7123,
      "variations": 7124,
      "stalin": 7125,
      "71": 7126,
      "wers": 7127,
      "1964": 7128,
      "salt": 7129,
      "offering": 7130,
      "says": 7131,
      "ranged": 7132,
      "mutual": 7133,
      "varying": 7134,
      "partly": 7135,
      "cession": 7136,
      "referend": 7137,
      "translated": 7138,
      "newspapers": 7139,
      "cited": 7140,
      "vow": 7141,
      "yan": 7142,
      "confirmed": 7143,
      "compo": 7144,
      "1953": 7145,
      "representative": 7146,
      "survived": 7147,
      "jerusal": 7148,
      "restaurants": 7149,
      "jerusalem": 7150,
      "kal": 7151,
      "ée": 7152,
      "hys": 7153,
      "bene": 7154,
      "threatened": 7155,
      "targets": 7156,
      "liquid": 7157,
      "inch": 7158,
      "chlor": 7159,
      "shut": 7160,
      "sile": 7161,
      "engaged": 7162,
      "goes": 7163,
      "surpr": 7164,
      "jr": 7165,
      "ato": 7166,
      "routes": 7167,
      "petro": 7168,
      "background": 7169,
      "capacitors": 7170,
      "immediate": 7171,
      "pronoun": 7172,
      "bath": 7173,
      "tions": 7174,
      "adjac": 7175,
      "coron": 7176,
      "sons": 7177,
      "covers": 7178,
      "1962": 7179,
      "junction": 7180,
      "adjacent": 7181,
      "sight": 7182,
      "apar": 7183,
      "chronic": 7184,
      "measured": 7185,
      "concentrated": 7186,
      "composer": 7187,
      "sale": 7188,
      "lets": 7189,
      "artistic": 7190,
      "pubs": 7191,
      "fled": 7192,
      "philippines": 7193,
      "oh": 7194,
      "rpm": 7195,
      "stages": 7196,
      "spar": 7197,
      "cars": 7198,
      "transit": 7199,
      "credited": 7200,
      "somerset": 7201,
      "sab": 7202,
      "lified": 7203,
      "anglic": 7204,
      "varieties": 7205,
      "millenn": 7206,
      "merely": 7207,
      "vul": 7208,
      "assa": 7209,
      "trave": 7210,
      "tested": 7211,
      "ranking": 7212,
      "profession": 7213,
      "questions": 7214,
      "tz": 7215,
      "anda": 7216,
      "crops": 7217,
      "1963": 7218,
      "saxon": 7219,
      "twelve": 7220,
      "theology": 7221,
      "rod": 7222,
      "mov": 7223,
      "1910": 7224,
      "assigned": 7225,
      "1956": 7226,
      "claiming": 7227,
      "damaged": 7228,
      "fellow": 7229,
      "humid": 7230,
      "elsewhere": 7231,
      "virtually": 7232,
      "strasbourg": 7233,
      "kins": 7234,
      "iveness": 7235,
      "crew": 7236,
      "killing": 7237,
      "concepts": 7238,
      "boundaries": 7239,
      "concentration": 7240,
      "vehicles": 7241,
      "orchest": 7242,
      "pover": 7243,
      "ologist": 7244,
      "legit": 7245,
      "garian": 7246,
      "transferred": 7247,
      "manufacturers": 7248,
      "orchestra": 7249,
      "61": 7250,
      "beng": 7251,
      "adjust": 7252,
      "owner": 7253,
      "virgil": 7254,
      "referendum": 7255,
      "otle": 7256,
      "avic": 7257,
      "continuous": 7258,
      "attracted": 7259,
      "dé": 7260,
      "waste": 7261,
      "stories": 7262,
      "imm": 7263,
      "iff": 7264,
      "moral": 7265,
      "distinguished": 7266,
      "opposite": 7267,
      "paras": 7268,
      "produces": 7269,
      "factory": 7270,
      "panel": 7271,
      "technique": 7272,
      "scenes": 7273,
      "900": 7274,
      "youth": 7275,
      "verte": 7276,
      "string": 7277,
      "10th": 7278,
      "palest": 7279,
      "laboratory": 7280,
      "kiev": 7281,
      "casualties": 7282,
      "blu": 7283,
      "hud": 7284,
      "atus": 7285,
      "sher": 7286,
      "obser": 7287,
      "insist": 7288,
      "jersey": 7289,
      "prepared": 7290,
      "74": 7291,
      "mn": 7292,
      "ented": 7293,
      "moon": 7294,
      "apost": 7295,
      "shipping": 7296,
      "faces": 7297,
      "morph": 7298,
      "studios": 7299,
      "weekly": 7300,
      "aristotle": 7301,
      "hr": 7302,
      "reformation": 7303,
      "deleg": 7304,
      "raf": 7305,
      "supposed": 7306,
      "psed": 7307,
      "suburbs": 7308,
      "jack": 7309,
      "kary": 7310,
      "qa": 7311,
      "vacc": 7312,
      "ariz": 7313,
      "brig": 7314,
      "cash": 7315,
      "unciation": 7316,
      "cbc": 7317,
      "aria": 7318,
      "leaves": 7319,
      "ille": 7320,
      "molecular": 7321,
      "eighth": 7322,
      "uru": 7323,
      "provision": 7324,
      "boat": 7325,
      "ussr": 7326,
      "heads": 7327,
      "exercise": 7328,
      "negoti": 7329,
      "alleged": 7330,
      "phenomen": 7331,
      "uniform": 7332,
      "carrying": 7333,
      "chihuahua": 7334,
      "69": 7335,
      "bak": 7336,
      "tang": 7337,
      "emen": 7338,
      "platform": 7339,
      "contestants": 7340,
      "kir": 7341,
      "encompass": 7342,
      "oration": 7343,
      "dean": 7344,
      "acre": 7345,
      "representation": 7346,
      "liberty": 7347,
      "seleuc": 7348,
      "gif": 7349,
      "1912": 7350,
      "trig": 7351,
      "rug": 7352,
      "independently": 7353,
      "1958": 7354,
      "bombers": 7355,
      "elevators": 7356,
      "infection": 7357,
      "aimed": 7358,
      "metaphys": 7359,
      "hoc": 7360,
      "trained": 7361,
      "legend": 7362,
      "programming": 7363,
      "culmin": 7364,
      "bronze": 7365,
      "reflected": 7366,
      "monica": 7367,
      "highway": 7368,
      "secure": 7369,
      "habitat": 7370,
      "ptole": 7371,
      "umay": 7372,
      "rab": 7373,
      "constitu": 7374,
      "believ": 7375,
      "baby": 7376,
      "regulation": 7377,
      "settlements": 7378,
      "cardinals": 7379,
      "mathematical": 7380,
      "descendants": 7381,
      "afl": 7382,
      "bowl": 7383,
      "breeding": 7384,
      "waves": 7385,
      "rey": 7386,
      "conversion": 7387,
      "abs": 7388,
      "haw": 7389,
      "rico": 7390,
      "filament": 7391,
      "neuro": 7392,
      "benefits": 7393,
      "unicode": 7394,
      "sleep": 7395,
      "nbc": 7396,
      "anth": 7397,
      "alexandria": 7398,
      "investigation": 7399,
      "candidate": 7400,
      "millennium": 7401,
      "fro": 7402,
      "lun": 7403,
      "arose": 7404,
      "deter": 7405,
      "cement": 7406,
      "losing": 7407,
      "placing": 7408,
      "suburban": 7409,
      "1942": 7410,
      "customs": 7411,
      "provincial": 7412,
      "struggle": 7413,
      "partnership": 7414,
      "scheduled": 7415,
      "asthma": 7416,
      "bla": 7417,
      "tics": 7418,
      "option": 7419,
      "worn": 7420,
      "knight": 7421,
      "charged": 7422,
      "arizona": 7423,
      "dj": 7424,
      "encounter": 7425,
      "altit": 7426,
      "harmon": 7427,
      "1965": 7428,
      "passenger": 7429,
      "succession": 7430,
      "persist": 7431,
      "parliamentary": 7432,
      "speaker": 7433,
      "faculty": 7434,
      "pact": 7435,
      "itarian": 7436,
      "prophe": 7437,
      "enses": 7438,
      "efa": 7439,
      "job": 7440,
      "atomic": 7441,
      "autonomous": 7442,
      "alphabet": 7443,
      "82": 7444,
      "eco": 7445,
      "ceutical": 7446,
      "porter": 7447,
      "coins": 7448,
      "lux": 7449,
      "connections": 7450,
      "conventional": 7451,
      "pharmaceutical": 7452,
      "explan": 7453,
      "soil": 7454,
      "dissol": 7455,
      "underground": 7456,
      "civilization": 7457,
      "olympics": 7458,
      "afghanistan": 7459,
      "vertebr": 7460,
      "elabor": 7461,
      "send": 7462,
      "imil": 7463,
      "machines": 7464,
      "shu": 7465,
      "presid": 7466,
      "marath": 7467,
      "medal": 7468,
      "daylight": 7469,
      "gospe": 7470,
      "households": 7471,
      "fewer": 7472,
      "walk": 7473,
      "taxes": 7474,
      "campaigns": 7475,
      "implemented": 7476,
      "chamber": 7477,
      "eritrea": 7478,
      "proposal": 7479,
      "phrase": 7480,
      "controversial": 7481,
      "89": 7482,
      "remove": 7483,
      "agent": 7484,
      "everton": 7485,
      "wavel": 7486,
      "synthetic": 7487,
      "spectrum": 7488,
      "situated": 7489,
      "manner": 7490,
      "meanwhile": 7491,
      "spectre": 7492,
      "croatian": 7493,
      "infringe": 7494,
      "wavelength": 7495,
      "chen": 7496,
      "resc": 7497,
      "deaths": 7498,
      "rison": 7499,
      "contributions": 7500,
      "alpine": 7501,
      "task": 7502,
      "appropriate": 7503,
      "93": 7504,
      "twil": 7505,
      "stars": 7506,
      "util": 7507,
      "publicly": 7508,
      "1947": 7509,
      "varied": 7510,
      "hurric": 7511,
      "chip": 7512,
      "iana": 7513,
      "trying": 7514,
      "recognised": 7515,
      "abolished": 7516,
      "nin": 7517,
      "uefa": 7518,
      "revers": 7519,
      "alry": 7520,
      "rous": 7521,
      "intent": 7522,
      "numbered": 7523,
      "strip": 7524,
      "conflicts": 7525,
      "distributed": 7526,
      "cavalry": 7527,
      "portray": 7528,
      "dismiss": 7529,
      "stret": 7530,
      "evening": 7531,
      "bai": 7532,
      "fried": 7533,
      "waters": 7534,
      "physi": 7535,
      "restrictions": 7536,
      "montevideo": 7537,
      "rated": 7538,
      "romo": 7539,
      "phony": 7540,
      "offensive": 7541,
      "civilian": 7542,
      "funded": 7543,
      "hes": 7544,
      "fear": 7545,
      "compact": 7546,
      "denied": 7547,
      "assets": 7548,
      "neighboring": 7549,
      "recommended": 7550,
      "pesticides": 7551,
      "ois": 7552,
      "ala": 7553,
      "arthur": 7554,
      "fier": 7555,
      "1952": 7556,
      "luft": 7557,
      "drum": 7558,
      "infect": 7559,
      "encourage": 7560,
      "geographical": 7561,
      "amendment": 7562,
      "iop": 7563,
      "charges": 7564,
      "architects": 7565,
      "zhejiang": 7566,
      "athen": 7567,
      "harm": 7568,
      "nationalist": 7569,
      "nament": 7570,
      "writings": 7571,
      "ukrain": 7572,
      "adults": 7573,
      "remote": 7574,
      "dollars": 7575,
      "circumst": 7576,
      "enforcement": 7577,
      "jones": 7578,
      "minute": 7579,
      "save": 7580,
      "educated": 7581,
      "wake": 7582,
      "hier": 7583,
      "younger": 7584,
      "vania": 7585,
      "drinking": 7586,
      "fm": 7587,
      "rolling": 7588,
      "convic": 7589,
      "centres": 7590,
      "guide": 7591,
      "counties": 7592,
      "warfare": 7593,
      "links": 7594,
      "glad": 7595,
      "holders": 7596,
      "participated": 7597,
      "surviving": 7598,
      "exclusively": 7599,
      "twilight": 7600,
      "aret": 7601,
      "mani": 7602,
      "1917": 7603,
      "commem": 7604,
      "slavs": 7605,
      "territorial": 7606,
      "connecting": 7607,
      "sovereignty": 7608,
      "opportun": 7609,
      "nickname": 7610,
      "chromo": 7611,
      "gel": 7612,
      "loan": 7613,
      "evange": 7614,
      "obama": 7615,
      "alloy": 7616,
      "conven": 7617,
      "hebrew": 7618,
      "osph": 7619,
      "ifications": 7620,
      "follows": 7621,
      "1955": 7622,
      "loyal": 7623,
      "closer": 7624,
      "customers": 7625,
      "opponents": 7626,
      "avicenna": 7627,
      "lama": 7628,
      "nag": 7629,
      "tay": 7630,
      "yo": 7631,
      "ishment": 7632,
      "cappella": 7633,
      "designs": 7634,
      "wealthy": 7635,
      "experimental": 7636,
      "dish": 7637,
      "jen": 7638,
      "illegal": 7639,
      "calling": 7640,
      "1951": 7641,
      "incandes": 7642,
      "females": 7643,
      "jos": 7644,
      "react": 7645,
      "ensu": 7646,
      "boom": 7647,
      "buy": 7648,
      "mixture": 7649,
      "citizenship": 7650,
      "sort": 7651,
      "yad": 7652,
      "essentially": 7653,
      "teacher": 7654,
      "motiv": 7655,
      "easy": 7656,
      "dramatic": 7657,
      "hungary": 7658,
      "kent": 7659,
      "reformed": 7660,
      "learned": 7661,
      "plane": 7662,
      "couple": 7663,
      "indeed": 7664,
      "discipline": 7665,
      "wen": 7666,
      "inum": 7667,
      "prosper": 7668,
      "mining": 7669,
      "thereby": 7670,
      "170": 7671,
      "1936": 7672,
      "pier": 7673,
      "secution": 7674,
      "printing": 7675,
      "competitions": 7676,
      "eyes": 7677,
      "abulary": 7678,
      "tag": 7679,
      "inary": 7680,
      "err": 7681,
      "1954": 7682,
      "adoption": 7683,
      "reserves": 7684,
      "michigan": 7685,
      "supplies": 7686,
      "cuisine": 7687,
      "incandescent": 7688,
      "nur": 7689,
      "tb": 7690,
      "permit": 7691,
      "explicit": 7692,
      "shir": 7693,
      "1938": 7694,
      "9th": 7695,
      "och": 7696,
      "abstra": 7697,
      "1922": 7698,
      "carib": 7699,
      "logic": 7700,
      "decreased": 7701,
      "franklin": 7702,
      "banned": 7703,
      "antarctic": 7704,
      "wolf": 7705,
      "caesar": 7706,
      "aes": 7707,
      "eur": 7708,
      "adding": 7709,
      "ares": 7710,
      "eton": 7711,
      "shore": 7712,
      "worst": 7713,
      "coach": 7714,
      "spending": 7715,
      "ps3": 7716,
      "involves": 7717,
      "horiz": 7718,
      "elevation": 7719,
      "thinking": 7720,
      "farmers": 7721,
      "details": 7722,
      "initiative": 7723,
      "invention": 7724,
      "argent": 7725,
      "decess": 7726,
      "imag": 7727,
      "tell": 7728,
      "prestig": 7729,
      "predecess": 7730,
      "mines": 7731,
      "continuing": 7732,
      "ranks": 7733,
      "nato": 7734,
      "tourist": 7735,
      "photograph": 7736,
      "philosophers": 7737,
      "lady": 7738,
      "victims": 7739,
      "denominations": 7740,
      "cli": 7741,
      "fame": 7742,
      "gay": 7743,
      "hat": 7744,
      "inj": 7745,
      "leon": 7746,
      "noise": 7747,
      "nazi": 7748,
      "receives": 7749,
      "seventh": 7750,
      "trust": 7751,
      "gardens": 7752,
      "explained": 7753,
      "rhine": 7754,
      "(/": 7755,
      "editions": 7756,
      "iland": 7757,
      "capita": 7758,
      "beautiful": 7759,
      "sis": 7760,
      "arbor": 7761,
      "entities": 7762,
      "lywood": 7763,
      "proof": 7764,
      "akes": 7765,
      "burn": 7766,
      "breaking": 7767,
      "criter": 7768,
      "tourists": 7769,
      "accompl": 7770,
      "rever": 7771,
      "alfred": 7772,
      "icism": 7773,
      "vessels": 7774,
      "1943": 7775,
      "familiar": 7776,
      "necessarily": 7777,
      "renewable": 7778,
      "thuringia": 7779,
      "lach": 7780,
      "emigr": 7781,
      "loans": 7782,
      "hai": 7783,
      "dual": 7784,
      "singing": 7785,
      "electronics": 7786,
      "psychology": 7787,
      "sylvania": 7788,
      "tools": 7789,
      "consecut": 7790,
      "otes": 7791,
      "130": 7792,
      "compete": 7793,
      "philosopher": 7794,
      "agreements": 7795,
      "pitch": 7796,
      "ende": 7797,
      "unte": 7798,
      "clin": 7799,
      "burgh": 7800,
      "strike": 7801,
      "falls": 7802,
      "indicated": 7803,
      "caliph": 7804,
      "registered": 7805,
      "athe": 7806,
      "mg": 7807,
      "evacu": 7808,
      "undergraduate": 7809,
      "gray": 7810,
      "hunters": 7811,
      "emergency": 7812,
      "hope": 7813,
      "ugh": 7814,
      "zh": 7815,
      "populated": 7816,
      "balkans": 7817,
      "bod": 7818,
      "nac": 7819,
      "itudes": 7820,
      "acknowled": 7821,
      "agents": 7822,
      "prayer": 7823,
      "1931": 7824,
      "squad": 7825,
      "enterpr": 7826,
      "williams": 7827,
      "baseball": 7828,
      "teachings": 7829,
      "tul": 7830,
      "raid": 7831,
      "identical": 7832,
      "standardi": 7833,
      "gallery": 7834,
      "pennsylvania": 7835,
      "surrounded": 7836,
      "ongo": 7837,
      "1937": 7838,
      "boards": 7839,
      "possibility": 7840,
      "yield": 7841,
      "caribbean": 7842,
      "consecutive": 7843,
      "rand": 7844,
      "scar": 7845,
      "orbit": 7846,
      "sugar": 7847,
      "resigned": 7848,
      "volunte": 7849,
      "relev": 7850,
      "vinyl": 7851,
      "georgia": 7852,
      "botto": 7853,
      "mpeg": 7854,
      "pius": 7855,
      "abil": 7856,
      "diar": 7857,
      "coin": 7858,
      "operational": 7859,
      "romance": 7860,
      "structural": 7861,
      "discussed": 7862,
      "revenues": 7863,
      "liverpool": 7864,
      "accurate": 7865,
      "hz": 7866,
      "istical": 7867,
      "proclaimed": 7868,
      "exposed": 7869,
      "guil": 7870,
      "intense": 7871,
      "metals": 7872,
      "choose": 7873,
      "consisted": 7874,
      "toxic": 7875,
      "reputation": 7876,
      "pav": 7877,
      "atically": 7878,
      "iction": 7879,
      "entity": 7880,
      "sharing": 7881,
      "indones": 7882,
      "voy": 7883,
      "mortal": 7884,
      "athletic": 7885,
      "ading": 7886,
      "dielectric": 7887,
      "1919": 7888,
      "specul": 7889,
      "crimes": 7890,
      "airlines": 7891,
      "engineers": 7892,
      "paintings": 7893,
      "deposits": 7894,
      "gone": 7895,
      "kit": 7896,
      "reverse": 7897,
      "tomb": 7898,
      "diam": 7899,
      "lose": 7900,
      "displayed": 7901,
      "transist": 7902,
      "treas": 7903,
      "1946": 7904,
      "bases": 7905,
      "currency": 7906,
      "1957": 7907,
      "armenians": 7908,
      "distinctive": 7909,
      "vertical": 7910,
      "trend": 7911,
      "67": 7912,
      "mese": 7913,
      "plains": 7914,
      "sace": 7915,
      "buried": 7916,
      "burmese": 7917,
      "funeral": 7918,
      "dense": 7919,
      "walter": 7920,
      "cognitive": 7921,
      "crossed": 7922,
      "synthesis": 7923,
      "commissioned": 7924,
      "hockey": 7925,
      "ng": 7926,
      "dian": 7927,
      "shr": 7928,
      "compens": 7929,
      "scand": 7930,
      "civilians": 7931,
      "cs": 7932,
      "sume": 7933,
      "flex": 7934,
      "detailed": 7935,
      "rajas": 7936,
      "97": 7937,
      "infl": 7938,
      "abu": 7939,
      "fifa": 7940,
      "mugh": 7941,
      "representing": 7942,
      "angered": 7943,
      "compatible": 7944,
      "jin": 7945,
      "whel": 7946,
      "amph": 7947,
      "1930": 7948,
      "estate": 7949,
      "1800": 7950,
      "attached": 7951,
      "angle": 7952,
      "technological": 7953,
      "apply": 7954,
      "capacitor": 7955,
      "participate": 7956,
      "deployed": 7957,
      "jefferson": 7958,
      "movies": 7959,
      "94": 7960,
      "esp": 7961,
      "whit": 7962,
      "disp": 7963,
      "fiber": 7964,
      "explos": 7965,
      "tified": 7966,
      "invited": 7967,
      "missile": 7968,
      "museums": 7969,
      "rebels": 7970,
      "taylor": 7971,
      "sina": 7972,
      "deem": 7973,
      "iday": 7974,
      "coordin": 7975,
      "readers": 7976,
      "sacrifice": 7977,
      "sz": 7978,
      "vive": 7979,
      "revel": 7980,
      "grid": 7981,
      "oked": 7982,
      "cruci": 7983,
      "pathogen": 7984,
      "arrested": 7985,
      "poverty": 7986,
      "acids": 7987,
      "doors": 7988,
      "disco": 7989,
      "cancer": 7990,
      "bombs": 7991,
      "encoding": 7992,
      "sweden": 7993,
      "patients": 7994,
      "chel": 7995,
      "aux": 7996,
      "pregn": 7997,
      "broadway": 7998,
      "ography": 7999,
      "1861": 8000,
      "vehicle": 8001,
      "husband": 8002,
      "commemor": 8003,
      "iber": 8004,
      "alsace": 8005,
      "congo": 8006,
      "feud": 8007,
      "bos": 8008,
      "carl": 8009,
      "signs": 8010,
      "basil": 8011,
      "learn": 8012,
      "brah": 8013,
      "accident": 8014,
      "consistent": 8015,
      "prisoners": 8016,
      "ock": 8017,
      "geomet": 8018,
      "complic": 8019,
      "umb": 8020,
      "melo": 8021,
      "versary": 8022,
      "borne": 8023,
      "depends": 8024,
      "adolescence": 8025,
      "iver": 8026,
      "rical": 8027,
      "uma": 8028,
      "yard": 8029,
      "ull": 8030,
      "groo": 8031,
      "legally": 8032,
      "controls": 8033,
      "publishing": 8034,
      "adesh": 8035,
      "nucle": 8036,
      "sacred": 8037,
      "gri": 8038,
      "waffe": 8039,
      "understood": 8040,
      "elder": 8041,
      "frequencies": 8042,
      "millions": 8043,
      "scr": 8044,
      "productions": 8045,
      "busiest": 8046,
      "seek": 8047,
      "rajasthan": 8048,
      "fis": 8049,
      "kr": 8050,
      "mine": 8051,
      "inland": 8052,
      "stall": 8053,
      "devon": 8054,
      "rial": 8055,
      "parad": 8056,
      "clause": 8057,
      "pointed": 8058,
      "regardless": 8059,
      "emergence": 8060,
      "accum": 8061,
      "slowly": 8062,
      "absorbed": 8063,
      "enabled": 8064,
      "caucas": 8065,
      "ecolog": 8066,
      "gap": 8067,
      "hits": 8068,
      "shan": 8069,
      "vii": 8070,
      "survive": 8071,
      "citing": 8072,
      "facilit": 8073,
      "duties": 8074,
      "russell": 8075,
      "molecules": 8076,
      "dominican": 8077,
      "windsor": 8078,
      "oon": 8079,
      "defic": 8080,
      "crop": 8081,
      "destiny": 8082,
      "programme": 8083,
      "literally": 8084,
      "foods": 8085,
      "shock": 8086,
      "faster": 8087,
      "responded": 8088,
      "reci": 8089,
      "org": 8090,
      "tests": 8091,
      "linear": 8092,
      "revolt": 8093,
      "luftwaffe": 8094,
      "ukrainian": 8095,
      "vas": 8096,
      "intr": 8097,
      "implic": 8098,
      "overwhel": 8099,
      "partially": 8100,
      "barri": 8101,
      "oxford": 8102,
      "ukraine": 8103,
      "skills": 8104,
      "rescue": 8105,
      "opportunities": 8106,
      "oak": 8107,
      "forbes": 8108,
      "nobel": 8109,
      "biology": 8110,
      "grammy": 8111,
      "mali": 8112,
      "planes": 8113,
      "chemicals": 8114,
      "geographic": 8115,
      "infringement": 8116,
      "vard": 8117,
      "thick": 8118,
      "orous": 8119,
      "cian": 8120,
      "desk": 8121,
      "finite": 8122,
      "queens": 8123,
      "voters": 8124,
      "layers": 8125,
      "circumstances": 8126,
      "mtv": 8127,
      "inhab": 8128,
      "tot": 8129,
      "raising": 8130,
      "clu": 8131,
      "interface": 8132,
      "administered": 8133,
      "departments": 8134,
      "manufactured": 8135,
      "logical": 8136,
      "maintaining": 8137,
      "preserved": 8138,
      "papal": 8139,
      "glacier": 8140,
      "modified": 8141,
      "anglican": 8142,
      "immune": 8143,
      "cus": 8144,
      "internationally": 8145,
      "finance": 8146,
      "hollywood": 8147,
      "viewers": 8148,
      "1934": 8149,
      "bills": 8150,
      "championships": 8151,
      "diarrhe": 8152,
      "fan": 8153,
      "acce": 8154,
      "desire": 8155,
      "curric": 8156,
      "willing": 8157,
      "backed": 8158,
      "samuel": 8159,
      "protesters": 8160,
      "respective": 8161,
      "villages": 8162,
      "adapted": 8163,
      "83": 8164,
      "edict": 8165,
      "entr": 8166,
      "lian": 8167,
      "spur": 8168,
      "nationalism": 8169,
      "cription": 8170,
      "define": 8171,
      "experiments": 8172,
      "distinguish": 8173,
      "disaster": 8174,
      "artificial": 8175,
      "86": 8176,
      "vac": 8177,
      "towers": 8178,
      "extension": 8179,
      "switch": 8180,
      "shares": 8181,
      "alloys": 8182,
      "infectious": 8183,
      "mini": 8184,
      "nights": 8185,
      "stopped": 8186,
      "annexed": 8187,
      "confederation": 8188,
      "inhabited": 8189,
      "theor": 8190,
      "thered": 8191,
      "optical": 8192,
      "ultimate": 8193,
      "intention": 8194,
      "extend": 8195,
      "duty": 8196,
      "nutri": 8197,
      "ckingham": 8198,
      "recovery": 8199,
      "assault": 8200,
      "hudson": 8201,
      "pent": 8202,
      "sap": 8203,
      "thera": 8204,
      "ati": 8205,
      "dial": 8206,
      "wet": 8207,
      "ighters": 8208,
      "monitor": 8209,
      "stands": 8210,
      "collected": 8211,
      "grain": 8212,
      "authorized": 8213,
      "concerts": 8214,
      "pronunciation": 8215,
      "tajikistan": 8216,
      "gut": 8217,
      "sop": 8218,
      "tensions": 8219,
      "leban": 8220,
      "math": 8221,
      "cooperation": 8222,
      "belt": 8223,
      "brian": 8224,
      "explain": 8225,
      "ogue": 8226,
      "uous": 8227,
      "vak": 8228,
      "chor": 8229,
      "ili": 8230,
      "afford": 8231,
      "franco": 8232,
      "arabs": 8233,
      "girl": 8234,
      "message": 8235,
      "franchise": 8236,
      "ima": 8237,
      "centered": 8238,
      "intermedi": 8239,
      "scout": 8240,
      "beings": 8241,
      "clearly": 8242,
      "consequence": 8243,
      "licensed": 8244,
      "bottom": 8245,
      "81": 8246,
      "nest": 8247,
      "helic": 8248,
      "1913": 8249,
      "finals": 8250,
      "realm": 8251,
      "prevented": 8252,
      "instrumental": 8253,
      "resemb": 8254,
      "ongoing": 8255,
      "acceler": 8256,
      "saving": 8257,
      "lem": 8258,
      "advice": 8259,
      "coln": 8260,
      "supplement": 8261,
      "lincoln": 8262,
      "confess": 8263,
      "difficulty": 8264,
      "shaped": 8265,
      "deputy": 8266,
      "bang": 8267,
      "thunder": 8268,
      "ultra": 8269,
      "guay": 8270,
      "dock": 8271,
      "sponso": 8272,
      "warri": 8273,
      "identification": 8274,
      "naz": 8275,
      "sentence": 8276,
      "promised": 8277,
      "wrestler": 8278,
      "banner": 8279,
      "psychological": 8280,
      "diagno": 8281,
      "relevant": 8282,
      "sponsored": 8283,
      "hag": 8284,
      "kö": 8285,
      "input": 8286,
      "icom": 8287,
      "hear": 8288,
      "antenn": 8289,
      "guest": 8290,
      "monks": 8291,
      "corporate": 8292,
      "codes": 8293,
      "linguistic": 8294,
      "stimul": 8295,
      "chemistry": 8296,
      "antennas": 8297,
      "sist": 8298,
      "orche": 8299,
      "spin": 8300,
      "spons": 8301,
      "parade": 8302,
      "unified": 8303,
      "governance": 8304,
      "natives": 8305,
      "ethnicity": 8306,
      "sicily": 8307,
      "disputed": 8308,
      "hok": 8309,
      "wart": 8310,
      "eda": 8311,
      "cooper": 8312,
      "titled": 8313,
      "occurring": 8314,
      "ottomans": 8315,
      "wheel": 8316,
      "bby": 8317,
      "permitted": 8318,
      "exile": 8319,
      "etime": 8320,
      "aga": 8321,
      "illum": 8322,
      "astro": 8323,
      "stron": 8324,
      "spaces": 8325,
      "monetary": 8326,
      "description": 8327,
      "dream": 8328,
      "clergy": 8329,
      "looking": 8330,
      "heterosexual": 8331,
      "gates": 8332,
      "vatic": 8333,
      "proceed": 8334,
      "shad": 8335,
      "prev": 8336,
      "tied": 8337,
      "literacy": 8338,
      "collapsed": 8339,
      "vatican": 8340,
      "?]": 8341,
      "ahead": 8342,
      "owed": 8343,
      "qui": 8344,
      "plaza": 8345,
      "trail": 8346,
      "tribe": 8347,
      "140": 8348,
      "blocks": 8349,
      "1876": 8350,
      "substance": 8351,
      "functional": 8352,
      "discussion": 8353,
      "strengthen": 8354,
      "involvement": 8355,
      "uruguay": 8356,
      "kim": 8357,
      "tab": 8358,
      "lest": 8359,
      "cies": 8360,
      "antio": 8361,
      "eva": 8362,
      "capabilities": 8363,
      "empires": 8364,
      "channels": 8365,
      "protestants": 8366,
      "integration": 8367,
      "occasions": 8368,
      "comparative": 8369,
      "extinct": 8370,
      "predominantly": 8371,
      "?\"": 8372,
      "asy": 8373,
      "imped": 8374,
      "optim": 8375,
      "perfect": 8376,
      "ceded": 8377,
      "airports": 8378,
      "swaz": 8379,
      "facing": 8380,
      "eliminated": 8381,
      "brooklyn": 8382,
      "deliber": 8383,
      "lift": 8384,
      "worms": 8385,
      "joining": 8386,
      "subcontinent": 8387,
      "1959": 8388,
      "draft": 8389,
      "marketing": 8390,
      "competing": 8391,
      "fortune": 8392,
      "adopt": 8393,
      "symbols": 8394,
      "libyan": 8395,
      "framework": 8396,
      "aviation": 8397,
      "atmosphere": 8398,
      "instruct": 8399,
      "perm": 8400,
      "perspective": 8401,
      "earning": 8402,
      "someone": 8403,
      "madrid": 8404,
      "statistics": 8405,
      "encycl": 8406,
      "specialized": 8407,
      "minorities": 8408,
      "rush": 8409,
      "fishing": 8410,
      "forests": 8411,
      "ownership": 8412,
      "anniversary": 8413,
      "mortg": 8414,
      "hin": 8415,
      "ifer": 8416,
      "stors": 8417,
      "deck": 8418,
      "velt": 8419,
      "acterial": 8420,
      "enjoyed": 8421,
      "negotiations": 8422,
      "fighter": 8423,
      "rons": 8424,
      "án": 8425,
      "erals": 8426,
      "ito": 8427,
      "propag": 8428,
      "uble": 8429,
      "ancestors": 8430,
      "osaur": 8431,
      "indirect": 8432,
      "childhood": 8433,
      "soviets": 8434,
      "false": 8435,
      "neighbouring": 8436,
      "simultaneously": 8437,
      "84": 8438,
      "cad": 8439,
      "dun": 8440,
      "rely": 8441,
      "corner": 8442,
      "pressing": 8443,
      "marit": 8444,
      "traits": 8445,
      "capit": 8446,
      "coding": 8447,
      "vocabulary": 8448,
      "nicholas": 8449,
      "ais": 8450,
      "bits": 8451,
      "cow": 8452,
      "ré": 8453,
      "wy": 8454,
      "inspir": 8455,
      "tels": 8456,
      "feast": 8457,
      "disney": 8458,
      "domain": 8459,
      "madison": 8460,
      "entering": 8461,
      "1871": 8462,
      "globe": 8463,
      "concerning": 8464,
      "oriented": 8465,
      "karl": 8466,
      "affiliated": 8467,
      "impossible": 8468,
      "ista": 8469,
      "interactions": 8470,
      "inton": 8471,
      "ethiop": 8472,
      "stronger": 8473,
      "visiting": 8474,
      "decrease": 8475,
      "avoided": 8476,
      "promise": 8477,
      "mall": 8478,
      "aris": 8479,
      "lap": 8480,
      "subscri": 8481,
      "militia": 8482,
      "statistical": 8483,
      "chapter": 8484,
      "arrangement": 8485,
      "scope": 8486,
      "coronation": 8487,
      "deemed": 8488,
      "isations": 8489,
      "isition": 8490,
      "lex": 8491,
      "leop": 8492,
      "oura": 8493,
      "lakes": 8494,
      "buckingham": 8495,
      "anything": 8496,
      "tribal": 8497,
      "railroad": 8498,
      "detect": 8499,
      "delayed": 8500,
      "helicop": 8501,
      "kg": 8502,
      "unless": 8503,
      "aka": 8504,
      "associations": 8505,
      "friendly": 8506,
      "pollution": 8507,
      "privileg": 8508,
      "athens": 8509,
      "throw": 8510,
      "valle": 8511,
      "filed": 8512,
      "collaboration": 8513,
      "gau": 8514,
      "uck": 8515,
      "aling": 8516,
      "excell": 8517,
      "notion": 8518,
      "1830": 8519,
      "productive": 8520,
      "papers": 8521,
      "baro": 8522,
      "drawing": 8523,
      "dictator": 8524,
      "belgium": 8525,
      "olics": 8526,
      "teries": 8527,
      "maur": 8528,
      "register": 8529,
      "cratic": 8530,
      "thereafter": 8531,
      "crossing": 8532,
      "bulb": 8533,
      "zero": 8534,
      "innovation": 8535,
      "competitive": 8536,
      "dangerous": 8537,
      "thood": 8538,
      "onia": 8539,
      "remember": 8540,
      "conson": 8541,
      "publications": 8542,
      "turks": 8543,
      "liberation": 8544,
      "horn": 8545,
      "femin": 8546,
      "eccles": 8547,
      "improvements": 8548,
      "nominated": 8549,
      "samoa": 8550,
      "sad": 8551,
      "really": 8552,
      "ila": 8553,
      "uten": 8554,
      "uprising": 8555,
      "fined": 8556,
      "flame": 8557,
      "hyper": 8558,
      "consequently": 8559,
      "attendance": 8560,
      "kaz": 8561,
      "yers": 8562,
      "icide": 8563,
      "lah": 8564,
      "neolithic": 8565,
      "portions": 8566,
      "partner": 8567,
      "howard": 8568,
      "producers": 8569,
      "plebe": 8570,
      "technic": 8571,
      "purple": 8572,
      "homo": 8573,
      "availability": 8574,
      "nineteenth": 8575,
      "replacement": 8576,
      "cbs": 8577,
      "roose": 8578,
      "rac": 8579,
      "maj": 8580,
      "sud": 8581,
      "abroad": 8582,
      "heating": 8583,
      "uding": 8584,
      "trains": 8585,
      "factories": 8586,
      "praised": 8587,
      "mounted": 8588,
      "acceptable": 8589,
      "prompted": 8590,
      "wich": 8591,
      "stained": 8592,
      "orange": 8593,
      "chal": 8594,
      "entit": 8595,
      "mahay": 8596,
      "endangered": 8597,
      "objective": 8598,
      "hydr": 8599,
      "litur": 8600,
      "seeking": 8601,
      "recognize": 8602,
      "farming": 8603,
      "divor": 8604,
      "implementation": 8605,
      "fossil": 8606,
      "baroque": 8607,
      "roosevelt": 8608,
      "db": 8609,
      "tone": 8610,
      "enacted": 8611,
      "ulum": 8612,
      "sudan": 8613,
      "resign": 8614,
      "hungarian": 8615,
      "catholics": 8616,
      "argument": 8617,
      "cubism": 8618,
      "celebration": 8619,
      "presidency": 8620,
      "recon": 8621,
      "reject": 8622,
      "illy": 8623,
      "cos": 8624,
      "margin": 8625,
      "mild": 8626,
      "trophy": 8627,
      "manuel": 8628,
      "attraction": 8629,
      "valencian": 8630,
      "macedonian": 8631,
      "municipalities": 8632,
      "composers": 8633,
      "guitar": 8634,
      "rugby": 8635,
      "warning": 8636,
      "carth": 8637,
      "generations": 8638,
      "transformed": 8639,
      "banking": 8640,
      "1848": 8641,
      "suitable": 8642,
      "cof": 8643,
      "fy": 8644,
      "lé": 8645,
      "thew": 8646,
      "stical": 8647,
      "plastic": 8648,
      "trip": 8649,
      "daniel": 8650,
      "1909": 8651,
      "steps": 8652,
      "theolog": 8653,
      "arn": 8654,
      "icus": 8655,
      "tool": 8656,
      "umn": 8657,
      "crude": 8658,
      "paler": 8659,
      "autumn": 8660,
      "comprising": 8661,
      "phenomenon": 8662,
      "blow": 8663,
      "stability": 8664,
      "segments": 8665,
      "pho": 8666,
      "assimil": 8667,
      "landed": 8668,
      "preach": 8669,
      "displays": 8670,
      "defining": 8671,
      "1907": 8672,
      "meetings": 8673,
      "suspe": 8674,
      "anthropologists": 8675,
      "axis": 8676,
      "briefly": 8677,
      "corresponding": 8678,
      "mahayana": 8679,
      "kha": 8680,
      "replic": 8681,
      "devast": 8682,
      "moreover": 8683,
      "thirteen": 8684,
      "acceptance": 8685,
      "potentially": 8686,
      "karma": 8687,
      "crystal": 8688,
      "andrew": 8689,
      "aids": 8690,
      "fts": 8691,
      "vor": 8692,
      "escape": 8693,
      "sectors": 8694,
      "comic": 8695,
      "reson": 8696,
      "indians": 8697,
      "symphony": 8698,
      "boulev": 8699,
      "roof": 8700,
      "ceo": 8701,
      "convin": 8702,
      "owl": 8703,
      "pest": 8704,
      "themes": 8705,
      "humanity": 8706,
      "releases": 8707,
      "madras": 8708,
      "antibacterial": 8709,
      "fab": 8710,
      "zhang": 8711,
      "termed": 8712,
      "raids": 8713,
      "intervention": 8714,
      "tace": 8715,
      "azer": 8716,
      "beyonce": 8717,
      "participation": 8718,
      "graduates": 8719,
      "possession": 8720,
      "merchants": 8721,
      "absence": 8722,
      "kat": 8723,
      "mble": 8724,
      "ão": 8725,
      "forcing": 8726,
      "irs": 8727,
      "lac": 8728,
      "1925": 8729,
      "trap": 8730,
      "eukary": 8731,
      "followers": 8732,
      "emperors": 8733,
      "broadcasts": 8734,
      "attract": 8735,
      "removal": 8736,
      "decorated": 8737,
      "horizon": 8738,
      "error": 8739,
      "chose": 8740,
      "warner": 8741,
      "patents": 8742,
      "cribed": 8743,
      "arranged": 8744,
      "cook": 8745,
      "colour": 8746,
      "attain": 8747,
      "temples": 8748,
      "declining": 8749,
      "conceptual": 8750,
      "expanding": 8751,
      "tunnel": 8752,
      "350": 8753,
      "hiv": 8754,
      "embra": 8755,
      "famicom": 8756,
      "lesser": 8757,
      "brevi": 8758,
      "grammar": 8759,
      "thirty": 8760,
      "falling": 8761,
      "argues": 8762,
      "silk": 8763,
      "resource": 8764,
      "annex": 8765,
      "julian": 8766,
      "refugees": 8767,
      "fc": 8768,
      "mul": 8769,
      "stro": 8770,
      "ardo": 8771,
      "plural": 8772,
      "cord": 8773,
      "license": 8774,
      "complement": 8775,
      "teachers": 8776,
      "exceptions": 8777,
      "narr": 8778,
      "antibiotic": 8779,
      "hierarch": 8780,
      "blan": 8781,
      "kur": 8782,
      "lion": 8783,
      "inity": 8784,
      "ander": 8785,
      "forum": 8786,
      "partis": 8787,
      "rent": 8788,
      "volta": 8789,
      "calvin": 8790,
      "facto": 8791,
      "boundary": 8792,
      "insurance": 8793,
      "canton": 8794,
      "infer": 8795,
      "recru": 8796,
      "root": 8797,
      "withdrew": 8798,
      "download": 8799,
      "radar": 8800,
      "traveled": 8801,
      "idealism": 8802,
      "dalai": 8803,
      "gospel": 8804,
      "annel": 8805,
      "extending": 8806,
      "painted": 8807,
      "melting": 8808,
      "infections": 8809,
      "headquartered": 8810,
      "110": 8811,
      "hors": 8812,
      "oz": 8813,
      "returning": 8814,
      "confront": 8815,
      "phere": 8816,
      "tape": 8817,
      "transform": 8818,
      "hole": 8819,
      "organised": 8820,
      "humanism": 8821,
      "collectively": 8822,
      "basin": 8823,
      "telecommunications": 8824,
      "mechanics": 8825,
      "maintains": 8826,
      "glaciers": 8827,
      "fruit": 8828,
      "baijan": 8829,
      "maritime": 8830,
      "palermo": 8831,
      "azerbaijan": 8832,
      "fant": 8833,
      "recovered": 8834,
      "sees": 8835,
      "conve": 8836,
      "prox": 8837,
      "dio": 8838,
      "illu": 8839,
      "vibr": 8840,
      "sail": 8841,
      "juan": 8842,
      "ieth": 8843,
      "winners": 8844,
      "select": 8845,
      "alumni": 8846,
      "laserdisc": 8847,
      "elaborate": 8848,
      "criteria": 8849,
      "desktop": 8850,
      "ani": 8851,
      "anatol": 8852,
      "static": 8853,
      "rout": 8854,
      "abbrevi": 8855,
      "quad": 8856,
      "leagues": 8857,
      "skir": 8858,
      "republics": 8859,
      "referring": 8860,
      "drama": 8861,
      "predator": 8862,
      "interested": 8863,
      "donated": 8864,
      "ifying": 8865,
      "symmet": 8866,
      "manchu": 8867,
      "bicy": 8868,
      "suspended": 8869,
      "szlach": 8870,
      "aus": 8871,
      "nh": 8872,
      "reconstruction": 8873,
      "newer": 8874,
      "fired": 8875,
      "closure": 8876,
      "tournament": 8877,
      "hitler": 8878,
      "explorer": 8879,
      "georgian": 8880,
      "biblical": 8881,
      "lists": 8882,
      "rud": 8883,
      "asa": 8884,
      "adic": 8885,
      "clan": 8886,
      "tram": 8887,
      "estimate": 8888,
      "rocket": 8889,
      "commercially": 8890,
      "mathematic": 8891,
      "qualities": 8892,
      "atoms": 8893,
      "battery": 8894,
      "cine": 8895,
      "watt": 8896,
      "wings": 8897,
      "roger": 8898,
      "abund": 8899,
      "exports": 8900,
      "1927": 8901,
      "acou": 8902,
      "showing": 8903,
      "everything": 8904,
      "1870": 8905,
      "appointment": 8906,
      "cambridge": 8907,
      "prevalent": 8908,
      "tended": 8909,
      "inherit": 8910,
      "metall": 8911,
      "protector": 8912,
      "drives": 8913,
      "hospitals": 8914,
      "shifted": 8915,
      "fairly": 8916,
      "findings": 8917,
      "arid": 8918,
      "convert": 8919,
      "rib": 8920,
      "bohem": 8921,
      "cretace": 8922,
      "unification": 8923,
      "journey": 8924,
      "navigation": 8925,
      "inaugur": 8926,
      "dissolved": 8927,
      "cretaceous": 8928,
      "asi": 8929,
      "charts": 8930,
      "peaceful": 8931,
      "reviews": 8932,
      "recommend": 8933,
      "cum": 8934,
      "fold": 8935,
      "leum": 8936,
      "opol": 8937,
      "marx": 8938,
      "ancestor": 8939,
      "intensity": 8940,
      "gang": 8941,
      "1932": 8942,
      "definitions": 8943,
      "check": 8944,
      "weapon": 8945,
      "lifetime": 8946,
      "circuits": 8947,
      "boroughs": 8948,
      "granting": 8949,
      "thail": 8950,
      "arbit": 8951,
      "resur": 8952,
      "1929": 8953,
      "marg": 8954,
      "cket": 8955,
      "emerging": 8956,
      "manufacture": 8957,
      "1854": 8958,
      "progressive": 8959,
      "nobles": 8960,
      "heights": 8961,
      "priests": 8962,
      "subsidiary": 8963,
      "abdul": 8964,
      "aparte": 8965,
      "thailand": 8966,
      "biss": 8967,
      "hearing": 8968,
      "clash": 8969,
      "etic": 8970,
      "actress": 8971,
      "marry": 8972,
      "avia": 8973,
      "gathered": 8974,
      "statute": 8975,
      "fathers": 8976,
      "indicates": 8977,
      "kinds": 8978,
      "szlachta": 8979,
      "mt": 8980,
      "tub": 8981,
      "rotor": 8982,
      "usions": 8983,
      "phosph": 8984,
      "interven": 8985,
      "hore": 8986,
      "everyday": 8987,
      "petroleum": 8988,
      "acknowledged": 8989,
      "\";": 8990,
      "rez": 8991,
      "remark": 8992,
      "ilation": 8993,
      "persecution": 8994,
      "cii": 8995,
      "rics": 8996,
      "desired": 8997,
      "archives": 8998,
      "indies": 8999,
      "reporting": 9000,
      "dominance": 9001,
      "bengal": 9002,
      "mortality": 9003,
      "kid": 9004,
      "pill": 9005,
      "eds": 9006,
      "sten": 9007,
      "itz": 9008,
      "amb": 9009,
      "actor": 9010,
      "notice": 9011,
      "communists": 9012,
      "pleas": 9013,
      "christmas": 9014,
      "harvard": 9015,
      "heaven": 9016,
      "instruction": 9017,
      "anticip": 9018,
      "substit": 9019,
      "snowfall": 9020,
      "sumerian": 9021,
      "vertebrates": 9022,
      "indonesia": 9023,
      "nie": 9024,
      "tong": 9025,
      "deer": 9026,
      "underlying": 9027,
      "ologically": 9028,
      "expelled": 9029,
      "sensitive": 9030,
      "noun": 9031,
      "sas": 9032,
      "ink": 9033,
      "inser": 9034,
      "onwards": 9035,
      "reactions": 9036,
      "unknown": 9037,
      "loop": 9038,
      "assign": 9039,
      "este": 9040,
      "ounds": 9041,
      "organisations": 9042,
      "electoral": 9043,
      "1940s": 9044,
      "cellular": 9045,
      "democrats": 9046,
      "preserve": 9047,
      "shorter": 9048,
      "astronomy": 9049,
      "ratings": 9050,
      "vulner": 9051,
      "entrance": 9052,
      "ecclesia": 9053,
      "entitled": 9054,
      "hid": 9055,
      "acking": 9056,
      "tras": 9057,
      "cargo": 9058,
      "covering": 9059,
      "constituted": 9060,
      "steve": 9061,
      "studying": 9062,
      "bandwidth": 9063,
      "difficulties": 9064,
      "reliable": 9065,
      "flowers": 9066,
      "electrons": 9067,
      "duration": 9068,
      "volumes": 9069,
      "pushed": 9070,
      "bone": 9071,
      "rna": 9072,
      "una": 9073,
      "veter": 9074,
      "heard": 9075,
      "ameter": 9076,
      "formats": 9077,
      "charity": 9078,
      "simon": 9079,
      "accounting": 9080,
      "magist": 9081,
      "1855": 9082,
      "marshal": 9083,
      "guards": 9084,
      "episode": 9085,
      "politicians": 9086,
      "kash": 9087,
      "lus": 9088,
      "zones": 9089,
      "recept": 9090,
      "devoted": 9091,
      "forbid": 9092,
      "pear": 9093,
      "loqu": 9094,
      "disrup": 9095,
      "ints": 9096,
      "wool": 9097,
      "scow": 9098,
      "singap": 9099,
      "bars": 9100,
      "handle": 9101,
      "promoting": 9102,
      "speeds": 9103,
      "giant": 9104,
      "consumers": 9105,
      "altitude": 9106,
      "diarrhea": 9107,
      "swaziland": 9108,
      "kno": 9109,
      "kpa": 9110,
      "yu": 9111,
      "omer": 9112,
      "cannon": 9113,
      "seeing": 9114,
      "variants": 9115,
      "categor": 9116,
      "comedy": 9117,
      "benefic": 9118,
      "%).": 9119,
      "fet": 9120,
      "othe": 9121,
      "theological": 9122,
      "rolled": 9123,
      "forth": 9124,
      "poles": 9125,
      "gran": 9126,
      "hotels": 9127,
      "specified": 9128,
      "traders": 9129,
      "swim": 9130,
      "1933": 9131,
      "southeastern": 9132,
      "descended": 9133,
      "peasants": 9134,
      "hurricane": 9135,
      "bund": 9136,
      "yong": 9137,
      "enthus": 9138,
      "agers": 9139,
      "marking": 9140,
      "ricket": 9141,
      "collections": 9142,
      "significance": 9143,
      "theoretical": 9144,
      "empirical": 9145,
      "dvd": 9146,
      "overwhelming": 9147,
      "bh": 9148,
      "kos": 9149,
      "yah": 9150,
      "stere": 9151,
      "itan": 9152,
      "uti": 9153,
      "viii": 9154,
      "struck": 9155,
      "scientist": 9156,
      "effectiveness": 9157,
      "gregor": 9158,
      "demands": 9159,
      "closing": 9160,
      "terrorism": 9161,
      "abstract": 9162,
      "bissau": 9163,
      "singapore": 9164,
      "hunt": 9165,
      "ür": 9166,
      "raise": 9167,
      "1924": 9168,
      "1921": 9169,
      "articles": 9170,
      "plates": 9171,
      "corn": 9172,
      "tribute": 9173,
      "absorption": 9174,
      "simplified": 9175,
      "pronounced": 9176,
      "poul": 9177,
      "rs": 9178,
      "aders": 9179,
      "imprison": 9180,
      "izations": 9181,
      "firms": 9182,
      "spend": 9183,
      "vedic": 9184,
      "clay": 9185,
      "advances": 9186,
      "everyone": 9187,
      "attributes": 9188,
      "cant": 9189,
      "gical": 9190,
      "ij": 9191,
      "alban": 9192,
      "civic": 9193,
      "etes": 9194,
      "boot": 9195,
      "reless": 9196,
      "systematic": 9197,
      "grades": 9198,
      "reaches": 9199,
      "demonstrations": 9200,
      "dimensions": 9201,
      "delivered": 9202,
      "inherited": 9203,
      "kang": 9204,
      "zeld": 9205,
      "seized": 9206,
      "uncertain": 9207,
      "idou": 9208,
      "genres": 9209,
      "hered": 9210,
      "venues": 9211,
      "destination": 9212,
      "temporarily": 9213,
      "enders": 9214,
      "contribute": 9215,
      "precise": 9216,
      "ignored": 9217,
      "remainder": 9218,
      "holder": 9219,
      "1908": 9220,
      "lieuten": 9221,
      "xxiii": 9222,
      "sudden": 9223,
      "ét": 9224,
      "admitted": 9225,
      "moscow": 9226,
      "pradesh": 9227,
      "newton": 9228,
      "interaction": 9229,
      "attending": 9230,
      "faction": 9231,
      "passive": 9232,
      "communicate": 9233,
      "accounted": 9234,
      "participants": 9235,
      "automat": 9236,
      "comprises": 9237,
      "umayyad": 9238,
      "ninth": 9239,
      "nutrients": 9240,
      "array": 9241,
      "accent": 9242,
      "hawa": 9243,
      "depicted": 9244,
      "helping": 9245,
      "iracial": 9246,
      "democrat": 9247,
      "solely": 9248,
      "qualified": 9249,
      "observation": 9250,
      "monasteries": 9251,
      "minimal": 9252,
      "babylon": 9253,
      "poultry": 9254,
      "bare": 9255,
      "enor": 9256,
      "enhan": 9257,
      "icing": 9258,
      "semic": 9259,
      "laure": 9260,
      "emble": 9261,
      "traces": 9262,
      "capability": 9263,
      "locke": 9264,
      "politically": 9265,
      "requiring": 9266,
      "namely": 9267,
      "federalism": 9268,
      "arabia": 9269,
      "predation": 9270,
      "saints": 9271,
      "honour": 9272,
      "wrestlers": 9273,
      "ladies": 9274,
      "zelda": 9275,
      "eating": 9276,
      "aside": 9277,
      "ascii": 9278,
      "traced": 9279,
      "tallest": 9280,
      "sunlight": 9281,
      "bonaparte": 9282,
      "housed": 9283,
      "bankrupt": 9284,
      "monument": 9285,
      "trigger": 9286,
      "evangelical": 9287,
      "pairs": 9288,
      "vital": 9289,
      "itative": 9290,
      "icks": 9291,
      "deities": 9292,
      "withdra": 9293,
      "withdraw": 9294,
      "shall": 9295,
      "endor": 9296,
      "periph": 9297,
      "easter": 9298,
      "kenned": 9299,
      "republicans": 9300,
      "migrants": 9301,
      "persia": 9302,
      "multiracial": 9303,
      "antiqu": 9304,
      "accessible": 9305,
      "storms": 9306,
      "pagan": 9307,
      "condemned": 9308,
      "diamond": 9309,
      "mughal": 9310,
      "boulevard": 9311,
      "pā": 9312,
      "enance": 9313,
      "whig": 9314,
      "det": 9315,
      "amin": 9316,
      "1923": 9317,
      "brun": 9318,
      "grey": 9319,
      "crash": 9320,
      "heres": 9321,
      "archbishop": 9322,
      "obvious": 9323,
      "equally": 9324,
      "drill": 9325,
      "victories": 9326,
      "definite": 9327,
      "commanded": 9328,
      "predict": 9329,
      "maintenance": 9330,
      "missionaries": 9331,
      "gaming": 9332,
      "hdtv": 9333,
      "congregations": 9334,
      "masonic": 9335,
      "vig": 9336,
      "orship": 9337,
      "unions": 9338,
      "unemployment": 9339,
      "iry": 9340,
      "ider": 9341,
      "provisions": 9342,
      "1916": 9343,
      "shops": 9344,
      "outstanding": 9345,
      "cosm": 9346,
      "owns": 9347,
      "restoration": 9348,
      "troph": 9349,
      "personality": 9350,
      "profound": 9351,
      "victorian": 9352,
      "1865": 9353,
      "1898": 9354,
      "gorbach": 9355,
      "obligations": 9356,
      "dynamic": 9357,
      "fierce": 9358,
      "transistor": 9359,
      "gorbachev": 9360,
      "swi": 9361,
      "desir": 9362,
      "cave": 9363,
      "rocks": 9364,
      "glas": 9365,
      "environments": 9366,
      "montini": 9367,
      "libraries": 9368,
      "consequences": 9369,
      "exploration": 9370,
      "stayed": 9371,
      "valleys": 9372,
      "clinton": 9373,
      "brick": 9374,
      "marines": 9375,
      "trib": 9376,
      "patrick": 9377,
      "refere": 9378,
      "wilson": 9379,
      "bulk": 9380,
      "regulatory": 9381,
      "halls": 9382,
      "transported": 9383,
      "genesis": 9384,
      "achievement": 9385,
      "saxony": 9386,
      "enemies": 9387,
      "aerial": 9388,
      "antioch": 9389,
      "cheng": 9390,
      "dea": 9391,
      "dee": 9392,
      "plot": 9393,
      "finland": 9394,
      "sanct": 9395,
      "instein": 9396,
      "vault": 9397,
      "wrong": 9398,
      "collegiate": 9399,
      "basilica": 9400,
      "kennedy": 9401,
      "bah": 9402,
      "mw": 9403,
      "uct": 9404,
      "anatom": 9405,
      "enroll": 9406,
      "dias": 9407,
      "wearing": 9408,
      "moderate": 9409,
      "collective": 9410,
      "institutes": 9411,
      "invade": 9412,
      "examination": 9413,
      "flows": 9414,
      "equipped": 9415,
      "demol": 9416,
      "knights": 9417,
      "withdrawal": 9418,
      "clif": 9419,
      "pum": 9420,
      "tension": 9421,
      "enzy": 9422,
      "alan": 9423,
      "escap": 9424,
      "1880": 9425,
      "brow": 9426,
      "config": 9427,
      "demonstration": 9428,
      "happen": 9429,
      "scored": 9430,
      "explicitly": 9431,
      "illustr": 9432,
      "].": 9433,
      "1928": 9434,
      "meters": 9435,
      "aked": 9436,
      "foundations": 9437,
      "delta": 9438,
      "posts": 9439,
      "benjam": 9440,
      "synthes": 9441,
      "supplied": 9442,
      "m2": 9443,
      "incent": 9444,
      "illi": 9445,
      "omination": 9446,
      "tera": 9447,
      "1860": 9448,
      "binding": 9449,
      "cypriot": 9450,
      "manuscripts": 9451,
      "dispute": 9452,
      "organs": 9453,
      "cinema": 9454,
      "semicon": 9455,
      "pages": 9456,
      "mocking": 9457,
      "sures": 9458,
      "loid": 9459,
      "iva": 9460,
      "consent": 9461,
[...]
