{
  "version": "1.0",
  "truncation": null,
  "padding": null,
  "added_tokens": [
    {
      "id": 0,
      "content": "[UNK]",
      "single_word": false,
      "lstrip": false,
      "rstrip": false,
      "normalized": false,
      "special": true
    },
    {
      "id": 1,
      "content": "[PAD]",
      "single_word": false,
      "lstrip": false,
      "rstrip": false,
      "normalized": false,
      "special": true
    },
    {
      "id": 2,
      "content": "[MASK]",
      "single_word": false,
      "lstrip": false,
      "rstrip": false,
      "normalized": false,
      "special": true
    },
    {
      "id": 3,
      "content": "[SOS]",
      "single_word": false,
      "lstrip": false,
      "rstrip": false,
      "normalized": false,
      "special": true
    },
    {
      "id": 4,
      "content": "[EOS]",
      "single_word": false,
      "lstrip": false,
      "rstrip": false,
      "normalized": false,
      "special": true
    },
    {
      "id": 5,
      "content": "[SEP]",
      "single_word": false,
      "lstrip": false,
      "rstrip": false,
      "normalized": false,
      "special": true
    }
  ],
  "normalizer": {
    "type": "Lowercase"
  },
  "pre_tokenizer": {
    "type": "Whitespace"
  },
  "post_processor": {
    "type": "TemplateProcessing",
    "single": [
      {
        "SpecialToken": {
          "id": "[SOS]",
          "type_id": 0
        }
      },
      {
        "Sequence": {
          "id": "A",
          "type_id": 0
        }
      },
      {
        "SpecialToken": {
          "id": "[EOS]",
          "type_id": 0
        }
      }
    ],
    "pair": [
      {
        "SpecialToken": {
          "id": "[SOS]",
          "type_id": 0
        }
      },
      {
        "Sequence": {
          "id": "A",
          "type_id": 0
        }
      },
      {
        "SpecialToken": {
          "id": "[SEP]",
          "type_id": 0
        }
      },
      {
        "Sequence": {
          "id": "B",
          "type_id": 0
        }
      },
      {
        "SpecialToken": {
          "id": "[EOS]",
          "type_id": 0
        }
      }
    ],
    "special_tokens": {
      "[EOS]": {
        "id": "[EOS]",
        "ids": [
          4
        ],
        "tokens": [
          "[EOS]"
        ]
      },
      "[SEP]": {
        "id": "[SEP]",
        "ids": [
          5
        ],
        "tokens": [
          "[SEP]"
        ]
      },
      "[SOS]": {
        "id": "[SOS]",
        "ids": [
          3
        ],
        "tokens": [
          "[SOS]"
        ]
      }
    }
  },
  "decoder": {
    "type": "BPEDecoder",
    "suffix": "##"
  },
  "model": {
    "type": "BPE",
    "dropout": null,
    "unk_token": "[UNK]",
    "continuing_subword_prefix": null,
    "end_of_word_suffix": "##",
    "fuse_unk": false,
    "byte_fallback": false,
    "ignore_merges": false,
    "vocab": {
      "[UNK]": 0,
      "[PAD]": 1,
      "[MASK]": 2,
      "[SOS]": 3,
      "[EOS]": 4,
      "[SEP]": 5,
      "!": 6,
      "\"": 7,
      "#": 8,
      "$": 9,
      "%": 10,
      "&": 11,
      "'": 12,
      "(": 13,
      ")": 14,
      "*": 15,
      "+": 16,
      ",": 17,
      "-": 18,
      ".": 19,
      "/": 20,
      "0": 21,
      "1": 22,
      "2": 23,
      "3": 24,
      "4": 25,
      "5": 26,
      "6": 27,
      "7": 28,
      "8": 29,
      "9": 30,
      ":": 31,
      ";": 32,
      "<": 33,
      "=": 34,
      ">": 35,
      "?": 36,
      "@": 37,
      "[": 38,
      "]": 39,
      "^": 40,
      "_": 41,
      "`": 42,
      "a": 43,
      "b": 44,
      "c": 45,
      "d": 46,
      "e": 47,
      "f": 48,
      "g": 49,
      "h": 50,
      "i": 51,
      "j": 52,
      "k": 53,
      "l": 54,
      "m": 55,
      "n": 56,
      "o": 57,
      "p": 58,
      "q": 59,
      "r": 60,
      "s": 61,
      "t": 62,
      "u": 63,
      "v": 64,
      "w": 65,
      "x": 66,
      "y": 67,
      "z": 68,
      "{": 69,
      "|": 70,
      "}": 71,
      "~": 72,
      "¡": 73,
      "¢": 74,
      "£": 75,
      "¥": 76,
      "§": 77,
      "°": 78,
      "±": 79,
      "²": 80,
      "´": 81,
      "µ": 82,
      "¶": 83,
      "·": 84,
      "¼": 85,
      "½": 86,
      "¿": 87,
      "×": 88,
      "ß": 89,
      "à": 90,
      "á": 91,
      "â": 92,
      "ã": 93,
      "ä": 94,
      "å": 95,
      "æ": 96,
      "ç": 97,
      "è": 98,
      "é": 99,
      "ê": 100,
      "ë": 101,
      "ì": 102,
      "í": 103,
      "î": 104,
      "ï": 105,
      "ð": 106,
      "ñ": 107,
      "ò": 108,
      "ó": 109,
      "ô": 110,
      "õ": 111,
      "ö": 112,
      "÷": 113,
      "ø": 114,
      "ù": 115,
      "ú": 116,
      "û": 117,
      "ü": 118,
      "ý": 119,
      "þ": 120,
      "ÿ": 121,
      "ā": 122,
      "ă": 123,
      "ą": 124,
      "ć": 125,
      "ċ": 126,
      "č": 127,
      "ď": 128,
      "đ": 129,
      "ē": 130,
      "ė": 131,
      "ę": 132,
      "ě": 133,
      "ĝ": 134,
      "ğ": 135,
      "ġ": 136,
      "ħ": 137,
      "ī": 138,
      "ĭ": 139,
      "ı": 140,
      "ļ": 141,
      "ł": 142,
      "ń": 143,
      "ņ": 144,
      "ň": 145,
      "ŋ": 146,
      "ō": 147,
      "ŏ": 148,
      "ő": 149,
      "œ": 150,
      "ř": 151,
      "ś": 152,
      "ş": 153,
      "š": 154,
      "ţ": 155,
      "ť": 156,
      "ũ": 157,
      "ū": 158,
      "ŭ": 159,
      "ů": 160,
      "ŵ": 161,
      "ź": 162,
      "ż": 163,
      "ž": 164,
      "ơ": 165,
      "ư": 166,
      "ƿ": 167,
      "ǀ": 168,
      "ǁ": 169,
      "ǂ": 170,
      "ǃ": 171,
      "ǎ": 172,
      "ǐ": 173,
      "ǒ": 174,
      "ǔ": 175,
      "ǚ": 176,
      "ǜ": 177,
      "ǥ": 178,
      "ǵ": 179,
      "ș": 180,
      "ț": 181,
      "ɐ": 182,
      "ɑ": 183,
      "ɒ": 184,
      "ɔ": 185,
      "ɕ": 186,
      "ɖ": 187,
      "ə": 188,
      "ɛ": 189,
      "ɜ": 190,
      "ɡ": 191,
      "ɢ": 192,
      "ɣ": 193,
      "ɤ": 194,
      "ɥ": 195,
      "ɦ": 196,
      "ɨ": 197,
      "ɪ": 198,
      "ɫ": 199,
      "ɭ": 200,
      "ɯ": 201,
      "ɳ": 202,
      "ɵ": 203,
      "ɸ": 204,
      "ɹ": 205,
      "ɾ": 206,
      "ʀ": 207,
      "ʁ": 208,
      "ʂ": 209,
      "ʃ": 210,
      "ʈ": 211,
      "ʊ": 212,
      "ʌ": 213,
      "ʎ": 214,
      "ʏ": 215,
      "ʒ": 216,
      "ʔ": 217,
      "ʕ": 218,
      "ʘ": 219,
      "ʰ": 220,
      "ʱ": 221,
      "ʲ": 222,
      "ʷ": 223,
      "ʻ": 224,
      "ʼ": 225,
      "ʾ": 226,
      "ʿ": 227,
      "ˀ": 228,
      "ˇ": 229,
      "ˈ": 230,
      "ˌ": 231,
      "ː": 232,
      "ˑ": 233,
      "˚": 234,
      "ˤ": 235,
      "˥": 236,
      "˧": 237,
      "˨": 238,
      "˩": 239,
      "˭": 240,
      "̀": 241,
      "́": 242,
      "̃": 243,
      "̄": 244,
      "̇": 245,
      "̌": 246,
      "̍": 247,
      "̞": 248,
      "̠": 249,
      "̤": 250,
      "̥": 251,
      "̧": 252,
      "̩": 253,
      "̪": 254,
      "̯": 255,
      "͡": 256,
      "ά": 257,
      "έ": 258,
      "ή": 259,
      "ί": 260,
      "α": 261,
      "β": 262,
      "γ": 263,
      "δ": 264,
      "ε": 265,
      "ζ": 266,
      "η": 267,
      "θ": 268,
      "ι": 269,
      "κ": 270,
      "λ": 271,
      "μ": 272,
      "ν": 273,
      "ξ": 274,
      "ο": 275,
      "π": 276,
      "ρ": 277,
      "ς": 278,
      "σ": 279,
      "τ": 280,
      "υ": 281,
      "φ": 282,
      "χ": 283,
      "ψ": 284,
      "ω": 285,
      "ό": 286,
      "ύ": 287,
      "ώ": 288,
      "а": 289,
      "б": 290,
      "в": 291,
      "г": 292,
      "д": 293,
      "е": 294,
      "ж": 295,
      "з": 296,
      "и": 297,
      "й": 298,
      "к": 299,
      "л": 300,
      "м": 301,
      "н": 302,
      "о": 303,
      "п": 304,
      "р": 305,
      "с": 306,
      "т": 307,
      "у": 308,
      "ф": 309,
      "х": 310,
      "ц": 311,
      "ч": 312,
      "ш": 313,
      "щ": 314,
      "ъ": 315,
      "ы": 316,
      "ь": 317,
      "э": 318,
      "ю": 319,
      "я": 320,
      "ё": 321,
      "є": 322,
      "і": 323,
      "ї": 324,
      "ј": 325,
      "ў": 326,
      "ѣ": 327,
      "ѧ": 328,
      "ѩ": 329,
      "ѫ": 330,
      "ѭ": 331,
      "ѳ": 332,
      "ѵ": 333,
      "ҳ": 334,
      "ҷ": 335,
      "ա": 336,
      "բ": 337,
      "ի": 338,
      "լ": 339,
      "կ": 340,
      "հ": 341,
      "յ": 342,
      "ն": 343,
      "պ": 344,
      "ս": 345,
      "տ": 346,
      "ր": 347,
      "ց": 348,
      "ְ": 349,
      "ִ": 350,
      "ֵ": 351,
      "ַ": 352,
      "ָ": 353,
      "ֹ": 354,
      "ּ": 355,
      "ֿ": 356,
      "ׁ": 357,
      "ׂ": 358,
      "א": 359,
      "ב": 360,
      "ג": 361,
      "ד": 362,
      "ה": 363,
      "ו": 364,
      "ז": 365,
      "ח": 366,
      "ט": 367,
      "י": 368,
      "ך": 369,
      "ל": 370,
      "ם": 371,
      "מ": 372,
      "ן": 373,
      "נ": 374,
      "ס": 375,
      "ע": 376,
      "פ": 377,
      "ץ": 378,
      "צ": 379,
      "ק": 380,
      "ר": 381,
      "ש": 382,
      "ת": 383,
      "ײ": 384,
      "ء": 385,
      "أ": 386,
      "إ": 387,
      "ئ": 388,
      "ا": 389,
      "ب": 390,
      "ة": 391,
      "ت": 392,
      "ث": 393,
      "ج": 394,
      "ح": 395,
      "خ": 396,
      "د": 397,
      "ذ": 398,
      "ر": 399,
      "س": 400,
      "ش": 401,
      "ص": 402,
      "ض": 403,
      "ظ": 404,
      "ع": 405,
      "ـ": 406,
      "ف": 407,
      "ق": 408,
      "ك": 409,
      "ل": 410,
      "م": 411,
      "ن": 412,
      "ه": 413,
      "و": 414,
      "ى": 415,
      "ي": 416,
      "ٍ": 417,
      "َ": 418,
      "ُ": 419,
      "ِ": 420,
      "ّ": 421,
      "ْ": 422,
      "ٔ": 423,
      "پ": 424,
      "گ": 425,
      "ی": 426,
      "ܐ": 427,
      "ܝ": 428,
      "ܢ": 429,
      "ܩ": 430,
      "ܪ": 431,
      "ः": 432,
      "आ": 433,
      "ई": 434,
      "क": 435,
      "ख": 436,
      "ग": 437,
      "ठ": 438,
      "ड": 439,
      "ण": 440,
      "त": 441,
      "द": 442,
      "ध": 443,
      "न": 444,
      "प": 445,
      "ब": 446,
      "म": 447,
      "य": 448,
      "र": 449,
      "ष": 450,
      "स": 451,
      "ा": 452,
      "ि": 453,
      "ु": 454,
      "ॊ": 455,
      "्": 456,
      "জ": 457,
      "প": 458,
      "ম": 459,
      "য": 460,
      "র": 461,
      "ল": 462,
      "স": 463,
      "া": 464,
      "্": 465,
      "ಕ": 466,
      "ಚ": 467,
      "ಜ": 468,
      "ಪ": 469,
      "ಮ": 470,
      "ಯ": 471,
      "ರ": 472,
      "ಲ": 473,
      "ಶ": 474,
      "ಸ": 475,
      "ಾ": 476,
      "ಿ": 477,
      "ು": 478,
      "್": 479,
      "ข": 480,
      "ง": 481,
      "ด": 482,
      "น": 483,
      "ม": 484,
      "ย": 485,
      "ร": 486,
      "ล": 487,
      "ว": 488,
      "ศ": 489,
      "ส": 490,
      "อ": 491,
      "า": 492,
      "ิ": 493,
      "ี": 494,
      "เ": 495,
      "แ": 496,
      "โ": 497,
      "ใ": 498,
      "ไ": 499,
      "་": 500,
      "ད": 501,
      "བ": 502,
      "ོ": 503,
      "န": 504,
      "သ": 505,
      "ာ": 506,
      "း": 507,
      "ሂ": 508,
      "ላ": 509,
      "ሪ": 510,
      "ሻ": 511,
      "ቡ": 512,
      "ታ": 513,
      "ን": 514,
      "ᏹ": 515,
      "ᵻ": 516,
      "ᶢ": 517,
      "ḍ": 518,
      "ḗ": 519,
      "ḥ": 520,
      "ḱ": 521,
      "ḷ": 522,
      "ṃ": 523,
      "ṅ": 524,
      "ṇ": 525,
      "ṛ": 526,
      "ṣ": 527,
      "ṭ": 528,
      "ẓ": 529,
      "ả": 530,
      "ấ": 531,
      "ế": 532,
      "ề": 533,
      "ễ": 534,
      "ỉ": 535,
      "ố": 536,
      "ồ": 537,
      "ớ": 538,
      "ờ": 539,
      "ụ": 540,
      "ử": 541,
      "ữ": 542,
      "ἀ": 543,
      "ἁ": 544,
      "ἄ": 545,
      "ἐ": 546,
      "ἑ": 547,
      "ἔ": 548,
      "ἡ": 549,
      "ἥ": 550,
      "ἰ": 551,
      "ἱ": 552,
      "ἴ": 553,
      "ἵ": 554,
      "ἶ": 555,
      "ὀ": 556,
      "ὐ": 557,
      "ὑ": 558,
      "ὠ": 559,
      "ὰ": 560,
      "ὲ": 561,
      "ὶ": 562,
      "ὸ": 563,
      "ῆ": 564,
      "ῖ": 565,
      "ῦ": 566,
      "ῶ": 567,
      "​": 568,
      "‌": 569,
      "‍": 570,
      "‎": 571,
      "‑": 572,
      "–": 573,
      "—": 574,
      "‘": 575,
      "’": 576,
      "‚": 577,
      "“": 578,
      "”": 579,
      "•": 580,
      "…": 581,
      "′": 582,
      "″": 583,
      "›": 584,
      "⁄": 585,
      "⁊": 586,
      "₂": 587,
      "₤": 588,
      "₥": 589,
      "€": 590,
      "₯": 591,
      "₹": 592,
      "№": 593,
      "ℛ": 594,
      "⅓": 595,
      "→": 596,
      "∅": 597,
      "∈": 598,
      "−": 599,
      "∖": 600,
      "∗": 601,
      "√": 602,
      "∝": 603,
      "≈": 604,
      "≡": 605,
      "≥": 606,
      "⋅": 607,
      "◌": 608,
      "♆": 609,
      "♠": 610,
      "♯": 611,
      "❤": 612,
      "⟨": 613,
      "⟩": 614,
      "ⲏ": 615,
      "ⲓ": 616,
      "ⲙ": 617,
      "ⲭ": 618,
      "。": 619,
      "《": 620,
      "》": 621,
      "〜": 622,
      "い": 623,
      "さ": 624,
      "た": 625,
      "つ": 626,
      "て": 627,
      "の": 628,
      "は": 629,
      "ひ": 630,
      "ふ": 631,
      "ぶ": 632,
      "む": 633,
      "ら": 634,
      "り": 635,
      "る": 636,
      "ろ": 637,
      "ァ": 638,
      "イ": 639,
      "カ": 640,
      "キ": 641,
      "ク": 642,
      "グ": 643,
      "コ": 644,
      "シ": 645,
      "ジ": 646,
      "ス": 647,
      "セ": 648,
      "ゼ": 649,
      "タ": 650,
      "ダ": 651,
      "チ": 652,
      "ッ": 653,
      "デ": 654,
      "ト": 655,
      "パ": 656,
      "ピ": 657,
      "フ": 658,
      "プ": 659,
      "マ": 660,
      "ミ": 661,
      "メ": 662,
      "モ": 663,
      "ャ": 664,
      "ュ": 665,
      "ラ": 666,
      "リ": 667,
      "ル": 668,
      "レ": 669,
      "ロ": 670,
      "ワ": 671,
      "ン": 672,
      "ー": 673,
      "㓾": 674,
      "丁": 675,
      "七": 676,
      "三": 677,
      "上": 678,
      "下": 679,
      "不": 680,
      "业": 681,
      "东": 682,
      "中": 683,
      "丹": 684,
      "主": 685,
      "义": 686,
      "之": 687,
      "书": 688,
      "争": 689,
      "事": 690,
      "二": 691,
      "云": 692,
      "五": 693,
      "亜": 694,
      "产": 695,
      "京": 696,
      "人": 697,
      "今": 698,
      "介": 699,
      "仔": 700,
      "仕": 701,
      "他": 702,
      "代": 703,
      "仪": 704,
      "伐": 705,
      "会": 706,
      "伝": 707,
      "伯": 708,
      "佐": 709,
      "体": 710,
      "何": 711,
      "佬": 712,
      "來": 713,
      "侍": 714,
      "俄": 715,
      "信": 716,
      "候": 717,
      "像": 718,
      "元": 719,
      "先": 720,
      "光": 721,
      "克": 722,
      "免": 723,
      "入": 724,
      "八": 725,
      "公": 726,
      "兵": 727,
      "典": 728,
      "冶": 729,
      "凹": 730,
      "分": 731,
      "切": 732,
      "刘": 733,
      "利": 734,
      "制": 735,
      "前": 736,
      "剎": 737,
      "剑": 738,
      "劇": 739,
      "劉": 740,
      "力": 741,
      "动": 742,
      "包": 743,
      "北": 744,
      "匠": 745,
      "区": 746,
      "十": 747,
      "千": 748,
      "卅": 749,
      "卌": 750,
      "南": 751,
      "博": 752,
      "卫": 753,
      "印": 754,
      "厘": 755,
      "又": 756,
      "双": 757,
      "发": 758,
      "受": 759,
      "叠": 760,
      "口": 761,
      "古": 762,
      "只": 763,
      "可": 764,
      "司": 765,
      "合": 766,
      "吉": 767,
      "后": 768,
      "吐": 769,
      "呣": 770,
      "呷": 771,
      "咊": 772,
      "和": 773,
      "唐": 774,
      "唔": 775,
      "問": 776,
      "喜": 777,
      "囍": 778,
      "四": 779,
      "団": 780,
      "国": 781,
      "图": 782,
      "國": 783,
      "圕": 784,
      "圖": 785,
      "土": 786,
      "地": 787,
      "块": 788,
      "坤": 789,
      "坪": 790,
      "城": 791,
      "域": 792,
      "埠": 793,
      "基": 794,
      "堂": 795,
      "塊": 796,
      "境": 797,
      "士": 798,
      "変": 799,
      "复": 800,
      "大": 801,
      "天": 802,
      "夷": 803,
      "奉": 804,
      "奐": 805,
      "女": 806,
      "奴": 807,
      "她": 808,
      "妹": 809,
      "婎": 810,
      "媠": 811,
      "子": 812,
      "字": 813,
      "学": 814,
      "宁": 815,
      "它": 816,
      "宇": 817,
      "守": 818,
      "安": 819,
      "宗": 820,
      "家": 821,
      "寧": 822,
      "審": 823,
      "对": 824,
      "导": 825,
      "将": 826,
      "尉": 827,
      "導": 828,
      "小": 829,
      "島": 830,
      "川": 831,
      "州": 832,
      "巡": 833,
      "工": 834,
      "巴": 835,
      "布": 836,
      "帝": 837,
      "帥": 838,
      "師": 839,
      "常": 840,
      "平": 841,
      "庁": 842,
      "庆": 843,
      "库": 844,
      "府": 845,
      "庫": 846,
      "康": 847,
      "廚": 848,
      "廷": 849,
      "建": 850,
      "廿": 851,
      "开": 852,
      "弘": 853,
      "張": 854,
      "当": 855,
      "征": 856,
      "後": 857,
      "徒": 858,
      "從": 859,
      "御": 860,
      "忒": 861,
      "思": 862,
      "总": 863,
      "恢": 864,
      "息": 865,
      "惡": 866,
      "惰": 867,
      "愛": 868,
      "憂": 869,
      "懸": 870,
      "成": 871,
      "战": 872,
      "戦": 873,
      "戰": 874,
      "手": 875,
      "才": 876,
      "批": 877,
      "技": 878,
      "把": 879,
      "抗": 880,
      "折": 881,
      "拉": 882,
      "拿": 883,
      "按": 884,
      "挑": 885,
      "捨": 886,
      "提": 887,
      "援": 888,
      "撫": 889,
      "支": 890,
      "政": 891,
      "教": 892,
      "文": 893,
      "斗": 894,
      "斬": 895,
      "斯": 896,
      "新": 897,
      "方": 898,
      "於": 899,
      "族": 900,
      "日": 901,
      "旧": 902,
      "昇": 903,
      "明": 904,
      "星": 905,
      "時": 906,
      "普": 907,
      "曲": 908,
      "書": 909,
      "曹": 910,
      "替": 911,
      "月": 912,
      "有": 913,
      "朝": 914,
      "木": 915,
      "术": 916,
      "朱": 917,
      "李": 918,
      "杜": 919,
      "来": 920,
      "杭": 921,
      "東": 922,
      "杷": 923,
      "松": 924,
      "枇": 925,
      "林": 926,
      "校": 927,
      "案": 928,
      "桓": 929,
      "楊": 930,
      "業": 931,
      "槐": 932,
      "様": 933,
      "樂": 934,
      "標": 935,
      "檀": 936,
      "次": 937,
      "歌": 938,
      "武": 939,
      "毋": 940,
      "比": 941,
      "民": 942,
      "水": 943,
      "氵": 944,
      "汉": 945,
      "江": 946,
      "汶": 947,
      "沐": 948,
      "沖": 949,
      "河": 950,
      "泉": 951,
      "法": 952,
      "泥": 953,
      "洞": 954,
      "洲": 955,
      "流": 956,
      "济": 957,
      "浙": 958,
      "浦": 959,
      "海": 960,
      "淨": 961,
      "淮": 962,
      "清": 963,
      "済": 964,
      "渣": 965,
      "渤": 966,
      "湖": 967,
      "準": 968,
      "滑": 969,
      "漢": 970,
      "漳": 971,
      "潮": 972,
      "澄": 973,
      "火": 974,
      "灾": 975,
      "炉": 976,
      "烏": 977,
      "爭": 978,
      "爱": 979,
      "父": 980,
      "片": 981,
      "牠": 982,
      "特": 983,
      "献": 984,
      "獻": 985,
      "王": 986,
      "现": 987,
      "珊": 988,
      "理": 989,
      "琵": 990,
      "琶": 991,
      "瑚": 992,
      "瓦": 993,
      "瓩": 994,
      "用": 995,
      "甫": 996,
      "田": 997,
      "番": 998,
      "異": 999,
      "白": 1000,
      "的": 1001,
      "皆": 1002,
      "皇": 1003,
      "盛": 1004,
      "督": 1005,
      "知": 1006,
      "石": 1007,
      "礻": 1008,
      "社": 1009,
      "祂": 1010,
      "祐": 1011,
      "神": 1012,
      "禅": 1013,
      "福": 1014,
      "秀": 1015,
      "秣": 1016,
      "程": 1017,
      "竜": 1018,
      "章": 1019,
      "竹": 1020,
      "節": 1021,
      "篆": 1022,
      "籲": 1023,
      "米": 1024,
      "粁": 1025,
      "糎": 1026,
      "系": 1027,
      "約": 1028,
      "紅": 1029,
      "紐": 1030,
      "紫": 1031,
      "紹": 1032,
      "統": 1033,
      "綠": 1034,
      "維": 1035,
      "総": 1036,
      "緑": 1037,
      "緣": 1038,
      "緩": 1039,
      "縣": 1040,
      "總": 1041,
      "織": 1042,
      "红": 1043,
      "绍": 1044,
      "经": 1045,
      "统": 1046,
      "维": 1047,
      "美": 1048,
      "義": 1049,
      "羽": 1050,
      "習": 1051,
      "考": 1052,
      "耶": 1053,
      "耿": 1054,
      "肉": 1055,
      "胡": 1056,
      "腐": 1057,
      "腹": 1058,
      "膺": 1059,
      "臣": 1060,
      "臨": 1061,
      "興": 1062,
      "舍": 1063,
      "航": 1064,
      "船": 1065,
      "良": 1066,
      "节": 1067,
      "苏": 1068,
      "苗": 1069,
      "英": 1070,
      "草": 1071,
      "菩": 1072,
      "華": 1073,
      "萨": 1074,
      "蒲": 1075,
      "蕃": 1076,
      "薩": 1077,
      "藍": 1078,
      "藏": 1079,
      "藩": 1080,
      "虫": 1081,
      "蜀": 1082,
      "蝴": 1083,
      "蝶": 1084,
      "衛": 1085,
      "表": 1086,
      "西": 1087,
      "覆": 1088,
      "見": 1089,
      "親": 1090,
      "言": 1091,
      "詞": 1092,
      "試": 1093,
      "話": 1094,
      "語": 1095,
      "説": 1096,
      "議": 1097,
      "讀": 1098,
      "让": 1099,
      "试": 1100,
      "话": 1101,
      "语": 1102,
      "豆": 1103,
      "豊": 1104,
      "豔": 1105,
      "起": 1106,
      "越": 1107,
      "趙": 1108,
      "軍": 1109,
      "通": 1110,
      "逸": 1111,
      "過": 1112,
      "道": 1113,
      "邑": 1114,
      "那": 1115,
      "郎": 1116,
      "部": 1117,
      "都": 1118,
      "鄴": 1119,
      "釁": 1120,
      "重": 1121,
      "金": 1122,
      "針": 1123,
      "銖": 1124,
      "鋪": 1125,
      "铺": 1126,
      "長": 1127,
      "长": 1128,
      "門": 1129,
      "閏": 1130,
      "閩": 1131,
      "關": 1132,
      "门": 1133,
      "问": 1134,
      "闽": 1135,
      "陋": 1136,
      "院": 1137,
      "陳": 1138,
      "陵": 1139,
      "陽": 1140,
      "隶": 1141,
      "隸": 1142,
      "集": 1143,
      "雍": 1144,
      "雙": 1145,
      "雨": 1146,
      "雲": 1147,
      "震": 1148,
      "青": 1149,
      "韓": 1150,
      "韩": 1151,
      "音": 1152,
      "頓": 1153,
      "題": 1154,
      "顯": 1155,
      "顿": 1156,
      "题": 1157,
      "风": 1158,
      "食": 1159,
      "館": 1160,
      "騷": 1161,
      "驗": 1162,
      "验": 1163,
      "體": 1164,
      "高": 1165,
      "鬱": 1166,
      "魂": 1167,
      "魄": 1168,
      "魏": 1169,
      "鮮": 1170,
      "鱻": 1171,
      "鲁": 1172,
      "鲜": 1173,
      "齉": 1174,
      "龍": 1175,
      "龘": 1176,
      "龢": 1177,
      "ꀕ": 1178,
      "ꜣ": 1179,
      "ꭰ": 1180,
      "ꭳ": 1181,
      "ꭶ": 1182,
      "ꭸ": 1183,
      "ꭹ": 1184,
      "ꮀ": 1185,
      "ꮃ": 1186,
      "ꮉ": 1187,
      "ꮎ": 1188,
      "ꮝ": 1189,
      "ꮟ": 1190,
      "ꮤ": 1191,
      "ꮿ": 1192,
      "고": 1193,
      "교": 1194,
      "국": 1195,
      "그": 1196,
      "기": 1197,
      "나": 1198,
      "대": 1199,
      "도": 1200,
      "독": 1201,
      "동": 1202,
      "라": 1203,
      "람": 1204,
      "래": 1205,
      "려": 1206,
      "로": 1207,
      "름": 1208,
      "리": 1209,
      "물": 1210,
      "방": 1211,
      "보": 1212,
      "부": 1213,
      "비": 1214,
      "사": 1215,
      "선": 1216,
      "소": 1217,
      "수": 1218,
      "슈": 1219,
      "스": 1220,
      "신": 1221,
      "아": 1222,
      "예": 1223,
      "을": 1224,
      "이": 1225,
      "인": 1226,
      "작": 1227,
      "장": 1228,
      "쟁": 1229,
      "전": 1230,
      "조": 1231,
      "족": 1232,
      "컴": 1233,
      "큰": 1234,
      "통": 1235,
      "파": 1236,
      "퍼": 1237,
      "하": 1238,
      "한": 1239,
      "합": 1240,
      "해": 1241,
      "현": 1242,
      "회": 1243,
      "ﬁ": 1244,
      "ﬂ": 1245,
      "︘": 1246,
      "﻿": 1247,
      "，": 1248,
      "～": 1249,
      "�": 1250,
      "𐀊": 1251,
      "𐀍": 1252,
      "𐀚": 1253,
      "𐀞": 1254,
      "𒂵": 1255,
      "𒄑": 1256,
      "𒆳": 1257,
      "𒈪": 1258,
      "𒊒": 1259,
      "𒊕": 1260,
      "𒌦": 1261,
      "𠔻": 1262,
      "𪚥": 1263,
      "𪜶": 1264,
      "c##": 1265,
      "s##": 1266,
      "a##": 1267,
      "e##": 1268,
      "n##": 1269,
      "⅓##": 1270,
      "r##": 1271,
      "d##": 1272,
      "b##": 1273,
      "g##": 1274,
      "y##": 1275,
      "f##": 1276,
      "t##": 1277,
      "0##": 1278,
      "p##": 1279,
      "j##": 1280,
      "й##": 1281,
      "o##": 1282,
      ",##": 1283,
      "i##": 1284,
      "k##": 1285,
      "h##": 1286,
      "朝##": 1287,
      "m##": 1288,
      "l##": 1289,
      "説##": 1290,
      "파##": 1291,
      "é##": 1292,
      "v##": 1293,
      "5##": 1294,
      "í##": 1295,
      "8##": 1296,
      "u##": 1297,
      "ì##": 1298,
      "京##": 1299,
      ")##": 1300,
      "2##": 1301,
      "6##": 1302,
      "x##": 1303,
      "1##": 1304,
      "9##": 1305,
      "ə##": 1306,
      ":##": 1307,
      "毋##": 1308,
      "z##": 1309,
      ">##": 1310,
      "木##": 1311,
      "3##": 1312,
      "7##": 1313,
      "\"##": 1314,
      "/##": 1315,
      "糎##": 1316,
      "4##": 1317,
      "ú##": 1318,
      "‎##": 1319,
      "ồ##": 1320,
      ".##": 1321,
      "ū##": 1322,
      "w##": 1323,
      "ʾ##": 1324,
      "ʃ##": 1325,
      "ر##": 1326,
      "媠##": 1327,
      "ļ##": 1328,
      "è##": 1329,
      "-##": 1330,
      "물##": 1331,
      "区##": 1332,
      "ة##": 1333,
      "ě##": 1334,
      "ת##": 1335,
      "q##": 1336,
      "语##": 1337,
      "‘##": 1338,
      "ů##": 1339,
      "宇##": 1340,
      "ъ##": 1341,
      "ī##": 1342,
      "月##": 1343,
      "α##": 1344,
      "á##": 1345,
      "ā##": 1346,
      "ε##": 1347,
      "ň##": 1348,
      "ή##": 1349,
      "ɑ##": 1350,
      "ɐ##": 1351,
      "ς##": 1352,
      "र##": 1353,
      "ş##": 1354,
      "о##": 1355,
      "[##": 1356,
      "ź##": 1357,
      "它##": 1358,
      "'##": 1359,
      "ü##": 1360,
      "閏##": 1361,
      "話##": 1362,
      "н##": 1363,
      "*##": 1364,
      "]##": 1365,
      "桓##": 1366,
      "ɾ##": 1367,
      "ю##": 1368,
      "з##": 1369,
      "י##": 1370,
      "š##": 1371,
      "战##": 1372,
      "ί##": 1373,
      "ἀ##": 1374,
      "紅##": 1375,
      "ὰ##": 1376,
      "龘##": 1377,
      "字##": 1378,
      "%##": 1379,
      "ʼ##": 1380,
      "–##": 1381,
      "−##": 1382,
      "с##": 1383,
      "ē##": 1384,
      "ν##": 1385,
      "ь##": 1386,
      "ý##": 1387,
      "ふ##": 1388,
      "ц##": 1389,
      "?##": 1390,
      "伐##": 1391,
      "ć##": 1392,
      "ى##": 1393,
      "ʰ##": 1394,
      "름##": 1395,
      "ख##": 1396,
      "ḗ##": 1397,
      "ō##": 1398,
      "来##": 1399,
      "и##": 1400,
      "神##": 1401,
      "門##": 1402,
      "η##": 1403,
      "ի##": 1404,
      "王##": 1405,
      "ó##": 1406,
      ";##": 1407,
      "ː##": 1408,
      "齉##": 1409,
      "μ##": 1410,
      "à##": 1411,
      "和##": 1412,
      "人##": 1413,
      "ö##": 1414,
      "ল##": 1415,
      "釁##": 1416,
      "埠##": 1417,
      "十##": 1418,
      "î##": 1419,
      "ሂ##": 1420,
      "ŭ##": 1421,
      "δ##": 1422,
      "е##": 1423,
      "́##": 1424,
      "ו##": 1425,
      "…##": 1426,
      "祂##": 1427,
      "$##": 1428,
      "а##": 1429,
      "ι##": 1430,
      "星##": 1431,
      "婎##": 1432,
      "顿##": 1433,
      "义##": 1434,
      "藏##": 1435,
      "п##": 1436,
      "ὶ##": 1437,
      "‑##": 1438,
      "յ##": 1439,
      "к##": 1440,
      "ɪ##": 1441,
      "”##": 1442,
      "γ##": 1443,
      "###": 1444,
      "č##": 1445,
      "ρ##": 1446,
      "光##": 1447,
      "鄴##": 1448,
      "⁄##": 1449,
      "漢##": 1450,
      "ɫ##": 1451,
      "æ##": 1452,
      "υ##": 1453,
      "ז##": 1454,
      "ך##": 1455,
      "案##": 1456,
      "南##": 1457,
      "顯##": 1458,
      "献##": 1459,
      "ǐ##": 1460,
      "비##": 1461,
      "ን##": 1462,
      "م##": 1463,
      "境##": 1464,
      "軍##": 1465,
      "ë##": 1466,
      "徒##": 1467,
      "鱻##": 1468,
      "ʁ##": 1469,
      "¢##": 1470,
      "ẓ##": 1471,
      "س##": 1472,
      "ù##": 1473,
      "°##": 1474,
      "語##": 1475,
      "у##": 1476,
      "ä##": 1477,
      "я##": 1478,
      "番##": 1479,
      "ω##": 1480,
      "折##": 1481,
      "ष##": 1482,
      "р##": 1483,
      "ِ##": 1484,
      "劇##": 1485,
      "家##": 1486,
      "—##": 1487,
      "수##": 1488,
      "江##": 1489,
      "ʊ##": 1490,
      "松##": 1491,
      "他##": 1492,
      "‍##": 1493,
      "魏##": 1494,
      "د##": 1495,
      "業##": 1496,
      "ب##": 1497,
      "分##": 1498,
      "鮮##": 1499,
      "ﬂ##": 1500,
      "λ##": 1501,
      "㓾##": 1502,
      "綠##": 1503,
      "ê##": 1504,
      "青##": 1505,
      "來##": 1506,
      "ǔ##": 1507,
      "樂##": 1508,
      "タ##": 1509,
      "л##": 1510,
      "ن##": 1511,
      "章##": 1512,
      "门##": 1513,
      "族##": 1514,
      "士##": 1515,
      "ń##": 1516,
      "草##": 1517,
      "西##": 1518,
      "ɸ##": 1519,
      "ン##": 1520,
      "ي##": 1521,
      "土##": 1522,
      "免##": 1523,
      "杭##": 1524,
      "<##": 1525,
      "卌##": 1526,
      "高##": 1527,
      "(##": 1528,
      "流##": 1529,
      "雨##": 1530,
      "關##": 1531,
      "ṣ##": 1532,
      "ם##": 1533,
      "那##": 1534,
      "書##": 1535,
      "â##": 1536,
      "◌##": 1537,
      "滑##": 1538,
      "^##": 1539,
      "ο##": 1540,
      "虫##": 1541,
      "ی##": 1542,
      "ĭ##": 1543,
      "ʒ##": 1544,
      "緑##": 1545,
      "。##": 1546,
      "中##": 1547,
      "都##": 1548,
      "′##": 1549,
      "奐##": 1550,
      "ô##": 1551,
      "杷##": 1552,
      "ř##": 1553,
      "維##": 1554,
      "ɣ##": 1555,
      "ˈ##": 1556,
      "§##": 1557,
      "𪜶##": 1558,
      "¥##": 1559,
      "ő##": 1560,
      "薩##": 1561,
      "ď##": 1562,
      "话##": 1563,
      "爭##": 1564,
      "ل##": 1565,
      "ひ##": 1566,
      "в##": 1567,
      "國##": 1568,
      "∖##": 1569,
      "金##": 1570,
      "像##": 1571,
      "ʻ##": 1572,
      "蜀##": 1573,
      "歌##": 1574,
      "匠##": 1575,
      "瑚##": 1576,
      "인##": 1577,
      "题##": 1578,
      "館##": 1579,
      "₤##": 1580,
      "つ##": 1581,
      "ण##": 1582,
      "蕃##": 1583,
      "衛##": 1584,
      "þ##": 1585,
      "又##": 1586,
      "ด##": 1587,
      "覆##": 1588,
      "∈##": 1589,
      "ό##": 1590,
      "ŋ##": 1591,
      "ġ##": 1592,
      "程##": 1593,
      "№##": 1594,
      "忒##": 1595,
      "食##": 1596,
      "π##": 1597,
      "ง##": 1598,
      "ǚ##": 1599,
      "ɡ##": 1600,
      "을##": 1601,
      "ï##": 1602,
      "도##": 1603,
      "ĝ##": 1604,
      "洲##": 1605,
      "ǎ##": 1606,
      "坤##": 1607,
      "粁##": 1608,
      "議##": 1609,
      "ʲ##": 1610,
      "ѧ##": 1611,
      "ψ##": 1612,
      "瓦##": 1613,
      "ɔ##": 1614,
      "ت##": 1615,
      "ꮿ##": 1616,
      "籲##": 1617,
      "音##": 1618,
      "腹##": 1619,
      "過##": 1620,
      "±##": 1621,
      "⟨##": 1622,
      "民##": 1623,
      "_##": 1624,
      "″##": 1625,
      "英##": 1626,
      "̃##": 1627,
      "♠##": 1628,
      "城##": 1629,
      "父##": 1630,
      "頓##": 1631,
      "ט##": 1632,
      "̤##": 1633,
      "ʱ##": 1634,
      "道##": 1635,
      "る##": 1636,
      "ˇ##": 1637,
      "吉##": 1638,
      "เ##": 1639,
      "ು##": 1640,
      "ܐ##": 1641,
      "ト##": 1642,
      "甫##": 1643,
      "∅##": 1644,
      "ѩ##": 1645,
      "囍##": 1646,
      "祐##": 1647,
      "制##": 1648,
      "≥##": 1649,
      "ά##": 1650,
      "她##": 1651,
      "禅##": 1652,
      "特##": 1653,
      "장##": 1654,
      "+##": 1655,
      "̯##": 1656,
      "ใ##": 1657,
      "ɤ##": 1658,
      "ѳ##": 1659,
      "प##": 1660,
      "圕##": 1661,
      "ध##": 1662,
      "ה##": 1663,
      "龢##": 1664,
      "習##": 1665,
      "&##": 1666,
      "安##": 1667,
      "ि##": 1668,
      "ı##": 1669,
      "𒊒##": 1670,
      "子##": 1671,
      "卅##": 1672,
      "=##": 1673,
      "米##": 1674,
      "ꮉ##": 1675,
      "師##": 1676,
      "½##": 1677,
      "震##": 1678,
      "𒄑##": 1679,
      "汉##": 1680,
      "見##": 1681,
      "म##": 1682,
      "̞##": 1683,
      "争##": 1684,
      "蝴##": 1685,
      "大##": 1686,
      "𪚥##": 1687,
      "𒊕##": 1688,
      "ɹ##": 1689,
      "長##": 1690,
      "부##": 1691,
      "ץ##": 1692,
      "แ##": 1693,
      "红##": 1694,
      "〜##": 1695,
      "河##": 1696,
      "堂##": 1697,
      "∝##": 1698,
      "ʂ##": 1699,
      "❤##": 1700,
      "і##": 1701,
      "喜##": 1702,
      "ы##": 1703,
      "萨##": 1704,
      "府##": 1705,
      "​##": 1706,
      "´##": 1707,
      "维##": 1708,
      "ž##": 1709,
      "β##": 1710,
      "ー##": 1711,
      "苗##": 1712,
      "ѣ##": 1713,
      "~##": 1714,
      "ß##": 1715,
      "‚##": 1716,
      "典##": 1717,
      "沖##": 1718,
      "쟁##": 1719,
      "～##": 1720,
      "ă##": 1721,
      "̄##": 1722,
      "炉##": 1723,
      "舍##": 1724,
      "清##": 1725,
      "戰##": 1726,
      "→##": 1727,
      "宁##": 1728,
      "獻##": 1729,
      "奴##": 1730,
      "ス##": 1731,
      "仔##": 1732,
      "針##": 1733,
      "才##": 1734,
      "ه##": 1735,
      "သ##": 1736,
      "!##": 1737,
      "淮##": 1738,
      "鬱##": 1739,
      "云##": 1740,
      "庁##": 1741,
      "신##": 1742,
      "雲##": 1743,
      "湖##": 1744,
      "把##": 1745,
      "ѵ##": 1746,
      "統##": 1747,
      "ч##": 1748,
      "ḥ##": 1749,
      "ई##": 1750,
      "소##": 1751,
      "ן##": 1752,
      "대##": 1753,
      "魄##": 1754,
      "و##": 1755,
      "胡##": 1756,
      "片##": 1757,
      "ç##": 1758,
      "ã##": 1759,
      "日##": 1760,
      "体##": 1761,
      "龍##": 1762,
      "@##": 1763,
      "⟩##": 1764,
      "书##": 1765,
      "ѫ##": 1766,
      "竹##": 1767,
      "法##": 1768,
      "נ##": 1769,
      "ɛ##": 1770,
      "寧##": 1771,
      "ǵ##": 1772,
      "宗##": 1773,
      "明##": 1774,
      "魂##": 1775,
      "叠##": 1776,
      "興##": 1777,
      "侍##": 1778,
      "θ##": 1779,
      "˥##": 1780,
      "ò##": 1781,
      "ʔ##": 1782,
      "√##": 1783,
      "₹##": 1784,
      "ا##": 1785,
      "島##": 1786,
      "ώ##": 1787,
      "丹##": 1788,
      "𐀚##": 1789,
      "蝶##": 1790,
      "代##": 1791,
      "회##": 1792,
      "₂##": 1793,
      "²##": 1794,
      "懸##": 1795,
      "︘##": 1796,
      "족##": 1797,
      "理##": 1798,
      "州##": 1799,
      "表##": 1800,
      "ῦ##": 1801,
      "“##": 1802,
      "呷##": 1803,
      "ꀕ##": 1804,
      "큰##": 1805,
      "ữ##": 1806,
      "ἱ##": 1807,
      "ǜ##": 1808,
      "美##": 1809,
      "য##": 1810,
      "ル##": 1811,
      "元##": 1812,
      "𒆳##": 1813,
      "ٔ##": 1814,
      "ℛ##": 1815,
      "ב##": 1816,
      "โ##": 1817,
      "ð##": 1818,
      "т##": 1819,
      "讀##": 1820,
      "浙##": 1821,
      "撫##": 1822,
      "€##": 1823,
      "𒂵##": 1824,
      "♯##": 1825,
      "أ##": 1826,
      "り##": 1827,
      "ว##": 1828,
      "ج##": 1829,
      "呣##": 1830,
      "督##": 1831,
      "래##": 1832,
      "，##": 1833,
      "水##": 1834,
      "ῖ##": 1835,
      "緩##": 1836,
      "牠##": 1837,
      "·##": 1838,
      "ַ##": 1839,
      "≡##": 1840,
      "’##": 1841,
      "¼##": 1842,
      "한##": 1843,
      "}##": 1844,
      "小##": 1845,
      "ѭ##": 1846,
      "ƿ##": 1847,
      "گ##": 1848,
      "包##": 1849,
      "|##": 1850,
      "廿##": 1851,
      "统##": 1852,
      "公##": 1853,
      "唔##": 1854,
      "起##": 1855,
      "﻿##": 1856,
      "康##": 1857,
      "ส##": 1858,
      "φ##": 1859,
      "集##": 1860,
      "題##": 1861,
      "は##": 1862,
      "ሪ##": 1863,
      "𒈪##": 1864,
      "ơ##": 1865,
      "이##": 1866,
      "知##": 1867,
      "佐##": 1868,
      "膺##": 1869,
      "합##": 1870,
      "𒌦##": 1871,
      "ಮ##": 1872,
      "国##": 1873,
      "˚##": 1874,
      "ᏹ##": 1875,
      "≈##": 1876,
      "田##": 1877,
      "社##": 1878,
      "₯##": 1879,
      "政##": 1880,
      "ɦ##": 1881,
      "ⲓ##": 1882,
      "肉##": 1883,
      "女##": 1884,
      "람##": 1885,
      "瓩##": 1886,
      "潮##": 1887,
      "ø##": 1888,
      "⋅##": 1889,
      "ф##": 1890,
      "建##": 1891,
      "ม##": 1892,
      "̩##": 1893,
      "氵##": 1894,
      "õ##": 1895,
      "ṃ##": 1896,
      "邑##": 1897,
      "ą##": 1898,
      "ł##": 1899,
      "∗##": 1900,
      "퍼##": 1901,
      "û##": 1902,
      "先##": 1903,
      "船##": 1904,
      "変##": 1905,
      "ಯ##": 1906,
      "厘##": 1907,
      "ไ##": 1908,
      "曲##": 1909,
      "•##": 1910,
      "豔##": 1911,
      "仪##": 1912,
      "マ##": 1913,
      "陵##": 1914,
      "庫##": 1915,
      "学##": 1916,
      "泥##": 1917,
      "尉##": 1918,
      "𠔻##": 1919,
      "ק##": 1920,
      "ʎ##": 1921,
      "縣##": 1922,
      "ύ##": 1923,
      "˭##": 1924,
      "¶##": 1925,
      "ع##": 1926,
      "韓##": 1927,
      "藍##": 1928,
      "£##": 1929,
      "ל##": 1930,
      "ċ##": 1931,
      "息##": 1932,
      "¡##": 1933,
      "ג##": 1934,
      "하##": 1935,
      "琶##": 1936,
      "न##": 1937,
      "ề##": 1938,
      "¿##": 1939,
      "÷##": 1940,
      "竜##": 1941,
      "槐##": 1942,
      "동##": 1943,
      "ꮟ##": 1944,
      "陽##": 1945,
      "帝##": 1946,
      "ད##": 1947,
      "{##": 1948,
      "下##": 1949,
      "试##": 1950,
      "库##": 1951,
      "ײ##": 1952,
      "文##": 1953,
      "ठ##": 1954,
      "千##": 1955,
      "咊##": 1956,
      "比##": 1957,
      "ء##": 1958,
      "ť##": 1959,
      "×##": 1960,
      "`##": 1961,
      "銖##": 1962,
      "《##": 1963,
      "ّ##": 1964,
      "th": 1965,
      "the##": 1966,
      "an": 1967,
      "in": 1968,
      "er": 1969,
      "ti": 1970,
      "ed##": 1971,
      "en": 1972,
      "ar": 1973,
      "of##": 1974,
      "re": 1975,
      "on": 1976,
      "or": 1977,
      "and##": 1978,
      "in##": 1979,
      "on##": 1980,
      "st": 1981,
      "it": 1982,
      "er##": 1983,
      "al": 1984,
      "ro": 1985,
      "es##": 1986,
      "at": 1987,
      "ing##": 1988,
      "to##": 1989,
      "as##": 1990,
      "ou": 1991,
      "ic": 1992,
      "al##": 1993,
      "an##": 1994,
      "is": 1995,
      "at##": 1996,
      "is##": 1997,
      "wh": 1998,
      "ac": 1999,
      "el": 2000,
      "ec": 2001,
      "ati": 2002,
      "or##": 2003,
      "om": 2004,
      "si": 2005,
      "ur": 2006,
      "ol": 2007,
      "il": 2008,
      "es": 2009,
      "as": 2010,
      "am": 2011,
      "di": 2012,
      "ch": 2013,
      "un": 2014,
      "ly##": 2015,
      "en##": 2016,
      "ri": 2017,
      "em": 2018,
      "li": 2019,
      "ent##": 2020,
      "con": 2021,
      "was##": 2022,
      "ent": 2023,
      "us": 2024,
      "ad": 2025,
      "pl": 2026,
      "su": 2027,
      "de": 2028,
      "ation##": 2029,
      "ve##": 2030,
      "ag": 2031,
      "ir": 2032,
      "os": 2033,
      "ow": 2034,
      "be": 2035,
      "by##": 2036,
      "pro": 2037,
      "for##": 2038,
      "ver": 2039,
      "ul": 2040,
      "ce##": 2041,
      "ha": 2042,
      "op": 2043,
      "com": 2044,
      "le": 2045,
      "wit": 2046,
      "ex": 2047,
      "ab": 2048,
      "ap": 2049,
      "that##": 2050,
      "with##": 2051,
      "ere##": 2052,
      "se": 2053,
      "tr": 2054,
      "ity##": 2055,
      "the": 2056,
      "tion##": 2057,
      "ers##": 2058,
      "ne": 2059,
      "ons##": 2060,
      "th##": 2061,
      "for": 2062,
      "le##": 2063,
      "oc": 2064,
      "ar##": 2065,
      "ts##": 2066,
      "hi": 2067,
      "sp": 2068,
      "are##": 2069,
      "ma": 2070,
      "oun": 2071,
      "19": 2072,
      "cl": 2073,
      "fro": 2074,
      "from##": 2075,
      "ch##": 2076,
      "gh": 2077,
      "ate##": 2078,
      "vi": 2079,
      "ter": 2080,
      "par": 2081,
      "it##": 2082,
      "per": 2083,
      "pre": 2084,
      "man": 2085,
      "du": 2086,
      "what##": 2087,
      "qu": 2088,
      "no": 2089,
      "bu": 2090,
      "ted##": 2091,
      "20": 2092,
      "ich##": 2093,
      "ci": 2094,
      "ther##": 2095,
      "ds##": 2096,
      "which##": 2097,
      "ff": 2098,
      "ated##": 2099,
      "were##": 2100,
      "im": 2101,
      "ra": 2102,
      "ally##": 2103,
      "str": 2104,
      "st##": 2105,
      "pe": 2106,
      "oo": 2107,
      "wor": 2108,
      "ud": 2109,
      "ev": 2110,
      "mo": 2111,
      "me": 2112,
      "est##": 2113,
      "be##": 2114,
      "sh": 2115,
      "por": 2116,
      "ter##": 2117,
      "ic##": 2118,
      "we": 2119,
      "ing": 2120,
      "um": 2121,
      "ir##": 2122,
      "ld##": 2123,
      "ta": 2124,
      "all##": 2125,
      "ary##": 2126,
      "der": 2127,
      "la": 2128,
      "its##": 2129,
      "so##": 2130,
      "id": 2131,
      "one##": 2132,
      "cent": 2133,
      "co": 2134,
      "ang": 2135,
      "af": 2136,
      "tur": 2137,
      "gi": 2138,
      "onal##": 2139,
      "ear": 2140,
      "tic": 2141,
      "ment##": 2142,
      "ame##": 2143,
      "gre": 2144,
      "pu": 2145,
      "gh##": 2146,
      "ph": 2147,
      "tim": 2148,
      "his##": 2149,
      "ded##": 2150,
      "age##": 2151,
      "ay##": 2152,
      "rou": 2153,
      "all": 2154,
      "ost##": 2155,
      "this##": 2156,
      "tu": 2157,
      "bo": 2158,
      "ies##": 2159,
      "other##": 2160,
      "cor": 2161,
      "ents##": 2162,
      "ence##": 2163,
      "comm": 2164,
      "ome##": 2165,
      "have##": 2166,
      "ig": 2167,
      "au": 2168,
      "go": 2169,
      "has##": 2170,
      "ding##": 2171,
      "mar": 2172,
      "00##": 2173,
      "est": 2174,
      "cont": 2175,
      "fir": 2176,
      "us##": 2177,
      "their##": 2178,
      "og": 2179,
      "not##": 2180,
      "duc": 2181,
      "our": 2182,
      "also##": 2183,
      "po": 2184,
      "ations##": 2185,
      "fe": 2186,
      "dis": 2187,
      "ght##": 2188,
      "ine##": 2189,
      "ser": 2190,
      "out##": 2191,
      "der##": 2192,
      "pr": 2193,
      "arg": 2194,
      "mil": 2195,
      "bl": 2196,
      "ber##": 2197,
      "had##": 2198,
      "ese##": 2199,
      "own##": 2200,
      "ates##": 2201,
      "),##": 2202,
      "ass": 2203,
      "ous##": 2204,
      "fr": 2205,
      "ia##": 2206,
      "ver##": 2207,
      "ple##": 2208,
      "form": 2209,
      "who##": 2210,
      "fi": 2211,
      "coun": 2212,
      "gen": 2213,
      "min": 2214,
      "ay": 2215,
      "ow##": 2216,
      "pol": 2217,
      "av": 2218,
      "mor": 2219,
      "ical##": 2220,
      "ce": 2221,
      "many##": 2222,
      "ke##": 2223,
      "first##": 2224,
      "col": 2225,
      "ong##": 2226,
      "most##": 2227,
      "ant##": 2228,
      "new##": 2229,
      "ast##": 2230,
      "uni": 2231,
      "he##": 2232,
      "clud": 2233,
      "ess##": 2234,
      "fl": 2235,
      "ty##": 2236,
      "ely##": 2237,
      "bec": 2238,
      "ting##": 2239,
      "cre": 2240,
      "ties##": 2241,
      "ance##": 2242,
      "18": 2243,
      "sy": 2244,
      "he": 2245,
      "but##": 2246,
      "br": 2247,
      "ans##": 2248,
      "tw": 2249,
      "ial##": 2250,
      "city##": 2251,
      "sec": 2252,
      "et##": 2253,
      "200": 2254,
      "to": 2255,
      "de##": 2256,
      "ten": 2257,
      "includ": 2258,
      "inter": 2259,
      "ad##": 2260,
      "te": 2261,
      "ould##": 2262,
      "iz": 2263,
      "tions##": 2264,
      "nati": 2265,
      "nor": 2266,
      "use##": 2267,
      "did##": 2268,
      "201": 2269,
      "pres": 2270,
      "se##": 2271,
      "such##": 2272,
      "used##": 2273,
      "ved##": 2274,
      "eng": 2275,
      "when##": 2276,
      "they##": 2277,
      "gr": 2278,
      "able##": 2279,
      "ks##": 2280,
      "ited##": 2281,
      "do": 2282,
      "more##": 2283,
      "dur": 2284,
      "land##": 2285,
      "mu": 2286,
      "dec": 2287,
      "ian##": 2288,
      "king##": 2289,
      "been##": 2290,
      "mon": 2291,
      "ern##": 2292,
      "enti": 2293,
      "ish##": 2294,
      "tri": 2295,
      "gn": 2296,
      "pop": 2297,
      "ard##": 2298,
      ").##": 2299,
      "ain": 2300,
      "after##": 2301,
      "ish": 2302,
      "ory##": 2303,
      "te##": 2304,
      "sch": 2305,
      "eu": 2306,
      "bet": 2307,
      "ell##": 2308,
      "ste": 2309,
      "larg": 2310,
      "during##": 2311,
      "car": 2312,
      "sion##": 2313,
      "some##": 2314,
      "ca": 2315,
      "ace##": 2316,
      "dev": 2317,
      "tic##": 2318,
      "spec": 2319,
      "ice##": 2320,
      "man##": 2321,
      "sou": 2322,
      "and": 2323,
      "als##": 2324,
      "pos": 2325,
      "res##": 2326,
      "ater##": 2327,
      "fin": 2328,
      "kn": 2329,
      "ces##": 2330,
      "ber": 2331,
      "pri": 2332,
      "into##": 2333,
      "two##": 2334,
      "off": 2335,
      "ade##": 2336,
      "att": 2337,
      "el##": 2338,
      "time##": 2339,
      "ess": 2340,
      "centur": 2341,
      "id##": 2342,
      "popul": 2343,
      "ue##": 2344,
      "sti": 2345,
      "amer": 2346,
      "ist": 2347,
      "than##": 2348,
      "cri": 2349,
      "ors##": 2350,
      "ure##": 2351,
      "arm": 2352,
      "ge##": 2353,
      "led##": 2354,
      "vern": 2355,
      "elec": 2356,
      "ound##": 2357,
      "state##": 2358,
      "pen": 2359,
      "world##": 2360,
      "can##": 2361,
      "over##": 2362,
      "pan": 2363,
      "of": 2364,
      "thou": 2365,
      "govern": 2366,
      "ased##": 2367,
      "ye": 2368,
      "only##": 2369,
      "americ": 2370,
      "ist##": 2371,
      "ism##": 2372,
      "ile##": 2373,
      "wi": 2374,
      "ps##": 2375,
      "shi": 2376,
      "ween##": 2377,
      "between##": 2378,
      "national##": 2379,
      "ite##": 2380,
      "ast": 2381,
      "states##": 2382,
      "um##": 2383,
      "ric": 2384,
      "jo": 2385,
      "century##": 2386,
      "ell": 2387,
      "ree##": 2388,
      "sign": 2389,
      "uc": 2390,
      "there##": 2391,
      "these##": 2392,
      "bri": 2393,
      "tive##": 2394,
      "vers": 2395,
      "ase##": 2396,
      "ture##": 2397,
      "are": 2398,
      "cap": 2399,
      "lo": 2400,
      "sol": 2401,
      "cu": 2402,
      "war##": 2403,
      "ann": 2404,
      "ement##": 2405,
      "indi": 2406,
      "may##": 2407,
      "ings##": 2408,
      "ower##": 2409,
      "yp": 2410,
      "000##": 2411,
      "ack##": 2412,
      "sub": 2413,
      "rec": 2414,
      "devel": 2415,
      "peo": 2416,
      "ain##": 2417,
      "tro": 2418,
      "loc": 2419,
      "united##": 2420,
      "cul": 2421,
      "gener": 2422,
      "ves##": 2423,
      "ten##": 2424,
      "num": 2425,
      "tran": 2426,
      "peri": 2427,
      "our##": 2428,
      "emp": 2429,
      "inv": 2430,
      "ose##": 2431,
      "year##": 2432,
      "gu": 2433,
      "ie": 2434,
      "lion##": 2435,
      "rit": 2436,
      "throu": 2437,
      "oll": 2438,
      "euro": 2439,
      "olog": 2440,
      "where##": 2441,
      "if": 2442,
      "produc": 2443,
      "develop": 2444,
      "eg": 2445,
      "fac": 2446,
      "ger": 2447,
      "would##": 2448,
      "people##": 2449,
      "tt": 2450,
      "am##": 2451,
      "wil": 2452,
      "tis": 2453,
      "sid": 2454,
      "ince##": 2455,
      "sup": 2456,
      "ect##": 2457,
      "ant": 2458,
      "while##": 2459,
      "rel": 2460,
      "ach": 2461,
      "char": 2462,
      "ember##": 2463,
      "grou": 2464,
      "ever##": 2465,
      "known##": 2466,
      "day##": 2467,
      "isi": 2468,
      "sa": 2469,
      "ating##": 2470,
      "serv": 2471,
      "bli": 2472,
      "cur": 2473,
      "stor": 2474,
      "how##": 2475,
      "fu": 2476,
      "ke": 2477,
      "ood##": 2478,
      "maj": 2479,
      "bi": 2480,
      "ears##": 2481,
      "her##": 2482,
      "tical##": 2483,
      "sul": 2484,
      "mus": 2485,
      "gro": 2486,
      "diff": 2487,
      "with": 2488,
      "des": 2489,
      "war": 2490,
      "sic##": 2491,
      "ru": 2492,
      "ble##": 2493,
      "hou": 2494,
      "ris": 2495,
      "years##": 2496,
      "buil": 2497,
      "air": 2498,
      "les##": 2499,
      "about##": 2500,
      "sel": 2501,
      "ach##": 2502,
      "chin": 2503,
      "main": 2504,
      "ed": 2505,
      "ms##": 2506,
      "call": 2507,
      "ished##": 2508,
      "bel": 2509,
      "government##": 2510,
      "beg": 2511,
      "fer": 2512,
      "son##": 2513,
      "tre": 2514,
      "though##": 2515,
      "red##": 2516,
      "var": 2517,
      "adi": 2518,
      "soc": 2519,
      "tec": 2520,
      "under##": 2521,
      "sm": 2522,
      "port##": 2523,
      "ving##": 2524,
      "univers": 2525,
      "publi": 2526,
      "hel": 2527,
      "public##": 2528,
      "sts##": 2529,
      "tain": 2530,
      "stitu": 2531,
      "enc": 2532,
      "199": 2533,
      "ked##": 2534,
      "me##": 2535,
      "sur": 2536,
      "including##": 2537,
      "ew": 2538,
      "cep": 2539,
      "consi": 2540,
      "ond##": 2541,
      "stem##": 2542,
      "can": 2543,
      "bro": 2544,
      "contin": 2545,
      "how": 2546,
      "ily##": 2547,
      "ire##": 2548,
      "tor": 2549,
      "org": 2550,
      "struc": 2551,
      "early##": 2552,
      "well##": 2553,
      "angu": 2554,
      "bil": 2555,
      "try##": 2556,
      "do##": 2557,
      "regi": 2558,
      "0s##": 2559,
      "both##": 2560,
      "fil": 2561,
      "very##": 2562,
      "ft##": 2563,
      "per##": 2564,
      "system##": 2565,
      "called##": 2566,
      "et": 2567,
      "mi": 2568,
      "ss##": 2569,
      "ants##": 2570,
      "so": 2571,
      "ong": 2572,
      "val": 2573,
      "arch": 2574,
      "however##": 2575,
      "langu": 2576,
      "became##": 2577,
      "tiv": 2578,
      "no##": 2579,
      "up##": 2580,
      "ob": 2581,
      "west##": 2582,
      "play": 2583,
      "pi": 2584,
      "mat": 2585,
      "reg": 2586,
      "part##": 2587,
      "form##": 2588,
      "made##": 2589,
      "onom": 2590,
      "fa": 2591,
      "old##": 2592,
      "ands##": 2593,
      "through##": 2594,
      "typ": 2595,
      "foll": 2596,
      "od##": 2597,
      "high": 2598,
      "ore": 2599,
      "ry##": 2600,
      "lin": 2601,
      "way##": 2602,
      "\".##": 2603,
      "three##": 2604,
      "end##": 2605,
      "ative##": 2606,
      "north##": 2607,
      "re##": 2608,
      "american##": 2609,
      "act##": 2610,
      "offic": 2611,
      "ages##": 2612,
      "million##": 2613,
      "organ": 2614,
      "port": 2615,
      "cer": 2616,
      "recor": 2617,
      "reli": 2618,
      "later##": 2619,
      "oper": 2620,
      "number##": 2621,
      "since##": 2622,
      "population##": 2623,
      "ho": 2624,
      "ning##": 2625,
      "ther": 2626,
      "ge": 2627,
      "ak": 2628,
      "bor": 2629,
      "requ": 2630,
      "orig": 2631,
      "dic": 2632,
      "sever": 2633,
      "chang": 2634,
      "contro": 2635,
      "tish##": 2636,
      "ven##": 2637,
      "work##": 2638,
      "hu": 2639,
      "fam": 2640,
      "dem": 2641,
      "chur": 2642,
      "sci": 2643,
      "stri": 2644,
      "dom": 2645,
      "differ": 2646,
      "ool##": 2647,
      "ni": 2648,
      "ass##": 2649,
      "stud": 2650,
      "win": 2651,
      "ussi": 2652,
      "ship##": 2653,
      "cour": 2654,
      "high##": 2655,
      "being##": 2656,
      "compan": 2657,
      "ale##": 2658,
      "ually##": 2659,
      "\",##": 2660,
      "eff": 2661,
      "follow": 2662,
      "music##": 2663,
      "mem": 2664,
      "abl": 2665,
      "ook##": 2666,
      "university##": 2667,
      "incre": 2668,
      ".\"##": 2669,
      "vol": 2670,
      "wid": 2671,
      "sc": 2672,
      "har": 2673,
      "17": 2674,
      "power##": 2675,
      "british##": 2676,
      "tional##": 2677,
      "poli": 2678,
      "south##": 2679,
      "often##": 2680,
      "ays##": 2681,
      "bur": 2682,
      "major##": 2683,
      "west": 2684,
      "il##": 2685,
      "ual##": 2686,
      "leg": 2687,
      "area##": 2688,
      "dre": 2689,
      "198": 2690,
      "establ": 2691,
      "rul": 2692,
      "ton##": 2693,
      "them##": 2694,
      "fore##": 2695,
      "cess##": 2696,
      "ill": 2697,
      "compl": 2698,
      "side##": 2699,
      "ned##": 2700,
      "exam": 2701,
      "ered##": 2702,
      "depen": 2703,
      "times##": 2704,
      "moder": 2705,
      "ek##": 2706,
      "sen": 2707,
      "erg": 2708,
      "hy": 2709,
      "som": 2710,
      "flu": 2711,
      "ature##": 2712,
      "name##": 2713,
      "several##": 2714,
      "period##": 2715,
      "sum": 2716,
      "phil": 2717,
      "publ": 2718,
      "poin": 2719,
      "ized##": 2720,
      "ics##": 2721,
      "tor##": 2722,
      "anc": 2723,
      "resul": 2724,
      "ench##": 2725,
      "mis": 2726,
      "direc": 2727,
      "joh": 2728,
      "any##": 2729,
      "197": 2730,
      "asi": 2731,
      "large##": 2732,
      "origin": 2733,
      "second##": 2734,
      "isl": 2735,
      "french##": 2736,
      "ause##": 2737,
      "ond": 2738,
      "nam": 2739,
      "country##": 2740,
      "econom": 2741,
      "rap": 2742,
      "ters##": 2743,
      "bers##": 2744,
      "like##": 2745,
      "vic": 2746,
      "tain##": 2747,
      "stre": 2748,
      "star": 2749,
      "sive##": 2750,
      "thern##": 2751,
      "based##": 2752,
      "suc": 2753,
      "ision##": 2754,
      "lif": 2755,
      "10##": 2756,
      "again": 2757,
      "against##": 2758,
      "na##": 2759,
      "self##": 2760,
      "medi": 2761,
      "aff": 2762,
      "fun": 2763,
      "up": 2764,
      "bar": 2765,
      "religi": 2766,
      "lead": 2767,
      "ology##": 2768,
      "largest##": 2769,
      "spe": 2770,
      "dered##": 2771,
      "tion": 2772,
      "centr": 2773,
      "posi": 2774,
      "presid": 2775,
      "school##": 2776,
      "ust##": 2777,
      "does##": 2778,
      "az": 2779,
      "cro": 2780,
      "pe##": 2781,
      "much##": 2782,
      "writ": 2783,
      "ying##": 2784,
      "line##": 2785,
      "now##": 2786,
      "because##": 2787,
      "ects##": 2788,
      "although##": 2789,
      "her": 2790,
      "pat": 2791,
      "lim": 2792,
      "then##": 2793,
      "each##": 2794,
      "law##": 2795,
      "empire##": 2796,
      "vari": 2797,
      "ital##": 2798,
      "lit": 2799,
      "bre": 2800,
      "tech": 2801,
      "arly##": 2802,
      "til##": 2803,
      "clu": 2804,
      "ju": 2805,
      "ority##": 2806,
      "group##": 2807,
      "east##": 2808,
      "until##": 2809,
      "out": 2810,
      "provi": 2811,
      "tradi": 2812,
      "del": 2813,
      "feder": 2814,
      "europe": 2815,
      "sing": 2816,
      "language##": 2817,
      "ason##": 2818,
      "chil": 2819,
      "commun": 2820,
      "ically##": 2821,
      "influ": 2822,
      "western##": 2823,
      "could##": 2824,
      "hol": 2825,
      "ently##": 2826,
      "pal": 2827,
      "50##": 2828,
      "ems##": 2829,
      "hum": 2830,
      "196": 2831,
      "sk": 2832,
      "itary##": 2833,
      "ication##": 2834,
      "ii##": 2835,
      "ven": 2836,
      "afric": 2837,
      "found##": 2838,
      "air##": 2839,
      "vir": 2840,
      "church##": 2841,
      "foun": 2842,
      "tel": 2843,
      "adv": 2844,
      "modern##": 2845,
      "around##": 2846,
      "appro": 2847,
      "hun": 2848,
      "bs##": 2849,
      "john##": 2850,
      "ei": 2851,
      "cei": 2852,
      "will##": 2853,
      "rele": 2854,
      "began##": 2855,
      "atur": 2856,
      "before##": 2857,
      "under": 2858,
      "ath": 2859,
      "fied##": 2860,
      "vo": 2861,
      "accor": 2862,
      "general##": 2863,
      "resp": 2864,
      "emper": 2865,
      "ign##": 2866,
      "194": 2867,
      "if##": 2868,
      "include##": 2869,
      "dr": 2870,
      "ution##": 2871,
      "ses##": 2872,
      "political##": 2873,
      "ected##": 2874,
      "comp": 2875,
      "international##": 2876,
      "import": 2877,
      "trans": 2878,
      "20##": 2879,
      "gl": 2880,
      "those##": 2881,
      "ful##": 2882,
      "within##": 2883,
      "pt": 2884,
      "ities##": 2885,
      "among##": 2886,
      "continu": 2887,
      "plac": 2888,
      "eded##": 2889,
      "same##": 2890,
      "ular##": 2891,
      "great##": 2892,
      "european##": 2893,
      "depend": 2894,
      "uary##": 2895,
      "military##": 2896,
      "plo": 2897,
      "light##": 2898,
      "cess": 2899,
      "tics##": 2900,
      "end": 2901,
      "prin": 2902,
      "bac": 2903,
      "cam": 2904,
      "curr": 2905,
      "ments##": 2906,
      "pur": 2907,
      "four##": 2908,
      "ague##": 2909,
      "over": 2910,
      "life##": 2911,
      "anci": 2912,
      "indu": 2913,
      "engl": 2914,
      "long##": 2915,
      "ented##": 2916,
      "story##": 2917,
      "appe": 2918,
      "def": 2919,
      "even##": 2920,
      "ll##": 2921,
      "lev": 2922,
      "army##": 2923,
      "ini": 2924,
      "according##": 2925,
      "histor": 2926,
      "charac": 2927,
      "english##": 2928,
      "sed##": 2929,
      "less##": 2930,
      "ym": 2931,
      "inc": 2932,
      "ially##": 2933,
      "ise##": 2934,
      "ep": 2935,
      "ghts##": 2936,
      "ef": 2937,
      "dy##": 2938,
      "ised##": 2939,
      "anti": 2940,
      "king": 2941,
      "den": 2942,
      "tal##": 2943,
      "own": 2944,
      "ality##": 2945,
      "bir": 2946,
      "dom##": 2947,
      "coll": 2948,
      "tes##": 2949,
      "fre": 2950,
      "another##": 2951,
      "she##": 2952,
      "ements##": 2953,
      "ental##": 2954,
      "rang": 2955,
      "russi": 2956,
      "16": 2957,
      "ath##": 2958,
      "jap": 2959,
      "development##": 2960,
      "house##": 2961,
      "different##": 2962,
      "place##": 2963,
      "equ": 2964,
      "german##": 2965,
      "itation##": 2966,
      "ures##": 2967,
      "new": 2968,
      "mid": 2969,
      "chinese##": 2970,
      "ences##": 2971,
      "ash": 2972,
      "president##": 2973,
      "roy": 2974,
      "ban": 2975,
      "ran": 2976,
      "nov": 2977,
      "ys": 2978,
      "due##": 2979,
      "oci": 2980,
      "common##": 2981,
      "late##": 2982,
      "formed##": 2983,
      "set##": 2984,
      "bc##": 2985,
      "ices##": 2986,
      "ici": 2987,
      "une##": 2988,
      "educ": 2989,
      "example##": 2990,
      "ve": 2991,
      "europe##": 2992,
      "league##": 2993,
      "os##": 2994,
      "associ": 2995,
      "main##": 2996,
      "roman##": 2997,
      "cent##": 2998,
      "remain": 2999,
      "along##": 3000,
      "sist": 3001,
      "tries##": 3002,
      "company##": 3003,
      "cal": 3004,
      "ced##": 3005,
      "stric": 3006,
      "greek##": 3007,
      "arch##": 3008,
      "non##": 3009,
      "thir": 3010,
      "auth": 3011,
      "ows##": 3012,
      "trac": 3013,
      "using##": 3014,
      "china##": 3015,
      "ames##": 3016,
      "control##": 3017,
      "respon": 3018,
      "independ": 3019,
      "ately##": 3020,
      "water##": 3021,
      "term##": 3022,
      "ous": 3023,
      "prot": 3024,
      "stand": 3025,
      "techn": 3026,
      "home##": 3027,
      "species##": 3028,
      "cop": 3029,
      "partic": 3030,
      "following##": 3031,
      "yor": 3032,
      "countries##": 3033,
      "ization##": 3034,
      "recei": 3035,
      "yn": 3036,
      "ped##": 3037,
      "constitu": 3038,
      "gra": 3039,
      "established##": 3040,
      "dist": 3041,
      "abil": 3042,
      "tural##": 3043,
      "oth": 3044,
      "posed##": 3045,
      "els##": 3046,
      "eth": 3047,
      "fur": 3048,
      "ren": 3049,
      "season##": 3050,
      "cla": 3051,
      "spor": 3052,
      "mul": 3053,
      "fore": 3054,
      "ases##": 3055,
      "human##": 3056,
      "central##": 3057,
      "dge##": 3058,
      "by": 3059,
      "him##": 3060,
      "ams##": 3061,
      "jew": 3062,
      "areas##": 3063,
      "tle##": 3064,
      "fiel": 3065,
      "still##": 3066,
      "addi": 3067,
      "important##": 3068,
      "tly##": 3069,
      "france##": 3070,
      "needed##": 3071,
      "rac": 3072,
      "grow": 3073,
      "sour": 3074,
      "195": 3075,
      "ail": 3076,
      "them": 3077,
      "ston##": 3078,
      "nec": 3079,
      "considered##": 3080,
      "ols##": 3081,
      "repres": 3082,
      "stry##": 3083,
      "ful": 3084,
      "region##": 3085,
      "ific": 3086,
      "ball##": 3087,
      "15##": 3088,
      "30##": 3089,
      "institu": 3090,
      "atic##": 3091,
      "ared##": 3092,
      "stat": 3093,
      "union##": 3094,
      "lond": 3095,
      "iety##": 3096,
      "sla": 3097,
      "order##": 3098,
      "prov": 3099,
      "forces##": 3100,
      "12##": 3101,
      "oph": 3102,
      "batt": 3103,
      "groups##": 3104,
      "art##": 3105,
      "ergy##": 3106,
      "risti": 3107,
      "cover": 3108,
      "york##": 3109,
      "foo": 3110,
      "court##": 3111,
      "signed##": 3112,
      "mag": 3113,
      "simil": 3114,
      "dio##": 3115,
      "london##": 3116,
      "ide": 3117,
      "christi": 3118,
      "history##": 3119,
      "located##": 3120,
      "party##": 3121,
      "sions##": 3122,
      "become##": 3123,
      "ga": 3124,
      "ken##": 3125,
      "comple": 3126,
      "prof": 3127,
      "hal": 3128,
      "pass": 3129,
      "east": 3130,
      "arti": 3131,
      "ital": 3132,
      "stu": 3133,
      "hom": 3134,
      "div": 3135,
      "developed##": 3136,
      "social##": 3137,
      "local##": 3138,
      "small##": 3139,
      "ists##": 3140,
      "ars##": 3141,
      "back##": 3142,
      "five##": 3143,
      "pa": 3144,
      "members##": 3145,
      ".[##": 3146,
      "relati": 3147,
      "bus": 3148,
      "sible##": 3149,
      "ired##": 3150,
      "ins##": 3151,
      "rese": 3152,
      "sequ": 3153,
      "mic": 3154,
      "sal": 3155,
      "vis": 3156,
      "doc": 3157,
      "dat": 3158,
      "igr": 3159,
      "descri": 3160,
      "bey": 3161,
      "identi": 3162,
      "cel": 3163,
      "moun": 3164,
      "island##": 3165,
      "han": 3166,
      "signific": 3167,
      "ak##": 3168,
      "ze##": 3169,
      "193": 3170,
      "domin": 3171,
      "energy##": 3172,
      "ples##": 3173,
      "cat": 3174,
      "position##": 3175,
      "25##": 3176,
      "force##": 3177,
      "held##": 3178,
      "tors##": 3179,
      "colon": 3180,
      "india##": 3181,
      "prac": 3182,
      "shor": 3183,
      "mer": 3184,
      "roc": 3185,
      "ches##": 3186,
      "mary##": 3187,
      "town##": 3188,
      "refer": 3189,
      "avi": 3190,
      "death##": 3191,
      "ards##": 3192,
      "brit": 3193,
      "ens##": 3194,
      "film##": 3195,
      "din": 3196,
      "federal##": 3197,
      "some": 3198,
      "lab": 3199,
      "und##": 3200,
      "revol": 3201,
      "ext##": 3202,
      "type##": 3203,
      "colle": 3204,
      "que": 3205,
      "dro": 3206,
      "ency##": 3207,
      "wom": 3208,
      "ological##": 3209,
      "om##": 3210,
      "sty": 3211,
      "bed##": 3212,
      "dle##": 3213,
      "religious##": 3214,
      "center##": 3215,
      "mini": 3216,
      "pec": 3217,
      "ject##": 3218,
      "sted##": 3219,
      "support##": 3220,
      "bra": 3221,
      "third##": 3222,
      "defin": 3223,
      "service##": 3224,
      "intro": 3225,
      "des##": 3226,
      "part": 3227,
      "cy": 3228,
      "mov": 3229,
      "ported##": 3230,
      "formation##": 3231,
      "2010##": 3232,
      "pers": 3233,
      "alth##": 3234,
      "men##": 3235,
      "duced##": 3236,
      "ward##": 3237,
      "territ": 3238,
      "gg": 3239,
      "ograp": 3240,
      "15": 3241,
      "migr": 3242,
      "inf": 3243,
      "jan": 3244,
      "usually##": 3245,
      "sovi": 3246,
      "kil": 3247,
      "ines##": 3248,
      "tici": 3249,
      "pow": 3250,
      "ner##": 3251,
      "various##": 3252,
      "built##": 3253,
      "ability##": 3254,
      "op##": 3255,
      "gar": 3256,
      "archit": 3257,
      "inten": 3258,
      "bud": 3259,
      "top##": 3260,
      "eastern##": 3261,
      "ether##": 3262,
      "bas": 3263,
      "popular##": 3264,
      "lu": 3265,
      "last##": 3266,
      "river##": 3267,
      "vide": 3268,
      "construc": 3269,
      "priv": 3270,
      "mac": 3271,
      "middle##": 3272,
      "ne##": 3273,
      "see##": 3274,
      "victor": 3275,
      "natur": 3276,
      "family##": 3277,
      "aver": 3278,
      "owed##": 3279,
      "low##": 3280,
      "education##": 3281,
      "ously##": 3282,
      "dh": 3283,
      "issu": 3284,
      "sett": 3285,
      "11##": 3286,
      "forms##": 3287,
      "electr": 3288,
      "co##": 3289,
      "head##": 3290,
      "initi": 3291,
      "ib": 3292,
      "single##": 3293,
      "scho": 3294,
      "med": 3295,
      "syst": 3296,
      "kingdom##": 3297,
      "mad": 3298,
      "building##": 3299,
      "took##": 3300,
      "mal": 3301,
      "read": 3302,
      "ians##": 3303,
      "jud": 3304,
      "ket##": 3305,
      "que##": 3306,
      "40##": 3307,
      "mos": 3308,
      "liter": 3309,
      "england##": 3310,
      "sw": 3311,
      "ot": 3312,
      "treat": 3313,
      "without##": 3314,
      "ley##": 3315,
      "sept": 3316,
      "britain##": 3317,
      "ders##": 3318,
      "separ": 3319,
      "indivi": 3320,
      "individu": 3321,
      "ential##": 3322,
      "aug": 3323,
      "ew##": 3324,
      "bal": 3325,
      "dra": 3326,
      "success": 3327,
      "white##": 3328,
      "cra": 3329,
      "god##": 3330,
      "dings##": 3331,
      "exten": 3332,
      "philos": 3333,
      "compe": 3334,
      "grad": 3335,
      "former##": 3336,
      "alli": 3337,
      "economic##": 3338,
      "college##": 3339,
      "tures##": 3340,
      "tball##": 3341,
      "tho": 3342,
      "ine": 3343,
      "black##": 3344,
      "change##": 3345,
      "retur": 3346,
      "september##": 3347,
      "field##": 3348,
      "2008##": 3349,
      "culture##": 3350,
      "make##": 3351,
      "tan": 3352,
      "research##": 3353,
      "18##": 3354,
      "14##": 3355,
      "sim": 3356,
      "occu": 3357,
      "citation##": 3358,
      "ator##": 3359,
      "included##": 3360,
      "soviet##": 3361,
      "point##": 3362,
      "cogn": 3363,
      "2013##": 3364,
      "down##": 3365,
      "ering##": 3366,
      "agre": 3367,
      "northern##": 3368,
      "anim": 3369,
      "ref": 3370,
      "aged##": 3371,
      "process##": 3372,
      "body##": 3373,
      "minist": 3374,
      "best##": 3375,
      "ip": 3376,
      "law": 3377,
      "cir": 3378,
      "capital##": 3379,
      "class": 3380,
      "sam": 3381,
      "ops##": 3382,
      "albu": 3383,
      "xim": 3384,
      "near##": 3385,
      "southern##": 3386,
      "america##": 3387,
      "royal##": 3388,
      "ns##": 3389,
      "march##": 3390,
      "polic": 3391,
      "vely##": 3392,
      "ined##": 3393,
      "take##": 3394,
      "released##": 3395,
      "dies##": 3396,
      "mater": 3397,
      "invol": 3398,
      "uses##": 3399,
      "childre": 3400,
      "dar": 3401,
      "continued##": 3402,
      "others##": 3403,
      "action##": 3404,
      "children##": 3405,
      "stan": 3406,
      "june##": 3407,
      "2009##": 3408,
      "free##": 3409,
      "16##": 3410,
      "ba": 3411,
      "val##": 3412,
      "lan": 3413,
      "ind##": 3414,
      "cil##": 3415,
      "cr": 3416,
      "ories##": 3417,
      "book##": 3418,
      "rule##": 3419,
      "original##": 3420,
      "sing##": 3421,
      "said##": 3422,
      "den##": 3423,
      "sea##": 3424,
      "scienti": 3425,
      "cept##": 3426,
      "schools##": 3427,
      "battle##": 3428,
      "council##": 3429,
      "austr": 3430,
      "come##": 3431,
      "works##": 3432,
      "created##": 3433,
      "came##": 3434,
      "ster##": 3435,
      "amm": 3436,
      "hen": 3437,
      "ths##": 3438,
      "play##": 3439,
      "study##": 3440,
      "ina##": 3441,
      "january##": 3442,
      "tains##": 3443,
      "comb": 3444,
      "official##": 3445,
      "bit": 3446,
      "clos": 3447,
      "parts##": 3448,
      "placed##": 3449,
      "date##": 3450,
      "geor": 3451,
      "standard##": 3452,
      "through": 3453,
      "bert##": 3454,
      "ways##": 3455,
      "2011##": 3456,
      "earli": 3457,
      "ularly##": 3458,
      "result##": 3459,
      "cities##": 3460,
      "ean##": 3461,
      "further##": 3462,
      "100##": 3463,
      "republic##": 3464,
      "game##": 3465,
      "ific##": 3466,
      "ben": 3467,
      "total##": 3468,
      "desi": 3469,
      "rights##": 3470,
      "egyp": 3471,
      "african##": 3472,
      "sor": 3473,
      "view##": 3474,
      "july##": 3475,
      "emplo": 3476,
      "wide##": 3477,
      "throughout##": 3478,
      "few##": 3479,
      "olic##": 3480,
      "ling##": 3481,
      "met": 3482,
      "germany##": 3483,
      "production##": 3484,
      "produced##": 3485,
      "ys##": 3486,
      "claim": 3487,
      "dig": 3488,
      "attemp": 3489,
      "ened##": 3490,
      "similar##": 3491,
      "ues##": 3492,
      "vil##": 3493,
      "students##": 3494,
      "bour": 3495,
      "higher##": 3496,
      "2007##": 3497,
      "ony##": 3498,
      "off##": 3499,
      "pic": 3500,
      "anese##": 3501,
      "expl": 3502,
      "queen##": 3503,
      "dest": 3504,
      "exec": 3505,
      "cath": 3506,
      "head": 3507,
      "pli": 3508,
      "mans##": 3509,
      "squ": 3510,
      "net": 3511,
      "ption##": 3512,
      "generally##": 3513,
      "ring##": 3514,
      "concer": 3515,
      "ats##": 3516,
      "days##": 3517,
      "octo": 3518,
      "played##": 3519,
      "women##": 3520,
      "october##": 3521,
      "ably##": 3522,
      "sof": 3523,
      "team##": 3524,
      "commer": 3525,
      "2012##": 3526,
      "phys": 3527,
      "espec": 3528,
      "especially##": 3529,
      "sem": 3530,
      "previ": 3531,
      "austral": 3532,
      "systems##": 3533,
      "significant##": 3534,
      "natural##": 3535,
      "broad": 3536,
      "ests##": 3537,
      "park##": 3538,
      "science##": 3539,
      "table##": 3540,
      "60##": 3541,
      "ites##": 3542,
      "fri": 3543,
      "experi": 3544,
      "19th##": 3545,
      "atures##": 3546,
      "cen": 3547,
      "istic##": 3548,
      "ult##": 3549,
      "13##": 3550,
      "2014##": 3551,
      "hor": 3552,
      "ministr": 3553,
      "right##": 3554,
      "administr": 3555,
      "sha": 3556,
      "paris##": 3557,
      "ets##": 3558,
      "street##": 3559,
      "duce##": 3560,
      "mel": 3561,
      "tained##": 3562,
      "17##": 3563,
      "ok": 3564,
      "ications##": 3565,
      "exic": 3566,
      "average##": 3567,
      "long": 3568,
      "exual##": 3569,
      "mexic": 3570,
      "served##": 3571,
      "gn##": 3572,
      "wal": 3573,
      "ligh": 3574,
      "alism##": 3575,
      "native##": 3576,
      "del##": 3577,
      "corpor": 3578,
      "cham": 3579,
      "nal##": 3580,
      "given##": 3581,
      "level##": 3582,
      "half##": 3583,
      "carri": 3584,
      "series##": 3585,
      "beyon": 3586,
      "show##": 3587,
      "im##": 3588,
      "atten": 3589,
      "onic##": 3590,
      "igh": 3591,
      "busin": 3592,
      "temper": 3593,
      "ban##": 3594,
      "nic": 3595,
      "victoria##": 3596,
      "station##": 3597,
      "avail": 3598,
      "cle": 3599,
      "football##": 3600,
      "resid": 3601,
      "wa": 3602,
      "vil": 3603,
      "architec": 3604,
      "liber": 3605,
      "every##": 3606,
      "philosoph": 3607,
      "current##": 3608,
      "10": 3609,
      "record##": 3610,
      "ched##": 3611,
      "ril##": 3612,
      "ping##": 3613,
      "estim": 3614,
      "distric": 3615,
      "languages##": 3616,
      "lat": 3617,
      "russian##": 3618,
      "tation##": 3619,
      "expan": 3620,
      "termin": 3621,
      "12": 3622,
      "compu": 3623,
      "named##": 3624,
      "april##": 3625,
      "december##": 3626,
      "announ": 3627,
      "aut": 3628,
      "span": 3629,
      "ide##": 3630,
      "ational##": 3631,
      "saw##": 3632,
      "ott": 3633,
      "ori": 3634,
      "ination##": 3635,
      "frequ": 3636,
      "role##": 3637,
      "enced##": 3638,
      "era##": 3639,
      "recogn": 3640,
      "dri": 3641,
      "achi": 3642,
      "dam": 3643,
      "traditional##": 3644,
      "percent##": 3645,
      "los": 3646,
      "sometimes##": 3647,
      "sym": 3648,
      "14": 3649,
      "view": 3650,
      "japanese##": 3651,
      "compar": 3652,
      "kes##": 3653,
      "pap": 3654,
      "quar": 3655,
      "ana##": 3656,
      "acro": 3657,
      "case##": 3658,
      "today##": 3659,
      "ada##": 3660,
      "ition##": 3661,
      "2006##": 3662,
      "video##": 3663,
      "congre": 3664,
      "ained##": 3665,
      "cial##": 3666,
      "ators##": 3667,
      "highest##": 3668,
      "november##": 3669,
      "ones##": 3670,
      "ece##": 3671,
      "thus##": 3672,
      "ached##": 3673,
      "13": 3674,
      "nap": 3675,
      "exist": 3676,
      "making##": 3677,
      "tow": 3678,
      "exp": 3679,
      "having##": 3680,
      "trade##": 3681,
      "lor": 3682,
      "cultural##": 3683,
      "tice##": 3684,
      "pac": 3685,
      "portu": 3686,
      "majority##": 3687,
      "influence##": 3688,
      "evol": 3689,
      "ested##": 3690,
      "lati": 3691,
      "august##": 3692,
      "range##": 3693,
      "empor": 3694,
      "games##": 3695,
      "ply##": 3696,
      "lic": 3697,
      "suff": 3698,
      "rather##": 3699,
      "schol": 3700,
      "left##": 3701,
      "civil##": 3702,
      "ships##": 3703,
      "wind": 3704,
      "style##": 3705,
      "ottom": 3706,
      "won##": 3707,
      "club##": 3708,
      "album##": 3709,
      "la##": 3710,
      "ot##": 3711,
      "run": 3712,
      "fron": 3713,
      "word##": 3714,
      "present##": 3715,
      "particularly##": 3716,
      "tual##": 3717,
      "founded##": 3718,
      "increased##": 3719,
      "24##": 3720,
      "live##": 3721,
      "spanish##": 3722,
      "pun": 3723,
      "tively##": 3724,
      "emperor##": 3725,
      "eved##": 3726,
      "board##": 3727,
      "society##": 3728,
      "ili": 3729,
      "connec": 3730,
      "should##": 3731,
      "zed##": 3732,
      "rock##": 3733,
      "ness##": 3734,
      "moved##": 3735,
      "ls##": 3736,
      "inst": 3737,
      "received##": 3738,
      "put##": 3739,
      "tex": 3740,
      "addition##": 3741,
      "adop": 3742,
      "bom": 3743,
      "laun": 3744,
      "decl": 3745,
      "rate##": 3746,
      "depart": 3747,
      "billion##": 3748,
      "craft##": 3749,
      "isra": 3750,
      "rich": 3751,
      "islands##": 3752,
      "ground##": 3753,
      "pris": 3754,
      "armen": 3755,
      "cé##": 3756,
      "wn##": 3757,
      "growth##": 3758,
      "ago##": 3759,
      "heav": 3760,
      "office##": 3761,
      "died##": 3762,
      "across##": 3763,
      "int": 3764,
      "da": 3765,
      "published##": 3766,
      "manu": 3767,
      "covered##": 3768,
      "terms##": 3769,
      "beyoncé##": 3770,
      "community##": 3771,
      "oned##": 3772,
      "execu": 3773,
      "dyn": 3774,
      "princi": 3775,
      "pt##": 3776,
      "ol##": 3777,
      "wat": 3778,
      "foreign##": 3779,
      "financi": 3780,
      "20th##": 3781,
      "theory##": 3782,
      "available##": 3783,
      "boo": 3784,
      "ang##": 3785,
      "bacter": 3786,
      "movement##": 3787,
      "election##": 3788,
      "entation##": 3789,
      "versi": 3790,
      "187": 3791,
      "inste": 3792,
      "know": 3793,
      "clas": 3794,
      "iled##": 3795,
      "key##": 3796,
      "africa##": 3797,
      "scri": 3798,
      "inning##": 3799,
      "adem": 3800,
      "face##": 3801,
      "ock##": 3802,
      "nation": 3803,
      "my": 3804,
      "willi": 3805,
      "must##": 3806,
      "ire": 3807,
      "democ": 3808,
      "buddh": 3809,
      "belie": 3810,
      "ament##": 3811,
      "21##": 3812,
      "nations##": 3813,
      "defe": 3814,
      "class##": 3815,
      "wards##": 3816,
      "bility##": 3817,
      "ancient##": 3818,
      "just##": 3819,
      "lower##": 3820,
      "private##": 3821,
      "ey##": 3822,
      "go##": 3823,
      "enci": 3824,
      "six##": 3825,
      "alist##": 3826,
      "fran": 3827,
      "bes##": 3828,
      "ection##": 3829,
      "written##": 3830,
      "contr": 3831,
      "wood##": 3832,
      "ah##": 3833,
      "indian##": 3834,
      "treaty##": 3835,
      "protec": 3836,
      "ma##": 3837,
      "meas": 3838,
      "rought##": 3839,
      "industri": 3840,
      "market##": 3841,
      "down": 3842,
      "ery##": 3843,
      "tric##": 3844,
      "19##": 3845,
      "ab##": 3846,
      "yo": 3847,
      "commit": 3848,
      "ective##": 3849,
      "progr": 3850,
      "mean": 3851,
      "media##": 3852,
      "ep##": 3853,
      "ole": 3854,
      "ials##": 3855,
      "health##": 3856,
      "records##": 3857,
      "itself##": 3858,
      "we##": 3859,
      "ports##": 3860,
      "either##": 3861,
      "food##": 3862,
      "musli": 3863,
      "serve##": 3864,
      "secre": 3865,
      "func": 3866,
      "acy##": 3867,
      "ening##": 3868,
      "promo": 3869,
      "telev": 3870,
      "ham": 3871,
      "mid##": 3872,
      "mand": 3873,
      "summ": 3874,
      "upon##": 3875,
      "2015##": 3876,
      "data##": 3877,
      "industry##": 3878,
      "multi": 3879,
      "introduced##": 3880,
      "ta##": 3881,
      "read##": 3882,
      "legal##": 3883,
      "han##": 3884,
      "eum##": 3885,
      "appl": 3886,
      "possible##": 3887,
      "anal": 3888,
      "const": 3889,
      "abo": 3890,
      "ox": 3891,
      "190": 3892,
      "prussi": 3893,
      "japan##": 3894,
      "febr": 3895,
      "february##": 3896,
      "22##": 3897,
      "ended##": 3898,
      "fes": 3899,
      "services##": 3900,
      "thro": 3901,
      "sugg": 3902,
      "80##": 3903,
      "chem": 3904,
      "mas": 3905,
      "mun": 3906,
      "increas": 3907,
      "acc": 3908,
      "george##": 3909,
      "anted##": 3910,
      "elected##": 3911,
      "nav": 3912,
      "far##": 3913,
      "cas": 3914,
      "envir": 3915,
      "haven##": 3916,
      "hear": 3917,
      "latin##": 3918,
      "ium##": 3919,
      "accoun": 3920,
      "financial##": 3921,
      "neigh": 3922,
      "ger##": 3923,
      "related##": 3924,
      "2005##": 3925,
      "distinc": 3926,
      "technology##": 3927,
      "environ": 3928,
      ".,##": 3929,
      "lands##": 3930,
      "site##": 3931,
      "aircraft##": 3932,
      "ottoman##": 3933,
      "ograph": 3934,
      "asia##": 3935,
      "event": 3936,
      "expres": 3937,
      "verse##": 3938,
      "respec": 3939,
      "bul": 3940,
      "regul": 3941,
      "sco": 3942,
      "certain##": 3943,
      "chr": 3944,
      "secur": 3945,
      "christian##": 3946,
      "amoun": 3947,
      "prob": 3948,
      "ka##": 3949,
      "catholic##": 3950,
      "youn": 3951,
      "attac": 3952,
      "changes##": 3953,
      "foc": 3954,
      "independent##": 3955,
      "sus##": 3956,
      "announced##": 3957,
      "men": 3958,
      "competi": 3959,
      "there": 3960,
      "win##": 3961,
      "hi##": 3962,
      "selves##": 3963,
      "county##": 3964,
      "glo": 3965,
      "tch##": 3966,
      "imper": 3967,
      "contri": 3968,
      "instead##": 3969,
      "jur": 3970,
      "manufac": 3971,
      "lam": 3972,
      "beginning##": 3973,
      "followed##": 3974,
      "gram##": 3975,
      "viol": 3976,
      "character": 3977,
      "cast##": 3978,
      "information##": 3979,
      "manag": 3980,
      "contribu": 3981,
      "kore": 3982,
      "rest": 3983,
      "bal##": 3984,
      "cell": 3985,
      "seen##": 3986,
      "parli": 3987,
      "lines##": 3988,
      "almost##": 3989,
      "ai##": 3990,
      "rome##": 3991,
      "uments##": 3992,
      "district##": 3993,
      "wro": 3994,
      "desp": 3995,
      "chop": 3996,
      "person##": 3997,
      "primary##": 3998,
      "thought##": 3999,
      "ington##": 4000,
      "relation": 4001,
      "knowle": 4002,
      "member##": 4003,
      "post##": 4004,
      "television##": 4005,
      "greater##": 4006,
      "square##": 4007,
      "constitution##": 4008,
      "designed##": 4009,
      "themselves##": 4010,
      "asty##": 4011,
      "space##": 4012,
      "allowed##": 4013,
      "jects##": 4014,
      "wrote##": 4015,
      "net##": 4016,
      "tit": 4017,
      "academ": 4018,
      "once##": 4019,
      "provide##": 4020,
      "sources##": 4021,
      "department##": 4022,
      "neu": 4023,
      "rest##": 4024,
      "minister##": 4025,
      "erous##": 4026,
      "construction##": 4027,
      "brought##": 4028,
      "ogi": 4029,
      "ingu": 4030,
      "associated##": 4031,
      "south": 4032,
      "evi": 4033,
      "final##": 4034,
      "revolution##": 4035,
      "despite##": 4036,
      "tog": 4037,
      "dial": 4038,
      "least##": 4039,
      "trav": 4040,
      "dynasty##": 4041,
      "san##": 4042,
      "ick##": 4043,
      "napole": 4044,
      "mec": 4045,
      "capac": 4046,
      "road##": 4047,
      "hos": 4048,
      "kers##": 4049,
      "structure##": 4050,
      "business##": 4051,
      "plants##": 4052,
      "tivity##": 4053,
      "father##": 4054,
      "jewish##": 4055,
      "uk##": 4056,
      "via##": 4057,
      "jews##": 4058,
      "fem": 4059,
      "chie": 4060,
      "ours##": 4061,
      "atic": 4062,
      "policy##": 4063,
      "proper": 4064,
      "500##": 4065,
      "events##": 4066,
      "tiz": 4067,
      "micro": 4068,
      "indic": 4069,
      "nation##": 4070,
      "greece##": 4071,
      "ength##": 4072,
      "leading##": 4073,
      "urban##": 4074,
      "chopin##": 4075,
      "ception##": 4076,
      "full##": 4077,
      "bly##": 4078,
      "sun": 4079,
      "ut": 4080,
      "centuries##": 4081,
      "eks##": 4082,
      "green##": 4083,
      "ight##": 4084,
      "radio##": 4085,
      "outh##": 4086,
      "beli": 4087,
      "increase##": 4088,
      "fav": 4089,
      "fication##": 4090,
      "source##": 4091,
      "open##": 4092,
      "200##": 4093,
      "flic": 4094,
      "23##": 4095,
      "remained##": 4096,
      "sent##": 4097,
      "police##": 4098,
      "next##": 4099,
      "ill##": 4100,
      "ges##": 4101,
      "settl": 4102,
      "charg": 4103,
      "syn": 4104,
      "laws##": 4105,
      "occur": 4106,
      "independence##": 4107,
      "caused##": 4108,
      "short##": 4109,
      "instr": 4110,
      "whose##": 4111,
      "ham##": 4112,
      "organization##": 4113,
      "outside##": 4114,
      "ided##": 4115,
      "sion": 4116,
      "design##": 4117,
      "bran": 4118,
      "asons##": 4119,
      "museum##": 4120,
      "territory##": 4121,
      "ming##": 4122,
      "ize##": 4123,
      "started##": 4124,
      "aries##": 4125,
      "perfor": 4126,
      "divi": 4127,
      "regar": 4128,
      "che": 4129,
      "described##": 4130,
      "cho": 4131,
      "william##": 4132,
      "ji": 4133,
      "..": 4134,
      "thre": 4135,
      "protest": 4136,
      "commercial##": 4137,
      "sting##": 4138,
      "disc": 4139,
      "effect##": 4140,
      "scientif": 4141,
      "classical##": 4142,
      "sexual##": 4143,
      "required##": 4144,
      "stly##": 4145,
      "sional##": 4146,
      "dou": 4147,
      "version##": 4148,
      "get##": 4149,
      "public": 4150,
      "degre": 4151,
      "spo": 4152,
      "buildings##": 4153,
      "arab": 4154,
      "together##": 4155,
      "cases##": 4156,
      "dence##": 4157,
      "program##": 4158,
      "race##": 4159,
      "organis": 4160,
      "km##": 4161,
      "typically##": 4162,
      "27##": 4163,
      "legisl": 4164,
      "approxim": 4165,
      "dance##": 4166,
      "electric##": 4167,
      "nass": 4168,
      "campa": 4169,
      "may": 4170,
      "dutch##": 4171,
      "status##": 4172,
      "performan": 4173,
      "religion##": 4174,
      "land": 4175,
      "ession##": 4176,
      "eventually##": 4177,
      "sain": 4178,
      "prev": 4179,
      "little##": 4180,
      "living##": 4181,
      "conduc": 4182,
      "division##": 4183,
      "log": 4184,
      "ext": 4185,
      "mother##": 4186,
      "ind": 4187,
      "mexico##": 4188,
      "working##": 4189,
      "great": 4190,
      "185": 4191,
      "ler##": 4192,
      "economy##": 4193,
      "teach": 4194,
      "effor": 4195,
      "association##": 4196,
      "xed##": 4197,
      "186": 4198,
      "fall##": 4199,
      "mi##": 4200,
      "particular##": 4201,
      "add": 4202,
      "again##": 4203,
      "ethn": 4204,
      "fle": 4205,
      "appoin": 4206,
      "ith##": 4207,
      "architecture##": 4208,
      "elev": 4209,
      "yed##": 4210,
      "scientific##": 4211,
      "limited##": 4212,
      "gen##": 4213,
      "ids##": 4214,
      "189": 4215,
      "active##": 4216,
      "ra##": 4217,
      "model##": 4218,
      "fig": 4219,
      "phi": 4220,
      "aining##": 4221,
      "pus##": 4222,
      "studies##": 4223,
      "insec": 4224,
      "network##": 4225,
      "28##": 4226,
      "nasser##": 4227,
      "san": 4228,
      "forced##": 4229,
      "condi": 4230,
      "airport##": 4231,
      "run##": 4232,
      "atory##": 4233,
      "color##": 4234,
      "festiv": 4235,
      "ission##": 4236,
      "alter": 4237,
      "au##": 4238,
      "clim": 4239,
      "gal": 4240,
      "ker": 4241,
      "conflic": 4242,
      "ricul": 4243,
      "standing##": 4244,
      "powers##": 4245,
      "includes##": 4246,
      "north": 4247,
      "tionally##": 4248,
      "nel##": 4249,
      "accep": 4250,
      "exper": 4251,
      "fif": 4252,
      "mechan": 4253,
      "imperial##": 4254,
      "referred##": 4255,
      "ken": 4256,
      "companies##": 4257,
      "child##": 4258,
      "pra": 4259,
      "taken##": 4260,
      "individual##": 4261,
      "deb": 4262,
      "marri": 4263,
      "gs##": 4264,
      "acqu": 4265,
      "premi": 4266,
      "183": 4267,
      "small": 4268,
      "americans##": 4269,
      "ebr": 4270,
      "transm": 4271,
      "birds##": 4272,
      "ough##": 4273,
      "eds##": 4274,
      "enh": 4275,
      "domes": 4276,
      "song##": 4277,
      "rail": 4278,
      "regions##": 4279,
      "consum": 4280,
      "strat": 4281,
      "troops##": 4282,
      "mach": 4283,
      "bio": 4284,
      "islam": 4285,
      "tv##": 4286,
      "citiz": 4287,
      "australia##": 4288,
      "champi": 4289,
      "widely##": 4290,
      "words##": 4291,
      "super": 4292,
      "bet##": 4293,
      "above##": 4294,
      "band##": 4295,
      "ech##": 4296,
      "special##": 4297,
      "napoleon##": 4298,
      "subsequ": 4299,
      "transpor": 4300,
      "xi": 4301,
      "born##": 4302,
      "pon": 4303,
      "hold##": 4304,
      "tal": 4305,
      "strong##": 4306,
      "canada##": 4307,
      "title##": 4308,
      "emporary##": 4309,
      "26##": 4310,
      "found": 4311,
      "control": 4312,
      "successful##": 4313,
      "egypt##": 4314,
      "supre": 4315,
      "recent##": 4316,
      "nu": 4317,
      "old": 4318,
      "centre##": 4319,
      "bit##": 4320,
      "grand##": 4321,
      "lou": 4322,
      "mental##": 4323,
      "alex": 4324,
      "jing##": 4325,
      "tory##": 4326,
      "ford##": 4327,
      "owing##": 4328,
      "hon": 4329,
      "conqu": 4330,
      "annual##": 4331,
      "aking##": 4332,
      "bron": 4333,
      "mit": 4334,
      "lear": 4335,
      "lost##": 4336,
      "close##": 4337,
      "sure##": 4338,
      "approximately##": 4339,
      "oms##": 4340,
      "becom": 4341,
      "ishing##": 4342,
      "provided##": 4343,
      "sound##": 4344,
      "ick": 4345,
      "ymp": 4346,
      "eston": 4347,
      "da##": 4348,
      "plant##": 4349,
      "passed##": 4350,
      "sil": 4351,
      "swit": 4352,
      "inte": 4353,
      "event##": 4354,
      "carol": 4355,
      "cause##": 4356,
      "demon": 4357,
      "thous": 4358,
      "survi": 4359,
      "em##": 4360,
      "attack##": 4361,
      "diffic": 4362,
      "oil##": 4363,
      "means##": 4364,
      "plan": 4365,
      "29##": 4366,
      "unities##": 4367,
      "leader##": 4368,
      "philosophy##": 4369,
      "aul##": 4370,
      "claimed##": 4371,
      "help##": 4372,
      "author": 4373,
      "demonstr": 4374,
      "purpos": 4375,
      "seven##": 4376,
      "ly": 4377,
      "ades##": 4378,
      "classi": 4379,
      "ude##": 4380,
      "went##": 4381,
      "reached##": 4382,
      "summer##": 4383,
      "estimated##": 4384,
      "never##": 4385,
      "elling##": 4386,
      "dise": 4387,
      "stone##": 4388,
      "base##": 4389,
      "2004##": 4390,
      "resist": 4391,
      "knowledge##": 4392,
      "opened##": 4393,
      "ership##": 4394,
      "months##": 4395,
      "emo": 4396,
      "anti##": 4397,
      "ever": 4398,
      "italy##": 4399,
      "windows##": 4400,
      "pp": 4401,
      "alized##": 4402,
      "size##": 4403,
      "mostly##": 4404,
      "ac##": 4405,
      "pit": 4406,
      "israel##": 4407,
      "sit": 4408,
      "ologi": 4409,
      "profes": 4410,
      "partici": 4411,
      "primar": 4412,
      "prime##": 4413,
      "oods##": 4414,
      "move##": 4415,
      "impro": 4416,
      "start##": 4417,
      "assem": 4418,
      "authority##": 4419,
      "gave##": 4420,
      "nearly##": 4421,
      "commonly##": 4422,
      "universi": 4423,
      "reported##": 4424,
      "universities##": 4425,
      "deri": 4426,
      "aw": 4427,
      "material##": 4428,
      "spi": 4429,
      "celebr": 4430,
      "democr": 4431,
      "boston##": 4432,
      "medical##": 4433,
      "wash": 4434,
      "conserv": 4435,
      "operations##": 4436,
      "conn": 4437,
      "specific##": 4438,
      "\")##": 4439,
      "palace##": 4440,
      "nature##": 4441,
      "impl": 4442,
      "transl": 4443,
      "larger##": 4444,
      "types##": 4445,
      "tically##": 4446,
      "188": 4447,
      "fully##": 4448,
      "isions##": 4449,
      "good##": 4450,
      "2000##": 4451,
      "gation##": 4452,
      "tial##": 4453,
      "universal##": 4454,
      "(\"##": 4455,
      "ethnic##": 4456,
      "ba##": 4457,
      "evidence##": 4458,
      "bell##": 4459,
      "tour": 4460,
      "comman": 4461,
      "teams##": 4462,
      "charles##": 4463,
      "earlier##": 4464,
      "song": 4465,
      "famous##": 4466,
      "roun": 4467,
      "asp": 4468,
      "yu": 4469,
      "rise##": 4470,
      "pal##": 4471,
      "ingly##": 4472,
      "austri": 4473,
      "tton##": 4474,
      "70##": 4475,
      "involved##": 4476,
      "arri": 4477,
      "why##": 4478,
      "administration##": 4479,
      "ker##": 4480,
      "thing##": 4481,
      "jour": 4482,
      "replaced##": 4483,
      "meaning##": 4484,
      "primarily##": 4485,
      "kar": 4486,
      "ireland##": 4487,
      "produce##": 4488,
      "olymp": 4489,
      "four": 4490,
      "italian##": 4491,
      "kind##": 4492,
      "ordin": 4493,
      "ques": 4494,
      "you##": 4495,
      "ena##": 4496,
      "franc": 4497,
      "release##": 4498,
      "ake##": 4499,
      "defen": 4500,
      "security##": 4501,
      "alls##": 4502,
      "return##": 4503,
      "emerg": 4504,
      "184": 4505,
      "cust": 4506,
      "plied##": 4507,
      "originally##": 4508,
      "congress##": 4509,
      "ortho": 4510,
      "arab##": 4511,
      "dru": 4512,
      "apple##": 4513,
      "berg##": 4514,
      "targ": 4515,
      "transi": 4516,
      "hall##": 4517,
      "figh": 4518,
      "represent": 4519,
      "chief##": 4520,
      "code##": 4521,
      "computer##": 4522,
      "ama##": 4523,
      "largely##": 4524,
      "mass##": 4525,
      "roman": 4526,
      "variety##": 4527,
      "design": 4528,
      "somal": 4529,
      "animals##": 4530,
      "away##": 4531,
      "worl": 4532,
      "orthodo": 4533,
      "ots##": 4534,
      "tured##": 4535,
      "antly##": 4536,
      "supreme##": 4537,
      "tun": 4538,
      "theat": 4539,
      "90##": 4540,
      "gadd": 4541,
      "ona##": 4542,
      "prior##": 4543,
      "historical##": 4544,
      "regional##": 4545,
      "russia##": 4546,
      "etic##": 4547,
      "islamic##": 4548,
      "refl": 4549,
      "compon": 4550,
      "istan##": 4551,
      "tionary##": 4552,
      "front##": 4553,
      "parliament##": 4554,
      "arc": 4555,
      "saint##": 4556,
      "ads##": 4557,
      "civil": 4558,
      "gaddaf": 4559,
      "ney##": 4560,
      "solar##": 4561,
      "plann": 4562,
      "cup##": 4563,
      "ute##": 4564,
      "saf": 4565,
      "enter": 4566,
      "flor": 4567,
      "facil": 4568,
      "len": 4569,
      "tivi": 4570,
      "soon##": 4571,
      "mol": 4572,
      "distri": 4573,
      "ore##": 4574,
      "plat": 4575,
      "separate##": 4576,
      "adopted##": 4577,
      "amount##": 4578,
      "nom": 4579,
      "beha": 4580,
      "libr": 4581,
      "arts##": 4582,
      "uran": 4583,
      "metho": 4584,
      "sold##": 4585,
      "personal##": 4586,
      "character##": 4587,
      "distribu": 4588,
      "dog": 4589,
      "pain": 4590,
      "poten": 4591,
      "artists##": 4592,
      "fic": 4593,
      "fol": 4594,
      "earth##": 4595,
      "gradu": 4596,
      "low": 4597,
      "hunting##": 4598,
      "cou": 4599,
      "scot": 4600,
      "jac": 4601,
      "elements##": 4602,
      "onna##": 4603,
      "complex##": 4604,
      "necess": 4605,
      "vill": 4606,
      "process": 4607,
      "scholars##": 4608,
      "james##": 4609,
      "zer": 4610,
      "whit": 4611,
      "tre##": 4612,
      "theast##": 4613,
      "fire##": 4614,
      "ready##": 4615,
      "agricul": 4616,
      "lik": 4617,
      "conven": 4618,
      "operation##": 4619,
      "levels##": 4620,
      "believed##": 4621,
      "atis": 4622,
      "vers##": 4623,
      "him": 4624,
      "itan##": 4625,
      "paul##": 4626,
      "bel##": 4627,
      "grap": 4628,
      "killed##": 4629,
      "ument##": 4630,
      "sian##": 4631,
      "success##": 4632,
      "tribu": 4633,
      "night##": 4634,
      "young##": 4635,
      "washington##": 4636,
      "ances##": 4637,
      "ole##": 4638,
      "gaddafi##": 4639,
      "ounds##": 4640,
      "ied##": 4641,
      "nan": 4642,
      "inc##": 4643,
      "engine": 4644,
      "divided##": 4645,
      "metro": 4646,
      "governor##": 4647,
      "enth##": 4648,
      "soci": 4649,
      "iting##": 4650,
      "meth": 4651,
      "store##": 4652,
      "sac": 4653,
      "probl": 4654,
      "lahom": 4655,
      "smaller##": 4656,
      "numerous##": 4657,
      "direct##": 4658,
      "whether##": 4659,
      "tradition##": 4660,
      "chi": 4661,
      "oklahom": 4662,
      "report##": 4663,
      "speci": 4664,
      "esti": 4665,
      "conver": 4666,
      "amp": 4667,
      "practice##": 4668,
      "duction##": 4669,
      "past##": 4670,
      "speed##": 4671,
      "sports##": 4672,
      "agreement##": 4673,
      "integr": 4674,
      "behavi": 4675,
      "ued##": 4676,
      "tra": 4677,
      "esses##": 4678,
      "experience##": 4679,
      "ere": 4680,
      "influenced##": 4681,
      "prince##": 4682,
      "interest##": 4683,
      "mark##": 4684,
      "madonna##": 4685,
      "hand": 4686,
      "softw": 4687,
      "concept##": 4688,
      "global##": 4689,
      "remains##": 4690,
      "response##": 4691,
      "lead##": 4692,
      "thu": 4693,
      "declared##": 4694,
      "fy##": 4695,
      "churches##": 4696,
      "muslim##": 4697,
      "yale##": 4698,
      "sun##": 4699,
      "too##": 4700,
      "tem": 4701,
      "insul": 4702,
      "future##": 4703,
      "tee##": 4704,
      "actions##": 4705,
      "ference##": 4706,
      "census##": 4707,
      "benef": 4708,
      "tually##": 4709,
      "temperature##": 4710,
      "promin": 4711,
      "anced##": 4712,
      "ari": 4713,
      "previous##": 4714,
      "supported##": 4715,
      "lay##": 4716,
      "rit##": 4717,
      "carolina##": 4718,
      "whom##": 4719,
      "aven": 4720,
      "oklahoma##": 4721,
      "anten": 4722,
      "spread##": 4723,
      "ucle": 4724,
      "changed##": 4725,
      "don": 4726,
      "let": 4727,
      "pope##": 4728,
      "features##": 4729,
      "institute##": 4730,
      "featur": 4731,
      "kan": 4732,
      "directly##": 4733,
      "performance##": 4734,
      "world": 4735,
      "un##": 4736,
      "virg": 4737,
      "tary##": 4738,
      "hydro": 4739,
      "characters##": 4740,
      "experim": 4741,
      ",\"##": 4742,
      "ple": 4743,
      "med##": 4744,
      "attrac": 4745,
      "atlan": 4746,
      "atlantic##": 4747,
      "35##": 4748,
      "climate##": 4749,
      "institutions##": 4750,
      "digital##": 4751,
      "relationship##": 4752,
      "cris": 4753,
      "scale##": 4754,
      "industrial##": 4755,
      "gol": 4756,
      "adian##": 4757,
      "ze": 4758,
      "himself##": 4759,
      "bank##": 4760,
      "literature##": 4761,
      "rad": 4762,
      "quality##": 4763,
      "longer##": 4764,
      "spain##": 4765,
      "software##": 4766,
      "thom": 4767,
      "one": 4768,
      "marke": 4769,
      "bourne##": 4770,
      "anthro": 4771,
      "identity##": 4772,
      "defined##": 4773,
      "nar": 4774,
      "strateg": 4775,
      "officially##": 4776,
      "racial##": 4777,
      "tibet##": 4778,
      "allow##": 4779,
      "nucle": 4780,
      "ural##": 4781,
      "recorded##": 4782,
      "2003##": 4783,
      "subject##": 4784,
      "situ": 4785,
      "physical##": 4786,
      "added##": 4787,
      "ishment##": 4788,
      "eight##": 4789,
      "ading##": 4790,
      "turn##": 4791,
      "bridge##": 4792,
      "glass##": 4793,
      "aring##": 4794,
      "activi": 4795,
      "currently##": 4796,
      "copper##": 4797,
      "ae": 4798,
      "psy": 4799,
      "consider": 4800,
      "mountains##": 4801,
      "neighbor": 4802,
      "sia##": 4803,
      "ils##": 4804,
      "habit": 4805,
      "houses##": 4806,
      "writing##": 4807,
      "extre": 4808,
      "immigr": 4809,
      "box##": 4810,
      "mainly##": 4811,
      "paper##": 4812,
      "plan##": 4813,
      "cru": 4814,
      "numbers##": 4815,
      "eis": 4816,
      "access##": 4817,
      "ya##": 4818,
      "real##": 4819,
      "spir": 4820,
      "campus##": 4821,
      "province##": 4822,
      "particip": 4823,
      "consol": 4824,
      "coast##": 4825,
      "rati": 4826,
      "hand##": 4827,
      "ye##": 4828,
      "metropol": 4829,
      "blue##": 4830,
      "henry##": 4831,
      "cali": 4832,
      "adol": 4833,
      "likely##": 4834,
      "might##": 4835,
      "humans##": 4836,
      "18th##": 4837,
      "relatively##": 4838,
      "cost##": 4839,
      "ior##": 4840,
      "jus": 4841,
      "stated##": 4842,
      "alists##": 4843,
      "pre##": 4844,
      "gres": 4845,
      "month##": 4846,
      "players##": 4847,
      "tian##": 4848,
      "ends##": 4849,
      "create##": 4850,
      "earliest##": 4851,
      "professional##": 4852,
      "parties##": 4853,
      "practic": 4854,
      "downtown##": 4855,
      "therefore##": 4856,
      "communities##": 4857,
      "organiz": 4858,
      "previously##": 4859,
      "ains##": 4860,
      "highly##": 4861,
      "melbourne##": 4862,
      "orthodox##": 4863,
      "portugu": 4864,
      "jes": 4865,
      "cross##": 4866,
      "activity##": 4867,
      "fact##": 4868,
      "conflict##": 4869,
      "gam": 4870,
      "list##": 4871,
      "executive##": 4872,
      "gal##": 4873,
      "ino##": 4874,
      "ene##": 4875,
      "contemporary##": 4876,
      "wing##": 4877,
      "airs##": 4878,
      "festival##": 4879,
      "nig": 4880,
      "campaign##": 4881,
      "core##": 4882,
      "initially##": 4883,
      "peace##": 4884,
      "medic": 4885,
      "mission##": 4886,
      "soldi": 4887,
      "free": 4888,
      "lem##": 4889,
      "problems##": 4890,
      "von##": 4891,
      "republic": 4892,
      "training##": 4893,
      "incorpor": 4894,
      "owned##": 4895,
      "lived##": 4896,
      "worldwide##": 4897,
      "ious##": 4898,
      "orial##": 4899,
      "poly": 4900,
      "cle##": 4901,
      "determin": 4902,
      "domestic##": 4903,
      "avo": 4904,
      "female##": 4905,
      "project##": 4906,
      "catal": 4907,
      "stadi": 4908,
      "forming##": 4909,
      "interpre": 4910,
      "launched##": 4911,
      "towards##": 4912,
      "expen": 4913,
      "effici": 4914,
      "notable##": 4915,
      "portuguese##": 4916,
      "yl": 4917,
      "iii##": 4918,
      "2001##": 4919,
      "bish": 4920,
      "human": 4921,
      "aded##": 4922,
      "ged##": 4923,
      "hours##": 4924,
      "entire##": 4925,
      "categ": 4926,
      "sto": 4927,
      "mosa": 4928,
      "internet##": 4929,
      "chic": 4930,
      "75##": 4931,
      "ranked##": 4932,
      "money##": 4933,
      "patter": 4934,
      "oldest##": 4935,
      "dates##": 4936,
      "stations##": 4937,
      "colum": 4938,
      "heavy##": 4939,
      "thin": 4940,
      "taining##": 4941,
      "bacteria##": 4942,
      "premier##": 4943,
      "ano##": 4944,
      "disc##": 4945,
      "yer##": 4946,
      "mal##": 4947,
      "pact##": 4948,
      "discovered##": 4949,
      "bon##": 4950,
      "audi": 4951,
      "pression##": 4952,
      "aving##": 4953,
      "gor": 4954,
      "portion##": 4955,
      "mur": 4956,
      "rely##": 4957,
      "tou": 4958,
      "ali": 4959,
      "houston##": 4960,
      "ef##": 4961,
      "cotton##": 4962,
      "products##": 4963,
      "mc": 4964,
      "news##": 4965,
      "better##": 4966,
      "armed##": 4967,
      "occurred##": 4968,
      "ush": 4969,
      "tin##": 4970,
      "asion##": 4971,
      "thic##": 4972,
      "entary##": 4973,
      "value##": 4974,
      "ought##": 4975,
      "crimin": 4976,
      "border##": 4977,
      "bap": 4978,
      "defence##": 4979,
      "sic": 4980,
      "pacific##": 4981,
      "enhower##": 4982,
      "eisenhower##": 4983,
      "always##": 4984,
      "non": 4985,
      "sat": 4986,
      "jos": 4987,
      "lig": 4988,
      "resulted##": 4989,
      "ideas##": 4990,
      "dna##": 4991,
      "voc": 4992,
      "radi": 4993,
      "flo": 4994,
      "method##": 4995,
      "press##": 4996,
      "anthropol": 4997,
      "ners##": 4998,
      "resulting##": 4999,
      "edi": 5000,
      "ching##": 5001,
      "canadian##": 5002,
      "latter##": 5003,
      "kerry##": 5004,
      "fourth##": 5005,
      "don##": 5006,
      "join": 5007,
      "dogs##": 5008,
      "genous##": 5009,
      "solution##": 5010,
      "birth##": 5011,
      "chan": 5012,
      "labour##": 5013,
      "crisis##": 5014,
      "jected##": 5015,
      "famil": 5016,
      "individuals##": 5017,
      "compared##": 5018,
      "surroun": 5019,
      "aur": 5020,
      "acts##": 5021,
      "occa": 5022,
      "ha##": 5023,
      "earth": 5024,
      "hard##": 5025,
      "sus": 5026,
      "returned##": 5027,
      "miles##": 5028,
      "tac": 5029,
      "atives##": 5030,
      "marked##": 5031,
      "abor": 5032,
      "cover##": 5033,
      "daily##": 5034,
      "mathem": 5035,
      "pul": 5036,
      "section##": 5037,
      ");##": 5038,
      "mann##": 5039,
      "indigenous##": 5040,
      "wealth##": 5041,
      "invasion##": 5042,
      "wars##": 5043,
      "growing##": 5044,
      "encies##": 5045,
      "minority##": 5046,
      "loss##": 5047,
      "beh": 5048,
      "esting##": 5049,
      "metropolitan##": 5050,
      "utionary##": 5051,
      "provin": 5052,
      "mass": 5053,
      "nia##": 5054,
      "torch##": 5055,
      "brain##": 5056,
      "300##": 5057,
      "gos": 5058,
      "audio##": 5059,
      "purch": 5060,
      "issue##": 5061,
      "eval##": 5062,
      "relations##": 5063,
      "units##": 5064,
      "command##": 5065,
      "appeared##": 5066,
      "let##": 5067,
      "sense##": 5068,
      "names##": 5069,
      "...##": 5070,
      "son": 5071,
      "tru": 5072,
      "zinc##": 5073,
      "hic##": 5074,
      "polish##": 5075,
      "student##": 5076,
      "techni": 5077,
      "begin##": 5078,
      "stage##": 5079,
      "2002##": 5080,
      "examples##": 5081,
      "intel": 5082,
      "31##": 5083,
      "newsp": 5084,
      "songs##": 5085,
      "tibet": 5086,
      "45##": 5087,
      "jer": 5088,
      "repe": 5089,
      "remain##": 5090,
      "ison##": 5091,
      "newspap": 5092,
      "give##": 5093,
      "conditions##": 5094,
      "musical##": 5095,
      "surface##": 5096,
      "avid##": 5097,
      "destroy": 5098,
      "cles##": 5099,
      "tered##": 5100,
      "manufactur": 5101,
      "ida##": 5102,
      "magaz": 5103,
      "arity##": 5104,
      "swe": 5105,
      "becoming##": 5106,
      "increasing##": 5107,
      "real": 5108,
      "need##": 5109,
      "bon": 5110,
      "text##": 5111,
      "creation##": 5112,
      "appointed##": 5113,
      "adoles": 5114,
      "soldiers##": 5115,
      "mir": 5116,
      "concentr": 5117,
      "feature##": 5118,
      "basic##": 5119,
      "stand##": 5120,
      "ami##": 5121,
      "cros": 5122,
      "exist##": 5123,
      "bi##": 5124,
      "ires##": 5125,
      "va##": 5126,
      "ultim": 5127,
      "lea": 5128,
      "percent": 5129,
      "origin##": 5130,
      "hood##": 5131,
      "itors##": 5132,
      "responsible##": 5133,
      "sides##": 5134,
      "liby": 5135,
      "performed##": 5136,
      "ll": 5137,
      "ut##": 5138,
      "historic##": 5139,
      "soft##": 5140,
      "books##": 5141,
      "immedi": 5142,
      "presence##": 5143,
      "below##": 5144,
      "families##": 5145,
      "adap": 5146,
      "restric": 5147,
      "1980s##": 5148,
      "starting##": 5149,
      "committee##": 5150,
      "encour": 5151,
      "territories##": 5152,
      "populations##": 5153,
      "clubs##": 5154,
      "oli": 5155,
      "proposed##": 5156,
      "films##": 5157,
      "nine##": 5158,
      "plym": 5159,
      "irish##": 5160,
      "fo": 5161,
      "already##": 5162,
      "ester##": 5163,
      "acu": 5164,
      "residents##": 5165,
      "insects##": 5166,
      "korea##": 5167,
      "marsh": 5168,
      "competition##": 5169,
      "helped##": 5170,
      "aci": 5171,
      "foundation##": 5172,
      "tin": 5173,
      "devices##": 5174,
      "mandol": 5175,
      "avenue##": 5176,
      "speaking##": 5177,
      "percentage##": 5178,
      "ander##": 5179,
      "perman": 5180,
      "decre": 5181,
      "discus": 5182,
      "library##": 5183,
      "formal##": 5184,
      "complete##": 5185,
      "true##": 5186,
      "chemical##": 5187,
      "amed##": 5188,
      "investi": 5189,
      "granted##": 5190,
      "anta##": 5191,
      "valley##": 5192,
      "mp": 5193,
      "lord##": 5194,
      "gun": 5195,
      "my##": 5196,
      "wides": 5197,
      "eral##": 5198,
      "ie##": 5199,
      "medieval##": 5200,
      "programs##": 5201,
      "person": 5202,
      "portugal##": 5203,
      "behind##": 5204,
      "yet##": 5205,
      "ts": 5206,
      "hell": 5207,
      "headquar": 5208,
      "stadium##": 5209,
      "eless##": 5210,
      "cast": 5211,
      "occup": 5212,
      "spoken##": 5213,
      "aled##": 5214,
      "degree##": 5215,
      "lack##": 5216,
      "attacks##": 5217,
      "attle##": 5218,
      "speak": 5219,
      "gas##": 5220,
      "sn": 5221,
      "winter##": 5222,
      "covery##": 5223,
      "serves##": 5224,
      "cid": 5225,
      "management##": 5226,
      "bing##": 5227,
      "ipo": 5228,
      "cannot##": 5229,
      "hot##": 5230,
      "ocean##": 5231,
      "asian##": 5232,
      "strong": 5233,
      "exhi": 5234,
      "plymouth##": 5235,
      "rev": 5236,
      "troit##": 5237,
      "metal##": 5238,
      "back": 5239,
      "wrest": 5240,
      "mixed##": 5241,
      "activities##": 5242,
      "detroit##": 5243,
      "resistance##": 5244,
      "400##": 5245,
      "1970s##": 5246,
      "finally##": 5247,
      "robert##": 5248,
      "thomas##": 5249,
      "bat": 5250,
      "nes": 5251,
      "expansion##": 5252,
      "citizens##": 5253,
      "dell##": 5254,
      "ek": 5255,
      "thousands##": 5256,
      "1st##": 5257,
      "test##": 5258,
      "zone##": 5259,
      "vic##": 5260,
      "mond##": 5261,
      "failed##": 5262,
      "assembly##": 5263,
      "gold##": 5264,
      "continent##": 5265,
      "uranium##": 5266,
      "ron": 5267,
      "lin##": 5268,
      "dic##": 5269,
      "ques##": 5270,
      "effects##": 5271,
      "agreed##": 5272,
      "potential##": 5273,
      "pain##": 5274,
      "here##": 5275,
      "met##": 5276,
      "louis##": 5277,
      "where": 5278,
      "owns##": 5279,
      "hop": 5280,
      "awards##": 5281,
      "quake##": 5282,
      "additional##": 5283,
      "ster": 5284,
      "reduced##": 5285,
      "taking##": 5286,
      "attempt##": 5287,
      "defeated##": 5288,
      "row##": 5289,
      "gun##": 5290,
      "leaders##": 5291,
      "jesus##": 5292,
      "applied##": 5293,
      "week##": 5294,
      "content##": 5295,
      "invest": 5296,
      "ego##": 5297,
      "cy##": 5298,
      "course##": 5299,
      "ruled##": 5300,
      "burg##": 5301,
      "ria##": 5302,
      "peoples##": 5303,
      "idea##": 5304,
      "controlled##": 5305,
      "prominent##": 5306,
      ".:##": 5307,
      "od": 5308,
      "specif": 5309,
      "tuc": 5310,
      "basis##": 5311,
      "pread##": 5312,
      "widespread##": 5313,
      "going##": 5314,
      "gri": 5315,
      "decided##": 5316,
      "inated##": 5317,
      "find##": 5318,
      "places##": 5319,
      "secretary##": 5320,
      "uk": 5321,
      "phone##": 5322,
      "pho": 5323,
      "subst": 5324,
      "advant": 5325,
      "staf": 5326,
      "adel": 5327,
      "ferred##": 5328,
      "disease##": 5329,
      "aid##": 5330,
      "angel": 5331,
      "1990s##": 5332,
      "armenian##": 5333,
      "pa##": 5334,
      "format##": 5335,
      "top": 5336,
      "sales##": 5337,
      "chap": 5338,
      "loo": 5339,
      "weap": 5340,
      "albert##": 5341,
      "istics##": 5342,
      "location##": 5343,
      "officials##": 5344,
      "richard##": 5345,
      "award##": 5346,
      "spring##": 5347,
      "deli": 5348,
      "kish##": 5349,
      "holds##": 5350,
      "theatre##": 5351,
      "allows##": 5352,
      "argued##": 5353,
      "kings##": 5354,
      "mm##": 5355,
      "grew##": 5356,
      "ampton##": 5357,
      "contains##": 5358,
      "movi": 5359,
      "aves##": 5360,
      "joined##": 5361,
      "appear": 5362,
      "quick": 5363,
      "multiple##": 5364,
      "effective##": 5365,
      "65##": 5366,
      "tibetan##": 5367,
      "claim##": 5368,
      "aging##": 5369,
      "ieties##": 5370,
      "david##": 5371,
      "sa##": 5372,
      "property##": 5373,
      "difficult##": 5374,
      "noted##": 5375,
      "fail": 5376,
      "dan": 5377,
      "possi": 5378,
      "hard": 5379,
      "animal##": 5380,
      "doctr": 5381,
      "democratic##": 5382,
      "income##": 5383,
      "bronx##": 5384,
      "chicago##": 5385,
      "awar": 5386,
      "fel": 5387,
      "room##": 5388,
      "teen##": 5389,
      "delhi##": 5390,
      "cloth": 5391,
      "reason##": 5392,
      "house": 5393,
      "identified##": 5394,
      "beyond##": 5395,
      "ills##": 5396,
      "white": 5397,
      "eding##": 5398,
      "sively##": 5399,
      "fort##": 5400,
      "not": 5401,
      "continue##": 5402,
      "existence##": 5403,
      "pped##": 5404,
      "cells##": 5405,
      "navy##": 5406,
      "iran##": 5407,
      "antine##": 5408,
      "farm": 5409,
      "gained##": 5410,
      "stra": 5411,
      "cab": 5412,
      "hill##": 5413,
      "exclu": 5414,
      "second": 5415,
      "olympic##": 5416,
      "vote##": 5417,
      "star##": 5418,
      "whole##": 5419,
      "assum": 5420,
      "braz": 5421,
      "definition##": 5422,
      "purpose##": 5423,
      "antenna##": 5424,
      "sity##": 5425,
      "ending##": 5426,
      "assist": 5427,
      "ip##": 5428,
      "reven": 5429,
      "route##": 5430,
      "critical##": 5431,
      "mathematic": 5432,
      "ov": 5433,
      "every": 5434,
      "ash##": 5435,
      "hit##": 5436,
      "love##": 5437,
      "rules##": 5438,
      "inations##": 5439,
      "ert##": 5440,
      "jun": 5441,
      "ica##": 5442,
      "miami##": 5443,
      "believe##": 5444,
      "fer##": 5445,
      "thy##": 5446,
      "manch": 5447,
      "genetic##": 5448,
      "issues##": 5449,
      "bay##": 5450,
      "na": 5451,
      "artic": 5452,
      "itor##": 5453,
      "memory##": 5454,
      "ance": 5455,
      "six": 5456,
      "esis##": 5457,
      "efforts##": 5458,
      "32##": 5459,
      "vi##": 5460,
      "ita##": 5461,
      "older##": 5462,
      "alty##": 5463,
      "elled##": 5464,
      "product##": 5465,
      "collec": 5466,
      "compos": 5467,
      "matter##": 5468,
      "regular##": 5469,
      "dominant##": 5470,
      "southampton##": 5471,
      "quickly##": 5472,
      "consists##": 5473,
      "1960s##": 5474,
      "bann": 5475,
      "arist": 5476,
      "cently##": 5477,
      "decline##": 5478,
      "big##": 5479,
      "christian": 5480,
      "completed##": 5481,
      "psych": 5482,
      "m2##": 5483,
      "rates##": 5484,
      "poss": 5485,
      "prussia##": 5486,
      "host##": 5487,
      "rich##": 5488,
      "vere": 5489,
      "aying##": 5490,
      "methods##": 5491,
      "eria##": 5492,
      "decade##": 5493,
      "care": 5494,
      "organisms##": 5495,
      "destroyed##": 5496,
      "focus##": 5497,
      "infr": 5498,
      "she": 5499,
      "giving##": 5500,
      "valenci": 5501,
      "equip": 5502,
      "tters##": 5503,
      "clear##": 5504,
      "nuclear##": 5505,
      "chall": 5506,
      "mountain##": 5507,
      "sent": 5508,
      "mean##": 5509,
      "allo": 5510,
      "operating##": 5511,
      "buddhism##": 5512,
      "ku": 5513,
      "decision##": 5514,
      "derived##": 5515,
      "collection##": 5516,
      "astic##": 5517,
      "phal": 5518,
      "post": 5519,
      "recently##": 5520,
      "conv": 5521,
      "groun": 5522,
      "artist##": 5523,
      "hellen": 5524,
      "idol##": 5525,
      "generation##": 5526,
      "problem##": 5527,
      "differences##": 5528,
      "victory##": 5529,
      "appear##": 5530,
      "tucson##": 5531,
      "alp": 5532,
      "iron##": 5533,
      "uss": 5534,
      "note##": 5535,
      "staff##": 5536,
      "pro##": 5537,
      "cathe": 5538,
      "bill##": 5539,
      "frequently##": 5540,
      "doll": 5541,
      "eting##": 5542,
      "share##": 5543,
      "supply##": 5544,
      "officers##": 5545,
      "protection##": 5546,
      "switzer": 5547,
      "switzerland##": 5548,
      "kin": 5549,
      "playing##": 5550,
      "arily##": 5551,
      "instruments##": 5552,
      "greatest##": 5553,
      "challeng": 5554,
      "constitutional##": 5555,
      "cathedr": 5556,
      "ner": 5557,
      "addre": 5558,
      "except##": 5559,
      "minor##": 5560,
      "provides##": 5561,
      "deal##": 5562,
      "pressure##": 5563,
      "sovere": 5564,
      "ais": 5565,
      "shar": 5566,
      "tax##": 5567,
      "pas": 5568,
      "ty": 5569,
      "bloc": 5570,
      "diego##": 5571,
      "ticism##": 5572,
      "elections##": 5573,
      "beer##": 5574,
      "power": 5575,
      "folk##": 5576,
      "gir": 5577,
      "coast": 5578,
      "settlement##": 5579,
      "organizations##": 5580,
      "seattle##": 5581,
      "results##": 5582,
      "account##": 5583,
      "ising##": 5584,
      "dog##": 5585,
      "reve": 5586,
      "increasingly##": 5587,
      "anian##": 5588,
      "link##": 5589,
      "fields##": 5590,
      "racy##": 5591,
      "distinct##": 5592,
      "ography##": 5593,
      "tax": 5594,
      "approach##": 5595,
      "running##": 5596,
      "practices##": 5597,
      "player##": 5598,
      "licen": 5599,
      "care##": 5600,
      "ram": 5601,
      "cultures##": 5602,
      "nanjing##": 5603,
      "eve##": 5604,
      "round##": 5605,
      "bus##": 5606,
      "osis##": 5607,
      "capacity##": 5608,
      "say##": 5609,
      "1991##": 5610,
      "fla": 5611,
      "attribu": 5612,
      "tainment##": 5613,
      "occupi": 5614,
      "declin": 5615,
      "colonies##": 5616,
      "secondary##": 5617,
      "thers##": 5618,
      "phon": 5619,
      "letter##": 5620,
      "rebel": 5621,
      "continental##": 5622,
      "tting##": 5623,
      "consequ": 5624,
      "neg": 5625,
      "temperatures##": 5626,
      "heart##": 5627,
      "length##": 5628,
      "wr": 5629,
      "champion": 5630,
      "cardin": 5631,
      "views##": 5632,
      "florida##": 5633,
      "scre": 5634,
      "upper##": 5635,
      "dges##": 5636,
      "intended##": 5637,
      "combined##": 5638,
      "fe##": 5639,
      "herit": 5640,
      "occur##": 5641,
      "prevent##": 5642,
      "whitehead##": 5643,
      "composed##": 5644,
      "phase##": 5645,
      "develop##": 5646,
      "respectively##": 5647,
      "munici": 5648,
      "deta": 5649,
      "establishment##": 5650,
      "break##": 5651,
      "expanded##": 5652,
      "occupied##": 5653,
      "male##": 5654,
      "materials##": 5655,
      "enligh": 5656,
      "die##": 5657,
      "mac##": 5658,
      "gate##": 5659,
      "sh##": 5660,
      "enlighten": 5661,
      "zen": 5662,
      "blac": 5663,
      "py": 5664,
      "wise##": 5665,
      "internal##": 5666,
      "maxim": 5667,
      "phen": 5668,
      "wall##": 5669,
      "parti": 5670,
      "preci": 5671,
      "magazine##": 5672,
      "stream##": 5673,
      "heat##": 5674,
      "ae##": 5675,
      "allowing##": 5676,
      "lake##": 5677,
      "guar": 5678,
      "republican##": 5679,
      "track##": 5680,
      "christianity##": 5681,
      "tage##": 5682,
      "necessary##": 5683,
      "1990##": 5684,
      "dialects##": 5685,
      "bia##": 5686,
      "car##": 5687,
      "inal##": 5688,
      "carried##": 5689,
      "distingu": 5690,
      "unit##": 5691,
      "points##": 5692,
      "issued##": 5693,
      "las": 5694,
      "rist": 5695,
      "cut##": 5696,
      "byz": 5697,
      "recognized##": 5698,
      "armenia##": 5699,
      "satell": 5700,
      "tile##": 5701,
      "enough##": 5702,
      "sciences##": 5703,
      "sector##": 5704,
      "95##": 5705,
      "candi": 5706,
      "match##": 5707,
      "180": 5708,
      "offered##": 5709,
      "environment##": 5710,
      "pay##": 5711,
      "usb##": 5712,
      "serving##": 5713,
      "speech##": 5714,
      "ti##": 5715,
      "remaining##": 5716,
      "alled##": 5717,
      "anthropolog": 5718,
      "fs##": 5719,
      "lo##": 5720,
      "qing##": 5721,
      "tations##": 5722,
      "prussian##": 5723,
      "cell##": 5724,
      "model": 5725,
      "shows##": 5726,
      "azi##": 5727,
      "naval##": 5728,
      "intellig": 5729,
      "ga##": 5730,
      "charge##": 5731,
      "jec": 5732,
      "iter": 5733,
      "lee##": 5734,
      "intell": 5735,
      "planned##": 5736,
      "bapti": 5737,
      "reign##": 5738,
      "shown##": 5739,
      "cerem": 5740,
      "expected##": 5741,
      "poor##": 5742,
      "positions##": 5743,
      "ode##": 5744,
      "developing##": 5745,
      "dy": 5746,
      "raised##": 5747,
      "sax": 5748,
      "organized##": 5749,
      "burke##": 5750,
      "holy##": 5751,
      "accepted##": 5752,
      "his": 5753,
      "peninsul": 5754,
      "ella##": 5755,
      "egyptian##": 5756,
      "eous##": 5757,
      "arsen": 5758,
      "appar": 5759,
      "southeast##": 5760,
      "captured##": 5761,
      "courts##": 5762,
      "bor##": 5763,
      "je": 5764,
      "worked##": 5765,
      "ored##": 5766,
      "faith##": 5767,
      "railway##": 5768,
      ".)##": 5769,
      "abe": 5770,
      "nes##": 5771,
      "master##": 5772,
      "ca##": 5773,
      "hosp": 5774,
      "alexander##": 5775,
      "director##": 5776,
      "di##": 5777,
      "sir##": 5778,
      "cz": 5779,
      "proce": 5780,
      "abad##": 5781,
      "greeks##": 5782,
      "recording##": 5783,
      "iss##": 5784,
      "lit##": 5785,
      "regim": 5786,
      "standards##": 5787,
      "nd##": 5788,
      "yment##": 5789,
      "makes##": 5790,
      "common": 5791,
      "darwin##": 5792,
      "medicine##": 5793,
      "eli##": 5794,
      "volum": 5795,
      "defense##": 5796,
      "bol": 5797,
      "traff": 5798,
      "los##": 5799,
      "collap": 5800,
      "tour##": 5801,
      "absor": 5802,
      "freedom##": 5803,
      "cum": 5804,
      "sought##": 5805,
      "plays##": 5806,
      "effec": 5807,
      "overall##": 5808,
      "reduce##": 5809,
      "turned##": 5810,
      "visit##": 5811,
      "convention##": 5812,
      "done##": 5813,
      "tower##": 5814,
      "motor##": 5815,
      "tube##": 5816,
      "stored##": 5817,
      "contrast##": 5818,
      "featured##": 5819,
      "inde": 5820,
      "permanent##": 5821,
      "estonia##": 5822,
      "eful##": 5823,
      "icity##": 5824,
      "allies##": 5825,
      "gall": 5826,
      "relay##": 5827,
      "ason": 5828,
      "academic##": 5829,
      "fa##": 5830,
      "emy##": 5831,
      "correc": 5832,
      "autonom": 5833,
      "ania##": 5834,
      "pop##": 5835,
      "tele": 5836,
      "represented##": 5837,
      "colonial##": 5838,
      "adelphi": 5839,
      "boun": 5840,
      "circu": 5841,
      "ayed##": 5842,
      "kilom": 5843,
      "austria##": 5844,
      "ah": 5845,
      "kh": 5846,
      "contain##": 5847,
      "mad##": 5848,
      "poland##": 5849,
      "australian##": 5850,
      "confeder": 5851,
      "antarc": 5852,
      "33##": 5853,
      "tar": 5854,
      "conf": 5855,
      "literary##": 5856,
      "broadcast##": 5857,
      "00": 5858,
      "78##": 5859,
      "big": 5860,
      "clar": 5861,
      "minim": 5862,
      "channel##": 5863,
      "ipod##": 5864,
      "gain##": 5865,
      "impact##": 5866,
      "mari": 5867,
      "genes##": 5868,
      "versity##": 5869,
      "nutri": 5870,
      "hem": 5871,
      "tili": 5872,
      "reasons##": 5873,
      "lam##": 5874,
      "hap": 5875,
      "tuval": 5876,
      "valent##": 5877,
      "communist##": 5878,
      "importance##": 5879,
      "graduate##": 5880,
      "adelphia##": 5881,
      "subsequent##": 5882,
      "flight##": 5883,
      "phot": 5884,
      "refused##": 5885,
      "onian##": 5886,
      "perio": 5887,
      "learning##": 5888,
      "califor": 5889,
      "sites##": 5890,
      "opposed##": 5891,
      "advanced##": 5892,
      "wea": 5893,
      "governments##": 5894,
      "emerged##": 5895,
      "diversity##": 5896,
      "corru": 5897,
      "tom##": 5898,
      "academy##": 5899,
      "opposition##": 5900,
      "marine##": 5901,
      "counter": 5902,
      "factors##": 5903,
      "philadelphia##": 5904,
      "extended##": 5905,
      "attempted##": 5906,
      "55##": 5907,
      "ki": 5908,
      "listed##": 5909,
      "entered##": 5910,
      "letters##": 5911,
      "bce##": 5912,
      "fas": 5913,
      "sin": 5914,
      "christ##": 5915,
      "hic": 5916,
      "lies##": 5917,
      "bird##": 5918,
      "aches##": 5919,
      "ibn##": 5920,
      "ost": 5921,
      "wel": 5922,
      "presby": 5923,
      "cub": 5924,
      "protestant##": 5925,
      "hydrogen##": 5926,
      "yers##": 5927,
      "dispu": 5928,
      "passeng": 5929,
      "comes##": 5930,
      "abol": 5931,
      "rail##": 5932,
      "peninsula##": 5933,
      "weeks##": 5934,
      "rough": 5935,
      "implem": 5936,
      "unity##": 5937,
      "aching##": 5938,
      "punk##": 5939,
      "goal##": 5940,
      "allied##": 5941,
      "rol": 5942,
      "prepar": 5943,
      "porting##": 5944,
      "ums##": 5945,
      "earthquake##": 5946,
      "far": 5947,
      "tas": 5948,
      "users##": 5949,
      "explo": 5950,
      "risk##": 5951,
      "christians##": 5952,
      "article##": 5953,
      "unlike##": 5954,
      "commission##": 5955,
      "orientation##": 5956,
      "meant##": 5957,
      "closed##": 5958,
      "vent": 5959,
      "arrang": 5960,
      "christ": 5961,
      "fifth##": 5962,
      "device##": 5963,
      "traditionally##": 5964,
      "tito##": 5965,
      "ales##": 5966,
      "near": 5967,
      "molec": 5968,
      "conference##": 5969,
      "moving##": 5970,
      "direction##": 5971,
      "antibio": 5972,
      "subsequently##": 5973,
      "600##": 5974,
      "things##": 5975,
      "senate##": 5976,
      "colony##": 5977,
      "seasons##": 5978,
      "defeat##": 5979,
      "mandolin##": 5980,
      "sets##": 5981,
      "pron": 5982,
      "blood##": 5983,
      "decades##": 5984,
      "cape##": 5985,
      "fighting##": 5986,
      "visi": 5987,
      "liberal##": 5988,
      "stores##": 5989,
      "predic": 5990,
      "decor": 5991,
      "influential##": 5992,
      "eigh": 5993,
      "migration##": 5994,
      "regarded##": 5995,
      "call##": 5996,
      "lingu": 5997,
      "conclud": 5998,
      "understanding##": 5999,
      "intelligence##": 6000,
      "resources##": 6001,
      "machine##": 6002,
      "slaves##": 6003,
      "paid##": 6004,
      "notably##": 6005,
      "spon": 6006,
      "essor##": 6007,
      "bun": 6008,
      "dau": 6009,
      "reach##": 6010,
      "exchange##": 6011,
      "magne": 6012,
      "extrem": 6013,
      "cold##": 6014,
      "communication##": 6015,
      "wave##": 6016,
      "opening##": 6017,
      "apoll": 6018,
      "presbyter": 6019,
      "northwestern##": 6020,
      "appearance##": 6021,
      "predat": 6022,
      "stru": 6023,
      "carni": 6024,
      "extensive##": 6025,
      "richmond##": 6026,
      "greatly##": 6027,
      "transmit": 6028,
      "components##": 6029,
      "eliz": 6030,
      "electro": 6031,
      "1997##": 6032,
      "entertainment##": 6033,
      "dal": 6034,
      "fal": 6035,
      "monarch": 6036,
      "1989##": 6037,
      "headquarters##": 6038,
      "prote": 6039,
      "offer##": 6040,
      "enlightenment##": 6041,
      "utes##": 6042,
      "meeting##": 6043,
      "elberg##": 6044,
      "texts##": 6045,
      "za##": 6046,
      "deter": 6047,
      "turkish##": 6048,
      "affairs##": 6049,
      "dominated##": 6050,
      "2nd##": 6051,
      "64##": 6052,
      "pil": 6053,
      "tus##": 6054,
      "cred": 6055,
      "damage##": 6056,
      "selling##": 6057,
      "tel##": 6058,
      "forc": 6059,
      "ellow##": 6060,
      "evolution##": 6061,
      "suffered##": 6062,
      "scrip": 6063,
      "branch##": 6064,
      "enco": 6065,
      "conc": 6066,
      "simple##": 6067,
      "sex##": 6068,
      "structures##": 6069,
      "ysis##": 6070,
      "simply##": 6071,
      "ood": 6072,
      "tribes##": 6073,
      "38##": 6074,
      "44##": 6075,
      "enna##": 6076,
      "phy": 6077,
      "hospital##": 6078,
      "48##": 6079,
      "elim": 6080,
      "promis": 6081,
      "qual": 6082,
      "toward##": 6083,
      "probably##": 6084,
      "california##": 6085,
      "towns##": 6086,
      "agency##": 6087,
      "copy": 6088,
      "autom": 6089,
      "spielberg##": 6090,
      "etry##": 6091,
      "image##": 6092,
      "teenth##": 6093,
      "icians##": 6094,
      "gather": 6095,
      "mes": 6096,
      "sar": 6097,
      "achieved##": 6098,
      "viewed##": 6099,
      "erly##": 6100,
      "you": 6101,
      "politics##": 6102,
      "banks##": 6103,
      "\"),##": 6104,
      "ira": 6105,
      "opport": 6106,
      "exer": 6107,
      "tioned##": 6108,
      "17th##": 6109,
      "anism##": 6110,
      "struction##": 6111,
      "exter": 6112,
      "custom": 6113,
      "ancestry##": 6114,
      "elizabe": 6115,
      "vin": 6116,
      "witn": 6117,
      "tra##": 6118,
      "intellec": 6119,
      "any": 6120,
      "ographic##": 6121,
      "broadca": 6122,
      "environmental##": 6123,
      "rain": 6124,
      "married##": 6125,
      "ninten": 6126,
      "nintendo##": 6127,
      "virgin": 6128,
      "workers##": 6129,
      "instance##": 6130,
      "clothing##": 6131,
      "dialect##": 6132,
      "ro##": 6133,
      "cm##": 6134,
      "mayor##": 6135,
      "path": 6136,
      "constructed##": 6137,
      "function##": 6138,
      "extinc": 6139,
      "alternative##": 6140,
      "hispan": 6141,
      "alas": 6142,
      "concep": 6143,
      "housing##": 6144,
      "crown##": 6145,
      "fell##": 6146,
      "sust": 6147,
      "after": 6148,
      "treatment##": 6149,
      "56##": 6150,
      "mine##": 6151,
      "zo": 6152,
      "pursu": 6153,
      "16th##": 6154,
      "receive##": 6155,
      "modi": 6156,
      "protect##": 6157,
      "authorities##": 6158,
      "haye": 6159,
      "somali##": 6160,
      "cathedral##": 6161,
      "german": 6162,
      "1999##": 6163,
      "movements##": 6164,
      "muslims##": 6165,
      "tol": 6166,
      "attention##": 6167,
      "mod": 6168,
      "edward##": 6169,
      "complet": 6170,
      "settled##": 6171,
      "sansk": 6172,
      "36##": 6173,
      "99##": 6174,
      "propos": 6175,
      "drug##": 6176,
      "temple##": 6177,
      "stop##": 6178,
      "hyder": 6179,
      "isol": 6180,
      "aband": 6181,
      "fleet##": 6182,
      "ero": 6183,
      "disci": 6184,
      "unique##": 6185,
      "42##": 6186,
      "sey##": 6187,
      "crime##": 6188,
      "rain##": 6189,
      "ceived##": 6190,
      "woman##": 6191,
      "whereas##": 6192,
      "ky##": 6193,
      "drive##": 6194,
      "roughly##": 6195,
      "maintained##": 6196,
      "prece": 6197,
      "showed##": 6198,
      "1992##": 6199,
      "hayek##": 6200,
      "desert##": 6201,
      "positive##": 6202,
      "slavic##": 6203,
      "refer##": 6204,
      "discovery##": 6205,
      "significantly##": 6206,
      "administrative##": 6207,
      "effort##": 6208,
      "incorporated##": 6209,
      "ws##": 6210,
      "closely##": 6211,
      "affected##": 6212,
      "leadership##": 6213,
      "completely##": 6214,
      "sl": 6215,
      "coming##": 6216,
      "santa##": 6217,
      "values##": 6218,
      "vehic": 6219,
      "weapons##": 6220,
      "bis": 6221,
      "qur": 6222,
      "application##": 6223,
      "asser": 6224,
      "weight##": 6225,
      "ville##": 6226,
      "launch##": 6227,
      "titles##": 6228,
      "tives##": 6229,
      "goti": 6230,
      "tennes": 6231,
      "agriculture##": 6232,
      "sanskrit##": 6233,
      "ordered##": 6234,
      "negoti": 6235,
      "arms##": 6236,
      "patent##": 6237,
      "plans##": 6238,
      "tum##": 6239,
      "gene##": 6240,
      "hund": 6241,
      "ray##": 6242,
      "creating##": 6243,
      "maintain##": 6244,
      "rapid##": 6245,
      "alliance##": 6246,
      "characteristics##": 6247,
      "edul": 6248,
      "inn": 6249,
      "ulty##": 6250,
      "178": 6251,
      "floor##": 6252,
      "fbi##": 6253,
      "aster##": 6254,
      "huan##": 6255,
      "traditions##": 6256,
      "libya##": 6257,
      "acted##": 6258,
      "web": 6259,
      "treati": 6260,
      "applications##": 6261,
      "connected##": 6262,
      "aim": 6263,
      "writers##": 6264,
      "initial##": 6265,
      "engineering##": 6266,
      "removed##": 6267,
      "actually##": 6268,
      "adult##": 6269,
      "frequency##": 6270,
      "evolved##": 6271,
      "korean##": 6272,
      "150##": 6273,
      "cd##": 6274,
      "studio##": 6275,
      "mitted##": 6276,
      "negative##": 6277,
      "bure": 6278,
      "cli": 6279,
      "dipl": 6280,
      "persian##": 6281,
      "prus##": 6282,
      "cyprus##": 6283,
      "ranean##": 6284,
      "existing##": 6285,
      "marriage##": 6286,
      "wol": 6287,
      "schedul": 6288,
      "1998##": 6289,
      "arabic##": 6290,
      "scotland##": 6291,
      "arsenal##": 6292,
      "ee##": 6293,
      "hab": 6294,
      "signal##": 6295,
      "dame##": 6296,
      "easi": 6297,
      "ki##": 6298,
      "pes": 6299,
      "commis": 6300,
      "trop": 6301,
      "gradually##": 6302,
      "surve": 6303,
      "barcel": 6304,
      "describe##": 6305,
      "byzantine##": 6306,
      "sor##": 6307,
      "establish##": 6308,
      "target##": 6309,
      "mud": 6310,
      "innov": 6311,
      "element##": 6312,
      "renew": 6313,
      "silver##": 6314,
      "dor": 6315,
      "km2##": 6316,
      "pass##": 6317,
      "doms##": 6318,
      "ultimately##": 6319,
      "insp": 6320,
      "eness##": 6321,
      "accur": 6322,
      "follow##": 6323,
      "provinces##": 6324,
      "tennessee##": 6325,
      "barcelona##": 6326,
      "kath": 6327,
      "traffic##": 6328,
      "maced": 6329,
      "tism##": 6330,
      "revolutionary##": 6331,
      "ri##": 6332,
      "observ": 6333,
      "presidential##": 6334,
      "mexican##": 6335,
      "analysis##": 6336,
      "virginia##": 6337,
      "depic": 6338,
      "gramm": 6339,
      "scientists##": 6340,
      "diplom": 6341,
      "feet##": 6342,
      "juris": 6343,
      "daugh": 6344,
      "34##": 6345,
      "inhabit": 6346,
      "alle": 6347,
      "rose##": 6348,
      "advantage##": 6349,
      "kilomet": 6350,
      "powerful##": 6351,
      "mom": 6352,
      "eries##": 6353,
      "revi": 6354,
      "izing##": 6355,
      "1994##": 6356,
      "equi": 6357,
      "corporation##": 6358,
      "manufacturing##": 6359,
      "sli": 6360,
      "ror##": 6361,
      "icial##": 6362,
      "enting##": 6363,
      "newly##": 6364,
      "hur": 6365,
      "wanted##": 6366,
      "thr": 6367,
      "equal##": 6368,
      "awarded##": 6369,
      "porters##": 6370,
      "depending##": 6371,
      "1950s##": 6372,
      "programm": 6373,
      "bands##": 6374,
      "rd##": 6375,
      "gran": 6376,
      "keep##": 6377,
      "refers##": 6378,
      "classes##": 6379,
      "reduc": 6380,
      "refu": 6381,
      "mediter": 6382,
      "principle##": 6383,
      "mediterranean##": 6384,
      "recomm": 6385,
      "duke##": 6386,
      "equipment##": 6387,
      "tom": 6388,
      "seg": 6389,
      "classified##": 6390,
      "surrounding##": 6391,
      "elizabeth##": 6392,
      "isation##": 6393,
      "strength##": 6394,
      "substanti": 6395,
      "happen": 6396,
      "hyderabad##": 6397,
      "37##": 6398,
      "online##": 6399,
      "price##": 6400,
      "newspaper##": 6401,
      "texas##": 6402,
      "vacu": 6403,
      "zing##": 6404,
      "degrees##": 6405,
      "dp##": 6406,
      "gest##": 6407,
      "tuvalu##": 6408,
      "affili": 6409,
      "ware##": 6410,
      "glaci": 6411,
      "determined##": 6412,
      "mess": 6413,
      "schwar": 6414,
      "sign##": 6415,
      "ulation##": 6416,
      "formerly##": 6417,
      "visited##": 6418,
      "reading##": 6419,
      "cav": 6420,
      "rejected##": 6421,
      "orche": 6422,
      "dian##": 6423,
      "stances##": 6424,
      "situation##": 6425,
      "orchestr": 6426,
      "tab": 6427,
      "tree##": 6428,
      "pak": 6429,
      "dedic": 6430,
      "denom": 6431,
      "lights##": 6432,
      "suggested##": 6433,
      "journ": 6434,
      "distribution##": 6435,
      "apollo##": 6436,
      "ball": 6437,
      "crow": 6438,
      "policies##": 6439,
      "bin": 6440,
      "reform##": 6441,
      "thetic##": 6442,
      "tried##": 6443,
      "critics##": 6444,
      "teaching##": 6445,
      "hundred##": 6446,
      "cable##": 6447,
      "seas##": 6448,
      "shared##": 6449,
      "credi": 6450,
      "super##": 6451,
      "kept##": 6452,
      "travel##": 6453,
      "affir": 6454,
      "800##": 6455,
      "operate##": 6456,
      "drin": 6457,
      "cau": 6458,
      "islam##": 6459,
      "bbc##": 6460,
      "gothic##": 6461,
      "carbon##": 6462,
      "popularity##": 6463,
      "swiss##": 6464,
      "techniques##": 6465,
      "heritage##": 6466,
      "ane##": 6467,
      "carry##": 6468,
      "safe": 6469,
      "exerc": 6470,
      "fought##": 6471,
      "apar": 6472,
      "lad": 6473,
      "member": 6474,
      "technical##": 6475,
      "claims##": 6476,
      "eli": 6477,
      "consul": 6478,
      "leaving##": 6479,
      "architectural##": 6480,
      "hammad##": 6481,
      "zeal": 6482,
      "mosaic##": 6483,
      "catalan##": 6484,
      "satellite##": 6485,
      "discipl": 6486,
      "tai": 6487,
      "byu##": 6488,
      "ric##": 6489,
      "egger##": 6490,
      "buddhist##": 6491,
      "notre##": 6492,
      "bishop##": 6493,
      "inspired##": 6494,
      "\").##": 6495,
      "hus": 6496,
      "lac": 6497,
      "ton": 6498,
      "eph##": 6499,
      "joseph##": 6500,
      "operated##": 6501,
      "philip##": 6502,
      "succe": 6503,
      "employed##": 6504,
      "behavior##": 6505,
      "ann##": 6506,
      "perform##": 6507,
      "build##": 6508,
      "gations##": 6509,
      "pc##": 6510,
      "rural##": 6511,
      "xbox##": 6512,
      "arian##": 6513,
      "ured##": 6514,
      "comics##": 6515,
      "biological##": 6516,
      "electrical##": 6517,
      "zenegger##": 6518,
      "schwarzenegger##": 6519,
      "nas": 6520,
      "winning##": 6521,
      "extent##": 6522,
      "49##": 6523,
      "haps##": 6524,
      "bled##": 6525,
      "objects##": 6526,
      "concert##": 6527,
      "ino": 6528,
      "leges##": 6529,
      "heavily##": 6530,
      "merg": 6531,
      "1945##": 6532,
      "epis": 6533,
      "grounds##": 6534,
      "pping##": 6535,
      "til": 6536,
      "ata##": 6537,
      "chos": 6538,
      "day": 6539,
      "trading##": 6540,
      "hou##": 6541,
      "analy": 6542,
      "mes##": 6543,
      "atom": 6544,
      "hael##": 6545,
      "sport##": 6546,
      "dated##": 6547,
      "spent##": 6548,
      "worth##": 6549,
      "contact##": 6550,
      "bacterial##": 6551,
      "double##": 6552,
      "essential##": 6553,
      "doctrine##": 6554,
      "quran##": 6555,
      "oted##": 6556,
      "other": 6557,
      "pag": 6558,
      "selection##": 6559,
      "haz": 6560,
      "theories##": 6561,
      "perhaps##": 6562,
      "philip": 6563,
      "vs##": 6564,
      "progres": 6565,
      "oppos": 6566,
      "week": 6567,
      "require##": 6568,
      "samur": 6569,
      "conservative##": 6570,
      "5th##": 6571,
      "bow": 6572,
      "gar##": 6573,
      "mar##": 6574,
      "inside##": 6575,
      "proved##": 6576,
      "storage##": 6577,
      "proper##": 6578,
      "join##": 6579,
      "relative##": 6580,
      "reforms##": 6581,
      "phere##": 6582,
      "pressed##": 6583,
      "acquired##": 6584,
      "brother##": 6585,
      "typical##": 6586,
      "neutr": 6587,
      "roy##": 6588,
      "expos": 6589,
      "tery##": 6590,
      "regarding##": 6591,
      "failure##": 6592,
      "hatt": 6593,
      "yst": 6594,
      "anglo##": 6595,
      "transport##": 6596,
      "ff##": 6597,
      "raj": 6598,
      "colleges##": 6599,
      "georgi": 6600,
      "translation##": 6601,
      "immediately##": 6602,
      "review##": 6603,
      "onto##": 6604,
      "statis": 6605,
      "ides##": 6606,
      "speakers##": 6607,
      "ught##": 6608,
      "pedi": 6609,
      "loy": 6610,
      "facilities##": 6611,
      "ure": 6612,
      "runs##": 6613,
      "59##": 6614,
      "ssed##": 6615,
      "accompan": 6616,
      "advoc": 6617,
      "represent##": 6618,
      "ologies##": 6619,
      "gosla": 6620,
      "ps": 6621,
      "vision##": 6622,
      "historically##": 6623,
      "figures##": 6624,
      "itable##": 6625,
      "contrac": 6626,
      "versions##": 6627,
      "idly##": 6628,
      "historians##": 6629,
      "educational##": 6630,
      "mandu##": 6631,
      "commonwealth##": 6632,
      "kathmandu##": 6633,
      "yan##": 6634,
      "oul": 6635,
      "fru": 6636,
      "1996##": 6637,
      "athle": 6638,
      "freem": 6639,
      "styles##": 6640,
      "improved##": 6641,
      "alaska##": 6642,
      "hour##": 6643,
      "viet": 6644,
      "1940##": 6645,
      "conducted##": 6646,
      "85##": 6647,
      "itre": 6648,
      "ato##": 6649,
      "producing##": 6650,
      "mix": 6651,
      "kingdoms##": 6652,
      "properties##": 6653,
      "ax": 6654,
      "introduction##": 6655,
      "comcast##": 6656,
      "broke##": 6657,
      "microsoft##": 6658,
      "expensive##": 6659,
      "samurai##": 6660,
      "39##": 6661,
      "aer": 6662,
      "va": 6663,
      "formally##": 6664,
      "transition##": 6665,
      "menti": 6666,
      "ali##": 6667,
      "ope##": 6668,
      "ashken": 6669,
      "sance##": 6670,
      "romans##": 6671,
      "user##": 6672,
      "manhatt": 6673,
      "bles##": 6674,
      "providing##": 6675,
      "yugosla": 6676,
      "aissance##": 6677,
      "41##": 6678,
      "nit": 6679,
      "phas": 6680,
      "dram": 6681,
      "43##": 6682,
      "tan##": 6683,
      "reserve##": 6684,
      "diverse##": 6685,
      "gust": 6686,
      "mount##": 6687,
      "console##": 6688,
      "lun": 6689,
      "nether": 6690,
      "density##": 6691,
      "threat": 6692,
      "movie##": 6693,
      "incid": 6694,
      "aling##": 6695,
      "sub##": 6696,
      "split##": 6697,
      "prize##": 6698,
      "approved##": 6699,
      "transfer##": 6700,
      "attacked##": 6701,
      "92##": 6702,
      "deep##": 6703,
      "spar": 6704,
      "essed##": 6705,
      "prising##": 6706,
      "constant##": 6707,
      "dang": 6708,
      "less": 6709,
      "ni##": 6710,
      "parents##": 6711,
      "presented##": 6712,
      "germans##": 6713,
      "anthropology##": 6714,
      "deplo": 6715,
      "wild": 6716,
      "takes##": 6717,
      "employe": 6718,
      "copyright##": 6719,
      "thesis##": 6720,
      "ald##": 6721,
      "discrimin": 6722,
      "1988##": 6723,
      "patri": 6724,
      "strugg": 6725,
      "youtube##": 6726,
      "46##": 6727,
      "reports##": 6728,
      "extremely##": 6729,
      "dan##": 6730,
      "ral": 6731,
      "question##": 6732,
      "ky": 6733,
      "van##": 6734,
      "enter##": 6735,
      "phr": 6736,
      "ells##": 6737,
      "quarter##": 6738,
      "contributed##": 6739,
      "serious##": 6740,
      "rapidly##": 6741,
      "bush##": 6742,
      "inhabitants##": 6743,
      "zealand##": 6744,
      "%.##": 6745,
      "66##": 6746,
      "bei": 6747,
      "improv": 6748,
      "wife##": 6749,
      "brown##": 6750,
      "arrived##": 6751,
      "chosen##": 6752,
      "4th##": 6753,
      "cer##": 6754,
      "gan##": 6755,
      "managed##": 6756,
      "tica##": 6757,
      "factor##": 6758,
      "offices##": 6759,
      "commander##": 6760,
      "alone##": 6761,
      "encing##": 6762,
      "attempts##": 6763,
      "declined##": 6764,
      "reta": 6765,
      "oral##": 6766,
      "confir": 6767,
      "turkey##": 6768,
      "drew##": 6769,
      "20s##": 6770,
      "ician##": 6771,
      "lodge##": 6772,
      "consider##": 6773,
      "nigeria##": 6774,
      "11": 6775,
      "3rd##": 6776,
      "prey##": 6777,
      "cents##": 6778,
      "castle##": 6779,
      "orders##": 6780,
      "successfully##": 6781,
      "concerns##": 6782,
      "joint##": 6783,
      "shoo": 6784,
      "justice##": 6785,
      "marshall##": 6786,
      "vacuum##": 6787,
      "alco": 6788,
      "object##": 6789,
      "freder": 6790,
      "novel##": 6791,
      "career##": 6792,
      "manhattan##": 6793,
      "8th##": 6794,
      "door##": 6795,
      "withdra": 6796,
      "belief##": 6797,
      "maximum##": 6798,
      "jam": 6799,
      "lives##": 6800,
      "genoc": 6801,
      "voltage##": 6802,
      "labor": 6803,
      "ur##": 6804,
      "component##": 6805,
      "revenue##": 6806,
      "ko": 6807,
      "res": 6808,
      "meet##": 6809,
      "electronic##": 6810,
      "employment##": 6811,
      "relationships##": 6812,
      "73##": 6813,
      "astr": 6814,
      "wan##": 6815,
      "hip##": 6816,
      "charle": 6817,
      "vast##": 6818,
      "schem": 6819,
      "output##": 6820,
      "elevator##": 6821,
      "76##": 6822,
      "stal": 6823,
      "strategy##": 6824,
      "sony##": 6825,
      "tia##": 6826,
      "och": 6827,
      "zi": 6828,
      "athan": 6829,
      "ibm##": 6830,
      "circum": 6831,
      "selec": 6832,
      "eled##": 6833,
      "responsi": 6834,
      "eritre": 6835,
      "nept": 6836,
      "green": 6837,
      "ishes##": 6838,
      "measures##": 6839,
      "czech##": 6840,
      "pm##": 6841,
      "pel": 6842,
      "peak##": 6843,
      "slave##": 6844,
      "functions##": 6845,
      "golden##": 6846,
      "brazil##": 6847,
      "du##": 6848,
      "officer##": 6849,
      "occurs##": 6850,
      "jurisdic": 6851,
      "etary##": 6852,
      "safety##": 6853,
      "91##": 6854,
      "1970##": 6855,
      "achiev": 6856,
      "63##": 6857,
      "lis": 6858,
      "ults##": 6859,
      "armies##": 6860,
      "fts##": 6861,
      "rhy": 6862,
      "spac": 6863,
      "mort": 6864,
      "bermud": 6865,
      "bill": 6866,
      "experienced##": 6867,
      "neumann##": 6868,
      "threat##": 6869,
      "bou": 6870,
      "alleg": 6871,
      "taught##": 6872,
      "1995##": 6873,
      "infec": 6874,
      "friend": 6875,
      "estonian##": 6876,
      "avoid##": 6877,
      "roads##": 6878,
      "exce": 6879,
      "converted##": 6880,
      "nearby##": 6881,
      "external##": 6882,
      "veg": 6883,
      "causes##": 6884,
      "races##": 6885,
      "friends##": 6886,
      "tourism##": 6887,
      "gym": 6888,
      "rif": 6889,
      "ja##": 6890,
      "beau": 6891,
      "wear##": 6892,
      "inging##": 6893,
      "guns##": 6894,
      "credit##": 6895,
      "bermuda##": 6896,
      "bury##": 6897,
      "valencia##": 6898,
      "intellectual##": 6899,
      "kill": 6900,
      "matches##": 6901,
      "thur": 6902,
      "ulated##": 6903,
      "shel": 6904,
      "fundam": 6905,
      "cos": 6906,
      "bition##": 6907,
      "ancest": 6908,
      "coastal##": 6909,
      "aks##": 6910,
      "vit": 6911,
      "divine##": 6912,
      "michael##": 6913,
      "plies##": 6914,
      "1950##": 6915,
      "muhammad##": 6916,
      "communications##": 6917,
      "representatives##": 6918,
      "carnival##": 6919,
      "dedicated##": 6920,
      "mentioned##": 6921,
      "collabor": 6922,
      "revealed##": 6923,
      "68##": 6924,
      "hind": 6925,
      "legi": 6926,
      "succ": 6927,
      "circul": 6928,
      "water": 6929,
      "investment##": 6930,
      "stood##": 6931,
      "northwest##": 6932,
      "fashi": 6933,
      "gdp##": 6934,
      "ji##": 6935,
      "enjo": 6936,
      "asphal": 6937,
      "entirely##": 6938,
      "alexand": 6939,
      "agricultural##": 6940,
      "alties##": 6941,
      "piano##": 6942,
      "audience##": 6943,
      "counter##": 6944,
      "consist": 6945,
      "suffici": 6946,
      "industries##": 6947,
      "continues##": 6948,
      "udes##": 6949,
      "boys##": 6950,
      "restaur": 6951,
      "alum": 6952,
      "ign": 6953,
      "streets##": 6954,
      "research": 6955,
      "obli": 6956,
      "pc": 6957,
      "replac": 6958,
      "projects##": 6959,
      "etc##": 6960,
      "archae": 6961,
      "goods##": 6962,
      "immigrants##": 6963,
      "emphas": 6964,
      "ulate##": 6965,
      "line": 6966,
      "fare##": 6967,
      "pool##": 6968,
      "lions##": 6969,
      "kill##": 6970,
      "chron": 6971,
      "transportation##": 6972,
      "corruption##": 6973,
      "clin": 6974,
      "universe##": 6975,
      "grand": 6976,
      "grade##": 6977,
      "ministry##": 6978,
      "57##": 6979,
      "eing##": 6980,
      "whe": 6981,
      "enty##": 6982,
      "invented##": 6983,
      "testing##": 6984,
      "critici": 6985,
      "script##": 6986,
      "page##": 6987,
      "eld##": 6988,
      "emer": 6989,
      "iranian##": 6990,
      "capable##": 6991,
      "1930s##": 6992,
      "edition##": 6993,
      "lers##": 6994,
      "hua##": 6995,
      "hundre": 6996,
      "copies##": 6997,
      "institution##": 6998,
      "12th##": 6999,
      "principles##": 7000,
      "tap": 7001,
      "prehen": 7002,
      "cubs##": 7003,
      "severe##": 7004,
      "achieve##": 7005,
      "volume##": 7006,
      "weather##": 7007,
      "hong##": 7008,
      "ris##": 7009,
      "reference##": 7010,
      "electricity##": 7011,
      "drugs##": 7012,
      "charleston##": 7013,
      ",[##": 7014,
      "beijing##": 7015,
      "98##": 7016,
      "metr": 7017,
      "annually##": 7018,
      "germanic##": 7019,
      "zhou##": 7020,
      "dead##": 7021,
      "marks##": 7022,
      "grow##": 7023,
      "russians##": 7024,
      "ius##": 7025,
      "rhe": 7026,
      "secu": 7027,
      "offen": 7028,
      "profit##": 7029,
      "lighting##": 7030,
      "neptune##": 7031,
      "snow##": 7032,
      "speak##": 7033,
      "legislation##": 7034,
      "pakistan##": 7035,
      "cin": 7036,
      "require": 7037,
      "combat##": 7038,
      "markets##": 7039,
      "phenom": 7040,
      "fish##": 7041,
      "unic": 7042,
      "coal": 7043,
      "demand##": 7044,
      "directed##": 7045,
      "eigh##": 7046,
      "princess##": 7047,
      "processes##": 7048,
      "genocide##": 7049,
      "%)##": 7050,
      "yl##": 7051,
      "onia##": 7052,
      "distinction##": 7053,
      "actual##": 7054,
      "imon##": 7055,
      "forest##": 7056,
      "specifically##": 7057,
      "visible##": 7058,
      "opera##": 7059,
      "changing##": 7060,
      "ame": 7061,
      "mind##": 7062,
      "societies##": 7063,
      "scen": 7064,
      "multi##": 7065,
      "expressed##": 7066,
      "netherlands##": 7067,
      "ege##": 7068,
      "ix##": 7069,
      "pati": 7070,
      "dish##": 7071,
      "choice##": 7072,
      "strategic##": 7073,
      "championship##": 7074,
      "fight##": 7075,
      "normal##": 7076,
      "producer##": 7077,
      "hundreds##": 7078,
      "cend": 7079,
      "ran##": 7080,
      "opini": 7081,
      "label##": 7082,
      "supporters##": 7083,
      "rup": 7084,
      "publication##": 7085,
      "promoted##": 7086,
      "focused##": 7087,
      "village##": 7088,
      "saying##": 7089,
      "bible##": 7090,
      "slavery##": 7091,
      "similarly##": 7092,
      "myan": 7093,
      "79##": 7094,
      "rh": 7095,
      "corps##": 7096,
      "scene##": 7097,
      "limit##": 7098,
      "labor##": 7099,
      "patterns##": 7100,
      "frederick##": 7101,
      "dly##": 7102,
      "ging##": 7103,
      "drop##": 7104,
      "dropped##": 7105,
      "metres##": 7106,
      "notes##": 7107,
      "ignor": 7108,
      "prise##": 7109,
      "prices##": 7110,
      "originated##": 7111,
      "atically##": 7112,
      "52##": 7113,
      "fall": 7114,
      "chair": 7115,
      "bodies##": 7116,
      "ogen": 7117,
      "appropri": 7118,
      "connection##": 7119,
      "models##": 7120,
      "chain##": 7121,
      "quan": 7122,
      "sensi": 7123,
      "sort##": 7124,
      "computers##": 7125,
      "presbyterian##": 7126,
      "rooms##": 7127,
      "gods##": 7128,
      "subjects##": 7129,
      "additionally##": 7130,
      "billboard##": 7131,
      "myanmar##": 7132,
      "kson##": 7133,
      "debate##": 7134,
      "bile##": 7135,
      "sle": 7136,
      "vice##": 7137,
      "inher": 7138,
      "1979##": 7139,
      "renaissance##": 7140,
      "combination##": 7141,
      "carriers##": 7142,
      "consumption##": 7143,
      "lying##": 7144,
      "resolution##": 7145,
      "john": 7146,
      "albums##": 7147,
      "6th##": 7148,
      "ou##": 7149,
      "bey##": 7150,
      "contest": 7151,
      "physics##": 7152,
      "democracy##": 7153,
      "effectively##": 7154,
      "360##": 7155,
      "hoods##": 7156,
      "buc": 7157,
      "requires##": 7158,
      "break": 7159,
      "sixth##": 7160,
      "know##": 7161,
      "adver": 7162,
      "genome##": 7163,
      "penn": 7164,
      "dc##": 7165,
      "simul": 7166,
      "agencies##": 7167,
      "web##": 7168,
      "soul##": 7169,
      "judges##": 7170,
      "semi##": 7171,
      "hispanic##": 7172,
      "daughter##": 7173,
      "rice##": 7174,
      "1941##": 7175,
      "felt##": 7176,
      "write##": 7177,
      "96##": 7178,
      "peter##": 7179,
      "jobs##": 7180,
      "difference##": 7181,
      "missi": 7182,
      "periods##": 7183,
      "witnesses##": 7184,
      "47##": 7185,
      "distance##": 7186,
      "losses##": 7187,
      "transmission##": 7188,
      "ez##": 7189,
      "author##": 7190,
      "persons##": 7191,
      "osh##": 7192,
      "hypo": 7193,
      "balk": 7194,
      "wales##": 7195,
      "fast##": 7196,
      "bad": 7197,
      "mit##": 7198,
      "cia##": 7199,
      "shell##": 7200,
      "twenty##": 7201,
      "borough##": 7202,
      "ancy##": 7203,
      "strongly##": 7204,
      "osexual##": 7205,
      "poetry##": 7206,
      "height##": 7207,
      "58##": 7208,
      "cus##": 7209,
      "mamm": 7210,
      "slo": 7211,
      "nobility##": 7212,
      "flag##": 7213,
      "usage##": 7214,
      "2016##": 7215,
      "budget##": 7216,
      "dark##": 7217,
      "leave##": 7218,
      "exposure##": 7219,
      "eu##": 7220,
      "retained##": 7221,
      "train##": 7222,
      "treated##": 7223,
      "divisions##": 7224,
      "1939##": 7225,
      "digimon##": 7226,
      "54##": 7227,
      "gul": 7228,
      "along": 7229,
      "row": 7230,
      "causing##": 7231,
      "massive##": 7232,
      "rus##": 7233,
      "1993##": 7234,
      "limits##": 7235,
      "assent##": 7236,
      "tend##": 7237,
      "ises##": 7238,
      "variation##": 7239,
      "founding##": 7240,
      "13th##": 7241,
      "prison": 7242,
      "pattern##": 7243,
      "concluded##": 7244,
      "expedi": 7245,
      "calend": 7246,
      "abilities##": 7247,
      "contract##": 7248,
      "neighbour": 7249,
      "jective##": 7250,
      "asius##": 7251,
      "declar": 7252,
      "alongside##": 7253,
      "pay": 7254,
      "ron##": 7255,
      "walls##": 7256,
      "superi": 7257,
      "bring##": 7258,
      "archi": 7259,
      "treaties##": 7260,
      "700##": 7261,
      "eur": 7262,
      "nam##": 7263,
      "pin": 7264,
      "sq##": 7265,
      "stered##": 7266,
      "charter##": 7267,
      "tana##": 7268,
      "lowest##": 7269,
      "navi": 7270,
      "contained##": 7271,
      "compounds##": 7272,
      "raleigh##": 7273,
      "ror": 7274,
      "rare##": 7275,
      "gency##": 7276,
      "athanasius##": 7277,
      "laid##": 7278,
      "broad##": 7279,
      "protests##": 7280,
      "hay": 7281,
      "bot": 7282,
      "pione": 7283,
      "camer": 7284,
      "pure##": 7285,
      "considerable##": 7286,
      "magnetic##": 7287,
      "53##": 7288,
      "62##": 7289,
      "satur": 7290,
      "vary##": 7291,
      "opher##": 7292,
      "quanti": 7293,
      "norm": 7294,
      "writer##": 7295,
      "attended##": 7296,
      "classic##": 7297,
      "alps##": 7298,
      "figure##": 7299,
      "classification##": 7300,
      "efficient##": 7301,
      "kel": 7302,
      "score##": 7303,
      "modern": 7304,
      "ski##": 7305,
      "demonstrated##": 7306,
      "aspects##": 7307,
      "oppon": 7308,
      "surren": 7309,
      "legislative##": 7310,
      "icia##": 7311,
      "jiang##": 7312,
      "fos": 7313,
      "bourg##": 7314,
      "benefit##": 7315,
      "astronom": 7316,
      "77##": 7317,
      "tious##": 7318,
      "pot": 7319,
      "sky##": 7320,
      "conquered##": 7321,
      "columbia##": 7322,
      "nor##": 7323,
      "icals##": 7324,
      "wind##": 7325,
      "homes##": 7326,
      "israeli##": 7327,
      "favor##": 7328,
      "shift##": 7329,
      "medium##": 7330,
      "purposes##": 7331,
      "71##": 7332,
      "bos": 7333,
      "erian##": 7334,
      "agu": 7335,
      "warsaw##": 7336,
      "samo": 7337,
      "conquest##": 7338,
      "sovereign##": 7339,
      "bond##": 7340,
      "ights##": 7341,
      "tified##": 7342,
      "asy##": 7343,
      "rivers##": 7344,
      "playstation##": 7345,
      "volun": 7346,
      "possibly##": 7347,
      "tropical##": 7348,
      "emed##": 7349,
      "otherwise##": 7350,
      "250##": 7351,
      "aa##": 7352,
      "vel##": 7353,
      "asked##": 7354,
      "exception##": 7355,
      "interven": 7356,
      "namib": 7357,
      "garden##": 7358,
      "antibiotics##": 7359,
      "injur": 7360,
      "chro": 7361,
      "fair##": 7362,
      "1974##": 7363,
      "update##": 7364,
      "calcul": 7365,
      "documents##": 7366,
      "protected##": 7367,
      "reality##": 7368,
      "stable##": 7369,
      "containing##": 7370,
      "ush##": 7371,
      "gender##": 7372,
      "subur": 7373,
      "faced##": 7374,
      "overseas##": 7375,
      "rank##": 7376,
      "sand##": 7377,
      "juli": 7378,
      "symb": 7379,
      "membership##": 7380,
      "bar##": 7381,
      "secular##": 7382,
      "cycle##": 7383,
      "longest##": 7384,
      "improve##": 7385,
      "equivalent##": 7386,
      "zes##": 7387,
      "artis": 7388,
      "ula##": 7389,
      "1980##": 7390,
      "asa##": 7391,
      "1949##": 7392,
      "fying##": 7393,
      "asing##": 7394,
      "campaig": 7395,
      "ordinary##": 7396,
      "pestici": 7397,
      "7th##": 7398,
      "ss": 7399,
      "sters##": 7400,
      "eling##": 7401,
      "tox": 7402,
      "funds##": 7403,
      "regime##": 7404,
      "51##": 7405,
      "cathol": 7406,
      "intosh##": 7407,
      "nationally##": 7408,
      "kilometres##": 7409,
      "%),##": 7410,
      "ycl": 7411,
      "penalty##": 7412,
      "hosted##": 7413,
      "renamed##": 7414,
      "professor##": 7415,
      "indicate##": 7416,
      "iraq##": 7417,
      "fon": 7418,
      "insur": 7419,
      "monarch##": 7420,
      "judicial##": 7421,
      "metap": 7422,
      "pack": 7423,
      "82##": 7424,
      "dry##": 7425,
      "enab": 7426,
      "usa##": 7427,
      "eping##": 7428,
      "districts##": 7429,
      "atian##": 7430,
      "paralle": 7431,
      "separated##": 7432,
      "concerned##": 7433,
      "thur##": 7434,
      "parallel##": 7435,
      "atmos": 7436,
      "theore": 7437,
      "datab": 7438,
      "existed##": 7439,
      "efficiency##": 7440,
      "sichuan##": 7441,
      "never": 7442,
      "perceived##": 7443,
      "pharm": 7444,
      "1986##": 7445,
      "hellenistic##": 7446,
      "ud##": 7447,
      "exc": 7448,
      "descend": 7449,
      "les": 7450,
      "selected##": 7451,
      "minutes##": 7452,
      "twice##": 7453,
      "subsi": 7454,
      "aristo": 7455,
      "reaction##": 7456,
      "northeast##": 7457,
      "respect##": 7458,
      "encouraged##": 7459,
      "girls##": 7460,
      "sized##": 7461,
      "absol": 7462,
      "centers##": 7463,
      "august": 7464,
      "offers##": 7465,
      "annex": 7466,
      "lightly##": 7467,
      "manchester##": 7468,
      "io##": 7469,
      "rep": 7470,
      "ogue##": 7471,
      "belong": 7472,
      "technologies##": 7473,
      "bitum": 7474,
      "%,##": 7475,
      "stock##": 7476,
      "roots##": 7477,
      "eces##": 7478,
      "seat##": 7479,
      "cryst": 7480,
      "junc": 7481,
      "philipp": 7482,
      "syl": 7483,
      "singer##": 7484,
      "studied##": 7485,
      "diseases##": 7486,
      "compression##": 7487,
      "tuber": 7488,
      "cork##": 7489,
      "flow##": 7490,
      "observed##": 7491,
      "appears##": 7492,
      "docum": 7493,
      "arthur##": 7494,
      "setting##": 7495,
      "trial##": 7496,
      "ification##": 7497,
      "dollar##": 7498,
      "coalition##": 7499,
      "hit": 7500,
      "sanc": 7501,
      "weal": 7502,
      "hol##": 7503,
      "1985##": 7504,
      "separation##": 7505,
      "nickn": 7506,
      "buddha##": 7507,
      "mechanical##": 7508,
      "think##": 7509,
      "theater##": 7510,
      "suppl": 7511,
      "ething##": 7512,
      "ographical##": 7513,
      "baptist##": 7514,
      "theless##": 7515,
      "err": 7516,
      "acid##": 7517,
      "happ": 7518,
      "lets##": 7519,
      "wild##": 7520,
      "frank": 7521,
      "fashion##": 7522,
      "nevertheless##": 7523,
      "bic": 7524,
      "lum": 7525,
      "pir": 7526,
      "twel": 7527,
      "criticism##": 7528,
      "sens": 7529,
      "comprehen": 7530,
      "hotel##": 7531,
      "something##": 7532,
      "fair": 7533,
      "sav": 7534,
      "system": 7535,
      "driven##": 7536,
      "rein": 7537,
      "display##": 7538,
      "principal##": 7539,
      "francis": 7540,
      "coup##": 7541,
      "categories##": 7542,
      "protein##": 7543,
      "bureau##": 7544,
      "72##": 7545,
      "iv##": 7546,
      "mah": 7547,
      "mobile##": 7548,
      "millen": 7549,
      "practical##": 7550,
      "executed##": 7551,
      "thousand##": 7552,
      "120##": 7553,
      "thor": 7554,
      "acting##": 7555,
      "ries##": 7556,
      "number": 7557,
      "emotions##": 7558,
      "bits##": 7559,
      "sand": 7560,
      "aders##": 7561,
      "begun##": 7562,
      "ange##": 7563,
      "invaded##": 7564,
      "oxide##": 7565,
      "biggest##": 7566,
      "monarchy##": 7567,
      "61##": 7568,
      "secret##": 7569,
      "substantial##": 7570,
      "rar": 7571,
      "antry##": 7572,
      "origins##": 7573,
      "ceremony##": 7574,
      "rian##": 7575,
      "liqu": 7576,
      "iring##": 7577,
      "context##": 7578,
      "fixed##": 7579,
      "1987##": 7580,
      "characterized##": 7581,
      "succeeded##": 7582,
      "gives##": 7583,
      "sequence##": 7584,
      "regulations##": 7585,
      "asphalt##": 7586,
      "ey": 7587,
      "hands##": 7588,
      "ruler##": 7589,
      "pom": 7590,
      "iling##": 7591,
      "depos": 7592,
      "asses##": 7593,
      "helena##": 7594,
      "ratio##": 7595,
      "employees##": 7596,
      "itive##": 7597,
      "oes##": 7598,
      "xi##": 7599,
      "goals##": 7600,
      "borders##": 7601,
      "tment##": 7602,
      "inity##": 7603,
      "alization##": 7604,
      "guard##": 7605,
      "merch": 7606,
      "parliam": 7607,
      "tubercul": 7608,
      "fit": 7609,
      "gil": 7610,
      "1969##": 7611,
      "debt##": 7612,
      "bian##": 7613,
      "tance##": 7614,
      "yellow##": 7615,
      "terror": 7616,
      "morph": 7617,
      "09##": 7618,
      "sas##": 7619,
      "slightly##": 7620,
      "icate##": 7621,
      "besides##": 7622,
      "sky": 7623,
      "approval##": 7624,
      "mosaics##": 7625,
      "criticized##": 7626,
      "aqu": 7627,
      "bab": 7628,
      "ules##": 7629,
      "forward##": 7630,
      "frag": 7631,
      "suggest##": 7632,
      "emotion##": 7633,
      "graph": 7634,
      "dynam": 7635,
      "look##": 7636,
      "icism##": 7637,
      "guine": 7638,
      "funding##": 7639,
      "circuit##": 7640,
      "74##": 7641,
      "sell##": 7642,
      "ech": 7643,
      "exclud": 7644,
      "colors##": 7645,
      "syria##": 7646,
      "celebrated##": 7647,
      "88##": 7648,
      "list": 7649,
      "apart##": 7650,
      "mile##": 7651,
      "bombing##": 7652,
      "household##": 7653,
      "municipal": 7654,
      "og##": 7655,
      "dimen": 7656,
      "leds##": 7657,
      "theast": 7658,
      "solved##": 7659,
      "1978##": 7660,
      "alcohol##": 7661,
      "fly##": 7662,
      "motion##": 7663,
      "consisting##": 7664,
      "organism##": 7665,
      "planning##": 7666,
      "interpretation##": 7667,
      "declaration##": 7668,
      "gary##": 7669,
      "perf": 7670,
      "hosts##": 7671,
      "ruling##": 7672,
      "residential##": 7673,
      "becomes##": 7674,
      "abandoned##": 7675,
      "tempor": 7676,
      "destruction##": 7677,
      "ram##": 7678,
      "spirit##": 7679,
      "band": 7680,
      "rat": 7681,
      "amend": 7682,
      "popper##": 7683,
      "americas##": 7684,
      "settlers##": 7685,
      "integrated##": 7686,
      "gated##": 7687,
      "your##": 7688,
      "peac": 7689,
      "voice##": 7690,
      "baske": 7691,
      "males##": 7692,
      "carrier##": 7693,
      "credited##": 7694,
      "enemy##": 7695,
      "ation": 7696,
      "prohi": 7697,
      "shot##": 7698,
      "descent##": 7699,
      "address##": 7700,
      "rhyth": 7701,
      "tons##": 7702,
      "lie##": 7703,
      "macintosh##": 7704,
      "cardinal##": 7705,
      "zh": 7706,
      "als": 7707,
      "conception##": 7708,
      "flow": 7709,
      "decisions##": 7710,
      "sionally##": 7711,
      "pharmac": 7712,
      "oration##": 7713,
      "parks##": 7714,
      "ministers##": 7715,
      "researchers##": 7716,
      "relation##": 7717,
      "identify##": 7718,
      "thuring": 7719,
      "items##": 7720,
      "occurr": 7721,
      "linked##": 7722,
      "oxy": 7723,
      "suggests##": 7724,
      "champions##": 7725,
      "easily##": 7726,
      "fted##": 7727,
      "jection##": 7728,
      "telec": 7729,
      "emb": 7730,
      "inven": 7731,
      "edly##": 7732,
      "1984##": 7733,
      "founder##": 7734,
      "further": 7735,
      "fossi": 7736,
      "kong##": 7737,
      "sen##": 7738,
      "repu": 7739,
      "visitors##": 7740,
      "theastern##": 7741,
      "tract##": 7742,
      "motors##": 7743,
      "doing##": 7744,
      "aths##": 7745,
      "1948##": 7746,
      "constant": 7747,
      "precip": 7748,
      "namibia##": 7749,
      "dia##": 7750,
      "plus##": 7751,
      "seems##": 7752,
      "clock##": 7753,
      "rulers##": 7754,
      "measure##": 7755,
      "ologists##": 7756,
      "discrimination##": 7757,
      "lar": 7758,
      "preferred##": 7759,
      "martin##": 7760,
      "1982##": 7761,
      "radiation##": 7762,
      "emphasis##": 7763,
      "file##": 7764,
      "tt##": 7765,
      "1976##": 7766,
      "affect##": 7767,
      "antarctica##": 7768,
      "bo##": 7769,
      "lec": 7770,
      "stop": 7771,
      "composition##": 7772,
      "ticut##": 7773,
      "interests##": 7774,
      "hub##": 7775,
      "headed##": 7776,
      "connecticut##": 7777,
      "discs##": 7778,
      "normally##": 7779,
      "count##": 7780,
      "heter": 7781,
      "trees##": 7782,
      "memorial##": 7783,
      "picture##": 7784,
      "punj": 7785,
      "instrument##": 7786,
      "vietnam##": 7787,
      "aya##": 7788,
      "belgi": 7789,
      "controversi": 7790,
      "15th##": 7791,
      "adolescents##": 7792,
      "bitumen##": 7793,
      "precipitation##": 7794,
      "69##": 7795,
      "flag": 7796,
      "voted##": 7797,
      "accused##": 7798,
      "telephone##": 7799,
      "84##": 7800,
      "vity##": 7801,
      "sections##": 7802,
      "capture##": 7803,
      "religions##": 7804,
      "experiences##": 7805,
      "fundamental##": 7806,
      "hindu##": 7807,
      "advertis": 7808,
      "af##": 7809,
      "ment": 7810,
      "matt": 7811,
      "ern": 7812,
      "arena##": 7813,
      "path##": 7814,
      "accompanied##": 7815,
      "quantum##": 7816,
      "calendar##": 7817,
      "dst##": 7818,
      "correspon": 7819,
      "berlin##": 7820,
      "generated##": 7821,
      "empha": 7822,
      "fund##": 7823,
      "wrestling##": 7824,
      "photo": 7825,
      "determine##": 7826,
      "li##": 7827,
      "consci": 7828,
      "entry##": 7829,
      "empir": 7830,
      "coverage##": 7831,
      "philosophical##": 7832,
      "violence##": 7833,
      "pav": 7834,
      "activ": 7835,
      "shop": 7836,
      "manager##": 7837,
      "chairman##": 7838,
      "accept##": 7839,
      "lithu": 7840,
      "ira##": 7841,
      "progre": 7842,
      "brothers##": 7843,
      "14th##": 7844,
      "mechanism##": 7845,
      "progress##": 7846,
      "dating##": 7847,
      "pum": 7848,
      "rer##": 7849,
      "rob": 7850,
      "cler": 7851,
      "advance##": 7852,
      "spirit": 7853,
      "fine##": 7854,
      "want##": 7855,
      "resem": 7856,
      "reduction##": 7857,
      "1960##": 7858,
      "receiving##": 7859,
      "kansas##": 7860,
      "angeles##": 7861,
      "05##": 7862,
      "wast": 7863,
      "isms##": 7864,
      "abbey##": 7865,
      "rainf": 7866,
      "feyn": 7867,
      "filled##": 7868,
      "pieces##": 7869,
      "judge##": 7870,
      "balance##": 7871,
      "occupation##": 7872,
      "mathematics##": 7873,
      "inople##": 7874,
      "sounds##": 7875,
      "tings##": 7876,
      "zz": 7877,
      "asth": 7878,
      "liv": 7879,
      "legen": 7880,
      "quite##": 7881,
      "meat##": 7882,
      "shortly##": 7883,
      "commerce##": 7884,
      "predators##": 7885,
      "basketball##": 7886,
      "feynman##": 7887,
      "depu": 7888,
      "1914##": 7889,
      "oured##": 7890,
      "minster##": 7891,
      "solo##": 7892,
      "eggs##": 7893,
      "harv": 7894,
      "compati": 7895,
      "historian##": 7896,
      "festivals##": 7897,
      "diag": 7898,
      "cha": 7899,
      "beat": 7900,
      "lasted##": 7901,
      "statement##": 7902,
      "neighborhoods##": 7903,
      "restricted##": 7904,
      "costs##": 7905,
      "gene": 7906,
      "1971##": 7907,
      "consumer##": 7908,
      "assumed##": 7909,
      "89##": 7910,
      "cant": 7911,
      "ani##": 7912,
      "useful##": 7913,
      "grant##": 7914,
      "successor##": 7915,
      "radical##": 7916,
      "67##": 7917,
      "jan##": 7918,
      "aggres": 7919,
      "ocks##": 7920,
      "leads##": 7921,
      "holding##": 7922,
      "conduct##": 7923,
      "virgin##": 7924,
      "constantinople##": 7925,
      "dam##": 7926,
      "ny##": 7927,
      "esh##": 7928,
      "canal##": 7929,
      "violent##": 7930,
      "veget": 7931,
      "sufficient##": 7932,
      "oning##": 7933,
      "interior##": 7934,
      "brig": 7935,
      "estimates##": 7936,
      "austrian##": 7937,
      "throne##": 7938,
      "affirm": 7939,
      "essive##": 7940,
      "cht##": 7941,
      "fire": 7942,
      "pole##": 7943,
      "dependent##": 7944,
      "sunday##": 7945,
      "mp3##": 7946,
      "sex": 7947,
      "eland##": 7948,
      "unci": 7949,
      "sper": 7950,
      "crete##": 7951,
      "senior##": 7952,
      "missions##": 7953,
      "writes##": 7954,
      "influences##": 7955,
      "accounts##": 7956,
      "rum": 7957,
      "wav": 7958,
      "cool": 7959,
      "1968##": 7960,
      "installed##": 7961,
      "assistance##": 7962,
      "1975##": 7963,
      "studi": 7964,
      "metro##": 7965,
      "vul": 7966,
      "dum##": 7967,
      "noble##": 7968,
      "puer": 7969,
      "load##": 7970,
      "yuan##": 7971,
      "purchased##": 7972,
      "asonry##": 7973,
      "dr##": 7974,
      "inner##": 7975,
      "opol": 7976,
      "carr": 7977,
      "obtained##": 7978,
      "infra": 7979,
      "designated##": 7980,
      "wildlife##": 7981,
      "rainfall##": 7982,
      "wire##": 7983,
      "performing##": 7984,
      "1972##": 7985,
      "landing##": 7986,
      "featuring##": 7987,
      "johnson##": 7988,
      "93##": 7989,
      "97##": 7990,
      "1918##": 7991,
      "mainstream##": 7992,
      "cypri": 7993,
      "shape##": 7994,
      "promotion##": 7995,
      "occasionally##": 7996,
      "collapse##": 7997,
      "instruc": 7998,
      "arre": 7999,
      "raine##": 8000,
      "montana##": 8001,
      "ranging##": 8002,
      "lords##": 8003,
      "extreme##": 8004,
      "freemasonry##": 8005,
      "fat": 8006,
      "cons": 8007,
      "fusion##": 8008,
      "etts##": 8009,
      "purchase##": 8010,
      "ashkenazi##": 8011,
      "pig": 8012,
      "tam": 8013,
      "perception##": 8014,
      "1944##": 8015,
      "juda": 8016,
      "index##": 8017,
      "scor": 8018,
      "solu": 8019,
      "wider##": 8020,
      "theme##": 8021,
      "screen##": 8022,
      "tuberculosis##": 8023,
      "governed##": 8024,
      "federation##": 8025,
      "performances##": 8026,
      "immigration##": 8027,
      "tb##": 8028,
      "broken##": 8029,
      "skin##": 8030,
      "somewhat##": 8031,
      "suspen": 8032,
      "guinea##": 8033,
      "mas##": 8034,
      "inqu": 8035,
      "excep": 8036,
      "grown##": 8037,
      "recognition##": 8038,
      "organisation##": 8039,
      "llery##": 8040,
      "infl": 8041,
      "piece##": 8042,
      "thermal##": 8043,
      "votes##": 8044,
      "privil": 8045,
      "attributed##": 8046,
      "gulf##": 8047,
      "eo##": 8048,
      "ja": 8049,
      "pes##": 8050,
      "vah##": 8051,
      "enforc": 8052,
      "needs##": 8053,
      "earned##": 8054,
      "networks##": 8055,
      "beliefs##": 8056,
      "mammals##": 8057,
      "scul": 8058,
      "ola##": 8059,
      "taji": 8060,
      "dering##": 8061,
      "afgh": 8062,
      "genre##": 8063,
      "kness##": 8064,
      "achus": 8065,
      "harbor##": 8066,
      "franch": 8067,
      "11th##": 8068,
      "puerto##": 8069,
      "94##": 8070,
      "wer##": 8071,
      "outer##": 8072,
      "streng": 8073,
      "lodges##": 8074,
      "burma##": 8075,
      "branches##": 8076,
      "usual##": 8077,
      "heal": 8078,
      "steel##": 8079,
      "insect##": 8080,
      "ois##": 8081,
      "vals##": 8082,
      "governing##": 8083,
      "print##": 8084,
      "ranges##": 8085,
      "spoke##": 8086,
      "furthermore##": 8087,
      "matters##": 8088,
      "past": 8089,
      "stim": 8090,
      "wu##": 8091,
      "inet##": 8092,
      "elite##": 8093,
      "duch": 8094,
      "pet##": 8095,
      "1973##": 8096,
      "massachus": 8097,
      "correct##": 8098,
      "passengers##": 8099,
      "massachusetts##": 8100,
      "\"?##": 8101,
      "luc": 8102,
      "plain##": 8103,
      "proportion##": 8104,
      "clo": 8105,
      "hop##": 8106,
      "europeans##": 8107,
      "southwest##": 8108,
      "indo##": 8109,
      "inches##": 8110,
      "rival##": 8111,
      "boy##": 8112,
      "initiated##": 8113,
      "ensure##": 8114,
      "marvel##": 8115,
      "bringing##": 8116,
      "foot##": 8117,
      "describes##": 8118,
      "tall": 8119,
      "ich": 8120,
      "standar": 8121,
      "category##": 8122,
      "basi": 8123,
      "push": 8124,
      "residence##": 8125,
      "infring": 8126,
      "affirmative##": 8127,
      "],##": 8128,
      "ap##": 8129,
      "ée##": 8130,
      "prec": 8131,
      "andre": 8132,
      "courses##": 8133,
      "somer": 8134,
      "singles##": 8135,
      "jaz": 8136,
      "frame##": 8137,
      "rising##": 8138,
      "olithic##": 8139,
      "retail##": 8140,
      "1920s##": 8141,
      "organic##": 8142,
      "friend##": 8143,
      "promote##": 8144,
      "website##": 8145,
      "embr": 8146,
      "condem": 8147,
      "nei": 8148,
      "guil": 8149,
      "establishing##": 8150,
      "pictures##": 8151,
      "1000##": 8152,
      "cultiv": 8153,
      "1967##": 8154,
      "businesses##": 8155,
      "expand##": 8156,
      "journal##": 8157,
      "responsibility##": 8158,
      "86##": 8159,
      "suffering##": 8160,
      "jackson##": 8161,
      "reducing##": 8162,
      "gers##": 8163,
      "detec": 8164,
      "recordings##": 8165,
      "authors##": 8166,
      "covers##": 8167,
      "mercur": 8168,
      "cinem": 8169,
      "entr": 8170,
      "seats##": 8171,
      "1911##": 8172,
      "coordin": 8173,
      "pub##": 8174,
      "westminster##": 8175,
      "sister##": 8176,
      "yugoslavia##": 8177,
      "vel": 8178,
      "remo": 8179,
      "ado##": 8180,
      "agree##": 8181,
      "clou": 8182,
      "spective##": 8183,
      "neighborhood##": 8184,
      "personnel##": 8185,
      "judaism##": 8186,
      "bought##": 8187,
      "dv": 8188,
      "dent##": 8189,
      "restored##": 8190,
      "peas": 8191,
      "signals##": 8192,
      "developments##": 8193,
      "supporting##": 8194,
      "files##": 8195,
      "protoc": 8196,
      "represents##": 8197,
      "artillery##": 8198,
      "consolid": 8199,
      "scheme##": 8200,
      "kal": 8201,
      "stages##": 8202,
      "usal": 8203,
      "manus": 8204,
      "pher": 8205,
      "lamps##": 8206,
      "mercury##": 8207,
      "slow##": 8208,
      "zen##": 8209,
      "exists##": 8210,
      "sev": 8211,
      "shire##": 8212,
      "hovah##": 8213,
      "winner##": 8214,
      "visual##": 8215,
      "amounts##": 8216,
      "eton##": 8217,
      "stress##": 8218,
      "bishops##": 8219,
      "guaran": 8220,
      "jehovah##": 8221,
      "sponsor": 8222,
      "extinction##": 8223,
      "81##": 8224,
      "bag": 8225,
      "omes##": 8226,
      "work": 8227,
      "gil##": 8228,
      "expression##": 8229,
      "francis##": 8230,
      "rebellion##": 8231,
      "iny##": 8232,
      "step##": 8233,
      "chart##": 8234,
      "1961##": 8235,
      "manuscri": 8236,
      "images##": 8237,
      "ologist##": 8238,
      "keeping##": 8239,
      "1981##": 8240,
      "neither##": 8241,
      "02##": 8242,
      "21st##": 8243,
      "9th##": 8244,
      "uel##": 8245,
      "utre": 8246,
      "bean##": 8247,
      "corresp": 8248,
      "monast": 8249,
      "finished##": 8250,
      "locations##": 8251,
      "smith##": 8252,
      "83##": 8253,
      "bt##": 8254,
      "inate##": 8255,
      "unable##": 8256,
      "populous##": 8257,
      "versy##": 8258,
      "comparison##": 8259,
      "criminal##": 8260,
      "infrastructure##": 8261,
      "hence##": 8262,
      "oring##": 8263,
      "acres##": 8264,
      "guam##": 8265,
      "musicians##": 8266,
      "aker##": 8267,
      "controversy##": 8268,
      "owners##": 8269,
      "committed##": 8270,
      "legislature##": 8271,
      "emotional##": 8272,
      "vocal##": 8273,
      "infrared##": 8274,
      "candidates##": 8275,
      "mist": 8276,
      "ille##": 8277,
      "ock": 8278,
      "entially##": 8279,
      "regularly##": 8280,
      "videos##": 8281,
      "involving##": 8282,
      "exclusive##": 8283,
      "hd": 8284,
      "inaug": 8285,
      "calls##": 8286,
      "ota##": 8287,
      "blacks##": 8288,
      "ez": 8289,
      "bol##": 8290,
      "marg": 8291,
      "norfolk##": 8292,
      "black": 8293,
      "mo##": 8294,
      "wine##": 8295,
      "det": 8296,
      "depression##": 8297,
      "brow": 8298,
      "printed##": 8299,
      "dominic": 8300,
      "hardware##": 8301,
      "broadcasting##": 8302,
      "diplomatic##": 8303,
      "reaching##": 8304,
      "imm": 8305,
      "layer##": 8306,
      "assass": 8307,
      "guit": 8308,
      "operates##": 8309,
      "increases##": 8310,
      "politici": 8311,
      "tioning##": 8312,
      "1966##": 8313,
      "hunter##": 8314,
      "galicia##": 8315,
      "requirements##": 8316,
      "nine": 8317,
      "else##": 8318,
      "among": 8319,
      "2000s##": 8320,
      "asts##": 8321,
      "1983##": 8322,
      "economics##": 8323,
      "infantry##": 8324,
      "kanye##": 8325,
      "opinion##": 8326,
      "simultan": 8327,
      "database##": 8328,
      "rarely##": 8329,
      "amongst##": 8330,
      "',##": 8331,
      "fans##": 8332,
      "told##": 8333,
      "uality##": 8334,
      "tier##": 8335,
      "spectr": 8336,
      "hua": 8337,
      "aza##": 8338,
      "characteristic##": 8339,
      "honor##": 8340,
      "sacrif": 8341,
      "mont##": 8342,
      "wii##": 8343,
      "fuel##": 8344,
      "magn": 8345,
      "execution##": 8346,
      "isolated##": 8347,
      "incident##": 8348,
      "ex##": 8349,
      "satis": 8350,
      "trou": 8351,
      "roles##": 8352,
      "vienna##": 8353,
      "capp": 8354,
      "captain##": 8355,
      "begins##": 8356,
      "dict": 8357,
      "huge##": 8358,
      "brew##": 8359,
      "titude##": 8360,
      "comprehensive##": 8361,
      "conclu": 8362,
      "nothing##": 8363,
      "fred##": 8364,
      "varies##": 8365,
      "camp##": 8366,
      "facility##": 8367,
      "processing##": 8368,
      "fox##": 8369,
      "beng": 8370,
      "arm##": 8371,
      "proph": 8372,
      "argue##": 8373,
      "seleu": 8374,
      "francisco##": 8375,
      "nag": 8376,
      "icated##": 8377,
      "lia##": 8378,
      "tories##": 8379,
      "hys": 8380,
      "mission": 8381,
      "understand##": 8382,
      "hr": 8383,
      "thi": 8384,
      "siege##": 8385,
      "spr": 8386,
      "imposed##": 8387,
      "voting##": 8388,
      "socialist##": 8389,
      "chihua": 8390,
      "minimum##": 8391,
      "opportunity##": 8392,
      "happened##": 8393,
      "din##": 8394,
      "dary##": 8395,
      "interstate##": 8396,
      "storm##": 8397,
      "somalia##": 8398,
      "exhibition##": 8399,
      "cabinet##": 8400,
      "challenge##": 8401,
      "'.##": 8402,
      "card##": 8403,
      "anth": 8404,
      "stating##": 8405,
      "exemp": 8406,
      "dress##": 8407,
      "autonomy##": 8408,
      "shopping##": 8409,
      "usalem##": 8410,
      "icit##": 8411,
      "flying##": 8412,
      "1977##": 8413,
      "evolutionary##": 8414,
      "conventi": 8415,
      "toler": 8416,
      "merged##": 8417,
      "gb##": 8418,
      "tis##": 8419,
      "ari##": 8420,
      "debut##": 8421,
      "wed": 8422,
      "facts##": 8423,
      "rub": 8424,
      "tracks##": 8425,
      "terminal##": 8426,
      "aware##": 8427,
      "aspect##": 8428,
      "ficial##": 8429,
      "scottish##": 8430,
      "900##": 8431,
      "cence##": 8432,
      "cann": 8433,
      "etr": 8434,
      "inary##": 8435,
      "assic##": 8436,
      "impe": 8437,
      "cuis": 8438,
      "variations##": 8439,
      "utrecht##": 8440,
      "says##": 8441,
      "zation##": 8442,
      "offering##": 8443,
      "varying##": 8444,
      "1964##": 8445,
      "jazz##": 8446,
      "easy##": 8447,
      "holl": 8448,
      "ka": 8449,
      "ury##": 8450,
      "nepal##": 8451,
      "partly##": 8452,
      "stras": 8453,
      "avian##": 8454,
      "translated##": 8455,
      "aspir": 8456,
      "newspapers##": 8457,
      "dun": 8458,
      "sab": 8459,
      "estion##": 8460,
      "ancing##": 8461,
      "1953##": 8462,
      "survived##": 8463,
      "representative##": 8464,
      "jerusalem##": 8465,
      "confirmed##": 8466,
      "restaurants##": 8467,
      "jean##": 8468,
      "admir": 8469,
      "poll": 8470,
      "mainland##": 8471,
      "relief##": 8472,
      "passage##": 8473,
      "targets##": 8474,
      "threatened##": 8475,
      "aris##": 8476,
      "whites##": 8477,
      "motor": 8478,
      "goes##": 8479,
      "avic": 8480,
      "engaged##": 8481,
      "laser": 8482,
      "oxygen##": 8483,
      "khan##": 8484,
      "rab": 8485,
      "urg": 8486,
      "petro": 8487,
      "phar": 8488,
      "routes##": 8489,
      "capacitors##": 8490,
      "immediate##": 8491,
      "background##": 8492,
      "taiwan##": 8493,
      "adjac": 8494,
      "umental##": 8495,
      "1962##": 8496,
      "advis": 8497,
      "junction##": 8498,
      "adjacent##": 8499,
      "lem": 8500,
      "wood": 8501,
      "damaged##": 8502,
      "measured##": 8503,
      "concentrated##": 8504,
      "01##": 8505,
      "sses##": 8506,
      "temporary##": 8507,
      "verte": 8508,
      "pubs##": 8509,
      "edic": 8510,
      "passing##": 8511,
      "absolute##": 8512,
      "philippines##": 8513,
      "rpm##": 8514,
      "zhe": 8515,
      "orities##": 8516,
      "aired##": 8517,
      "crus": 8518,
      "jr##": 8519,
      "anglic": 8520,
      "anni": 8521,
      "varieties##": 8522,
      "merely##": 8523,
      "casu": 8524,
      "jurisdiction##": 8525,
      "soun": 8526,
      "escent##": 8527,
      "plate##": 8528,
      "shipping##": 8529,
      "tress##": 8530,
      "ranking##": 8531,
      "electron": 8532,
      "questions##": 8533,
      "utili": 8534,
      "suit##": 8535,
      "anda##": 8536,
      "pens": 8537,
      "request##": 8538,
      "crops##": 8539,
      "1963##": 8540,
      "hanover##": 8541,
      "plane##": 8542,
      "snow": 8543,
      "composer##": 8544,
      "saxon##": 8545,
      "twelve##": 8546,
      "alised##": 8547,
      "ough": 8548,
      "else": 8549,
      "sided##": 8550,
      "assigned##": 8551,
      "theology##": 8552,
      "coron": 8553,
      "cars##": 8554,
      "stories##": 8555,
      "virtually##": 8556,
      "1956##": 8557,
      "powered##": 8558,
      "daries##": 8559,
      "claiming##": 8560,
      "artistic##": 8561,
      "strasbourg##": 8562,
      "elsewhere##": 8563,
      "gy": 8564,
      "sale##": 8565,
      "reserv": 8566,
      "liver": 8567,
      "gover": 8568,
      "express##": 8569,
      "conservation##": 8570,
      "concentration##": 8571,
      "boundaries##": 8572,
      "concepts##": 8573,
      "vehicles##": 8574,
      "killing##": 8575,
      "eye##": 8576,
      "hills##": 8577,
      "sons##": 8578,
      "wo": 8579,
      "agues##": 8580,
      "pover": 8581,
      "illu": 8582,
      "transferred##": 8583,
      "garian##": 8584,
      "planet##": 8585,
      "manufacturers##": 8586,
      "orchestra##": 8587,
      "legitim": 8588,
      "sylv": 8589,
      "punjab##": 8590,
      "van": 8591,
      "oce": 8592,
      "peg##": 8593,
      "norman##": 8594,
      "dens##": 8595,
      "owner##": 8596,
      "referen": 8597,
      "wa##": 8598,
      "block##": 8599,
      "width##": 8600,
      "continuous##": 8601,
      "attracted##": 8602,
      "dé": 8603,
      "portr": 8604,
      "boy": 8605,
      "distinguished##": 8606,
      "opposite##": 8607,
      "stalin##": 8608,
      "pur##": 8609,
      "monte": 8610,
      "panel##": 8611,
      "produces##": 8612,
      "partn": 8613,
      "technique##": 8614,
      "scenes##": 8615,
      "somerset##": 8616,
      "eth##": 8617,
      "rey##": 8618,
      "replace##": 8619,
      "pel##": 8620,
      "flat##": 8621,
      "capit": 8622,
      "palest": 8623,
      "10th##": 8624,
      "laboratory##": 8625,
      "metaphys": 8626,
      "casualties##": 8627,
      "ariz": 8628,
      "predomin": 8629,
      "obser": 8630,
      "jersey##": 8631,
      "06##": 8632,
      "nas##": 8633,
      "expec": 8634,
      "apost": 8635,
      "caes": 8636,
      "faces##": 8637,
      "municipal##": 8638,
      "aristotle##": 8639,
      "studios##": 8640,
      "gates##": 8641,
      "hil": 8642,
      "iel##": 8643,
      "encomp": 8644,
      "reformation##": 8645,
      "ommun": 8646,
      "got##": 8647,
      "bling##": 8648,
      "factory##": 8649,
      "gymn": 8650,
      "suburbs##": 8651,
      "vacc": 8652,
      "bear": 8653,
      "tees##": 8654,
      "malay": 8655,
      "concern##": 8656,
      "unciation##": 8657,
      "jeff": 8658,
      "esp": 8659,
      "diver": 8660,
      "leaves##": 8661,
      "abul": 8662,
      "molecular##": 8663,
      "revival##": 8664,
      "millenni": 8665,
      "cbc##": 8666,
      "ion##": 8667,
      "uef": 8668,
      "waves##": 8669,
      "tiles##": 8670,
      "differenti": 8671,
      "brew": 8672,
      "ussr##": 8673,
      "exercise##": 8674,
      "phenomen": 8675,
      "kistan##": 8676,
      "search##": 8677,
      "hier": 8678,
      "covering##": 8679,
      "regulation##": 8680,
      "weekly##": 8681,
      "carrying##": 8682,
      "chihuahua##": 8683,
      "ón##": 8684,
      "atus##": 8685,
      "rick##": 8686,
      "platform##": 8687,
      "contestants##": 8688,
      "smo": 8689,
      "1900##": 8690,
      "solid##": 8691,
      "representation##": 8692,
      "heads##": 8693,
      "liberty##": 8694,
      "frequent##": 8695,
      "survey##": 8696,
      "adher": 8697,
      "1912##": 8698,
      "flour": 8699,
      "hara##": 8700,
      "independently##": 8701,
      "1958##": 8702,
      "infection##": 8703,
      "bombers##": 8704,
      "elevators##": 8705,
      "alpha": 8706,
      "aimed##": 8707,
      "fear": 8708,
      "essions##": 8709,
      "ador##": 8710,
      "trained##": 8711,
      "culmin": 8712,
      "guid": 8713,
      "bronze##": 8714,
      "arrival##": 8715,
      "reflected##": 8716,
      "programming##": 8717,
      "sculp": 8718,
      "las##": 8719,
      "ounced##": 8720,
      "monica##": 8721,
      "canon##": 8722,
      "miss": 8723,
      "ptol": 8724,
      "habitat##": 8725,
      "apparent##": 8726,
      "send##": 8727,
      "umay": 8728,
      "ini##": 8729,
      "stay##": 8730,
      "deleg": 8731,
      "symbol##": 8732,
      "believ": 8733,
      "settlements##": 8734,
      "mathematical##": 8735,
      "cardinals##": 8736,
      "descendants##": 8737,
      "87##": 8738,
      "rated##": 8739,
      "breeding##": 8740,
      "insist": 8741,
      "ara##": 8742,
      "conversion##": 8743,
      "treat##": 8744,
      "benefits##": 8745,
      "unicode##": 8746,
      "ck##": 8747,
      "lap": 8748,
      "diary##": 8749,
      "trust##": 8750,
      "1920##": 8751,
      "moral##": 8752,
      "crew##": 8753,
      "cult##": 8754,
      "brook": 8755,
      "regard##": 8756,
      "drawn##": 8757,
      "investigation##": 8758,
      "candidate##": 8759,
      "eighth##": 8760,
      "scheduled##": 8761,
      "alexandria##": 8762,
      "millennium##": 8763,
      "dless##": 8764,
      "arose##": 8765,
      "secure##": 8766,
      "highway##": 8767,
      "1942##": 8768,
      "protest##": 8769,
      "losing##": 8770,
      "prises##": 8771,
      "customs##": 8772,
      "aristoc": 8773,
      "prepared##": 8774,
      "struggle##": 8775,
      "telecommun": 8776,
      "asthma##": 8777,
      "eously##": 8778,
      "worn##": 8779,
      "rico##": 8780,
      "brief##": 8781,
      "charged##": 8782,
      "transit##": 8783,
      "wavel": 8784,
      "arizona##": 8785,
      "encoun": 8786,
      "chlor": 8787,
      "add##": 8788,
      "faculty##": 8789,
      "harmon": 8790,
      "1965##": 8791,
      "ideal##": 8792,
      "citizen": 8793,
      "speaker##": 8794,
      "passenger##": 8795,
      "parliamentary##": 8796,
      "acre##": 8797,
      "dean##": 8798,
      "filament##": 8799,
      "birth": 8800,
      "neuro": 8801,
      "autonomous##": 8802,
      "atomic##": 8803,
      "bowl##": 8804,
      "bad##": 8805,
      "coins##": 8806,
      "afl##": 8807,
      "formers##": 8808,
      "battles##": 8809,
      "connections##": 8810,
      "sustain": 8811,
      "pharmaceu": 8812,
      "afghan": 8813,
      "conventional##": 8814,
      "vertebr": 8815,
      "hin": 8816,
      "chec": 8817,
      "rists##": 8818,
      "maur": 8819,
      "soil##": 8820,
      "underground##": 8821,
      "appeal##": 8822,
      "explan": 8823,
      "olympics##": 8824,
      "civilization##": 8825,
      "afghanistan##": 8826,
      "gi##": 8827,
      "kins##": 8828,
      "warm": 8829,
      "itz##": 8830,
      "elabor": 8831,
      "marath": 8832,
      "mili": 8833,
      "baltic##": 8834,
      "machines##": 8835,
      "distributed##": 8836,
      "households##": 8837,
      "taxes##": 8838,
      "implemented##": 8839,
      "proposal##": 8840,
      "daylight##": 8841,
      "eritrea##": 8842,
      "campaigns##": 8843,
      "controversial##": 8844,
      "remove##": 8845,
      "icon": 8846,
      "cher": 8847,
      "rid": 8848,
      "situated##": 8849,
      "spectrum##": 8850,
      "ko##": 8851,
      "inch##": 8852,
      "ala##": 8853,
      "acknowle": 8854,
      "promp": 8855,
      "iden": 8856,
      "cost": 8857,
      "milit": 8858,
      "stead": 8859,
      "spectre##": 8860,
      "edy##": 8861,
      "croatian##": 8862,
      "meanwhile##": 8863,
      "gla": 8864,
      "sz": 8865,
      "aria##": 8866,
      "sta": 8867,
      "embar": 8868,
      "deaths##": 8869,
      "neo##": 8870,
      "victim": 8871,
      "document##": 8872,
      "attend##": 8873,
      "frank##": 8874,
      "contributions##": 8875,
      "chapel##": 8876,
      "deliver": 8877,
      "alpine##": 8878,
      "appropriate##": 8879,
      "cc##": 8880,
      "invent": 8881,
      "torate##": 8882,
      "varied##": 8883,
      "1947##": 8884,
      "publicly##": 8885,
      "hurric": 8886,
      "bay": 8887,
      "dn##": 8888,
      "trying##": 8889,
      "evacu": 8890,
      "more": 8891,
      "fewer##": 8892,
      "famili": 8893,
      "deman": 8894,
      "virgil##": 8895,
      "architect##": 8896,
      "recognised##": 8897,
      "hospit": 8898,
      "abolished##": 8899,
      "succession##": 8900,
      "ining##": 8901,
      "revers": 8902,
      "ung##": 8903,
      "agent##": 8904,
      "maria##": 8905,
      "fault##": 8906,
      "conflicts##": 8907,
      "caval": 8908,
      "numbered##": 8909,
      "uefa##": 8910,
      "yi": 8911,
      "atively##": 8912,
      "evening##": 8913,
      "stein##": 8914,
      "funded##": 8915,
      "install": 8916,
      "everton##": 8917,
      "restrictions##": 8918,
      "physi": 8919,
      "referendum##": 8920,
      "montevideo##": 8921,
      "mou": 8922,
      "ero##": 8923,
      "job##": 8924,
      "designs##": 8925,
      "civilian##": 8926,
      "susp": 8927,
      "aim##": 8928,
      "ywood##": 8929,
      "assets##": 8930,
      "worship##": 8931,
      "feel##": 8932,
      "objec": 8933,
      "stars##": 8934,
      "denied##": 8935,
      "karyo": 8936,
      "neighboring##": 8937,
      "repeated##": 8938,
      "recommended##": 8939,
      "pesticides##": 8940,
      "mic##": 8941,
      "inian##": 8942,
      "rever": 8943,
      "resc": 8944,
      "ony": 8945,
      "diet##": 8946,
      "haw": 8947,
      "boat##": 8948,
      "geographical##": 8949,
      "1952##": 8950,
      "condition##": 8951,
      "phrase##": 8952,
      "amendment##": 8953,
      "jay##": 8954,
      "mir##": 8955,
      "tul": 8956,
      "acle##": 8957,
      "ticated##": 8958,
      "architects##": 8959,
      "charges##": 8960,
      "ceremon": 8961,
      "zhejiang##": 8962,
      "eat##": 8963,
      "fications##": 8964,
      "adults##": 8965,
      "belong##": 8966,
      "writings##": 8967,
      "nationalist##": 8968,
      "dollars##": 8969,
      "enforcement##": 8970,
      "jor": 8971,
      "jones##": 8972,
      "repl": 8973,
      "hair##": 8974,
      "phony##": 8975,
      "edge##": 8976,
      "educated##": 8977,
      "younger##": 8978,
      "task##": 8979,
      "ignty##": 8980,
      "invention##": 8981,
      "crit": 8982,
      "convic": 8983,
      "centres##": 8984,
      "counties##": 8985,
      "twili": 8986,
      "warm##": 8987,
      "warfare##": 8988,
      "links##": 8989,
      "holders##": 8990,
      "surviving##": 8991,
      "participated##": 8992,
      "exclusively##": 8993,
      "sovereignty##": 8994,
      "rolling##": 8995,
      "twilight##": 8996,
      "cit": 8997,
      "reti": 8998,
      "atol": 8999,
      "1917##": 9000,
      "commem": 9001,
      "luf": 9002,
      "connecting##": 9003,
      "ponti": 9004,
      "nickname##": 9005,
      "pair##": 9006,
      "actor##": 9007,
      "ables##": 9008,
      "immun": 9009,
      "obama##": 9010,
      "slavs##": 9011,
      "safe##": 9012,
      "iro##": 9013,
      "busi": 9014,
      "hebrew##": 9015,
      "signs##": 9016,
      "obtain##": 9017,
      "follows##": 9018,
      "1955##": 9019,
      "closer##": 9020,
      "customers##": 9021,
      "offensive##": 9022,
      "opponents##": 9023,
      "avicenna##": 9024,
      "07##": 9025,
      "gat": 9026,
      "refin": 9027,
      "cher##": 9028,
      "1910##": 9029,
      "suburban##": 9030,
      "michi": 9031,
      "lama##": 9032,
      "beauti": 9033,
      "wealthy##": 9034,
      "cappella##": 9035,
      "sylvania##": 9036,
      "woo": 9037,
      "illegal##": 9038,
      "manner##": 9039,
      "porter##": 9040,
      "incand": 9041,
      "ethnic": 9042,
      "1951##": 9043,
      "females##": 9044,
      "drinking##": 9045,
      "enly##": 9046,
      "rot": 9047,
      "bed": 9048,
      "evangel": 9049,
      "weak##": 9050,
      "com##": 9051,
      "argo##": 9052,
      "geom": 9053,
      "territorial##": 9054,
      "traits##": 9055,
      "mixture##": 9056,
      "citizenship##": 9057,
      "aic##": 9058,
      "bited##": 9059,
      "tune##": 9060,
      "vin##": 9061,
      "inci": 9062,
      "trum": 9063,
      "sphere##": 9064,
      "imag": 9065,
      "motiv": 9066,
      "tedly##": 9067,
      "essentially##": 9068,
      "eway##": 9069,
      "fill##": 9070,
      "hungary##": 9071,
      "announc": 9072,
      "teacher##": 9073,
      "dramatic##": 9074,
      "cavalry##": 9075,
      "hud": 9076,
      "reformed##": 9077,
      "accompl": 9078,
      "learned##": 9079,
      "romantic##": 9080,
      "narrow##": 9081,
      "provincial##": 9082,
      "indeed##": 9083,
      "discipline##": 9084,
      "ig##": 9085,
      "mon##": 9086,
      "ores##": 9087,
      "inum##": 9088,
      "moon##": 9089,
      "mining##": 9090,
      "minute##": 9091,
      "secution##": 9092,
      "compact##": 9093,
      "printing##": 9094,
      "copy##": 9095,
      "1936##": 9096,
      "competitions##": 9097,
      "thereby##": 9098,
      "abulary##": 9099,
      "oon##": 9100,
      "reserves##": 9101,
      "sight##": 9102,
      "rid##": 9103,
      "supplies##": 9104,
      "save##": 9105,
      "key": 9106,
      "1954##": 9107,
      "bomb##": 9108,
      "reflec": 9109,
      "spiritual##": 9110,
      "cuisine##": 9111,
      "michigan##": 9112,
      "fm##": 9113,
      "none##": 9114,
      "tari": 9115,
      "stam": 9116,
      "phy##": 9117,
      "toral##": 9118,
      "1938##": 9119,
      "lamp##": 9120,
      "abstr": 9121,
      "1922##": 9122,
      "eda##": 9123,
      "affe##": 9124,
      "fresh##": 9125,
      "salv": 9126,
      "decreased##": 9127,
      "banned##": 9128,
      "franklin##": 9129,
      "caesar##": 9130,
      "04##": 9131,
      "kur": 9132,
      "spending##": 9133,
      "worst##": 9134,
      "mix##": 9135,
      "initiative##": 9136,
      "involves##": 9137,
      "horiz": 9138,
      "elevation##": 9139,
      "reflect##": 9140,
      "experimental##": 9141,
      "thinking##": 9142,
      "farmers##": 9143,
      "details##": 9144,
      "bla": 9145,
      "nato##": 9146,
      "answ": 9147,
      "enn": 9148,
      "orph": 9149,
      "eleven##": 9150,
      "administ": 9151,
      "extrac": 9152,
      "predec": 9153,
      "presti": 9154,
      "rison##": 9155,
      "tiveness##": 9156,
      "continuing##": 9157,
      "ranks##": 9158,
      "judg": 9159,
      "philosophers##": 9160,
      "adoption##": 9161,
      "denominations##": 9162,
      "victims##": 9163,
      "fame##": 9164,
      "chen##": 9165,
      "pled##": 9166,
      "ght": 9167,
      "noise##": 9168,
      "boards##": 9169,
      "tech##": 9170,
      "transcri": 9171,
      "receives##": 9172,
      "gardens##": 9173,
      "base": 9174,
      "explained##": 9175,
      "potenti": 9176,
      "aes": 9177,
      "eter##": 9178,
      "sioned##": 9179,
      "capita##": 9180,
      "bru": 9181,
      "entities##": 9182,
      "breaking##": 9183,
      "connect##": 9184,
      "tourists##": 9185,
      "superior##": 9186,
      "umayy": 9187,
      "nazi##": 9188,
      "vess": 9189,
      "1943##": 9190,
      "necessarily##": 9191,
      "antarctic##": 9192,
      "renewable##": 9193,
      "chromos": 9194,
      "thuringia##": 9195,
      "seventh##": 9196,
      "vessels##": 9197,
      "map": 9198,
      "youth##": 9199,
      "reason": 9200,
      "emigr": 9201,
      "loans##": 9202,
      "singing##": 9203,
      "wake##": 9204,
      "psychology##": 9205,
      "electronics##": 9206,
      "enz": 9207,
      "consecu": 9208,
      "forb": 9209,
      "tools##": 9210,
      "doors##": 9211,
      "philosopher##": 9212,
      "agreements##": 9213,
      "nur": 9214,
      "roll##": 9215,
      "carib": 9216,
      "ify##": 9217,
      "kets##": 9218,
      "registered##": 9219,
[...]
