{
  "version": "1.0",
  "truncation": null,
  "padding": null,
  "added_tokens": [
    {
      "id": 0,
      "content": "[UNK]",
      "single_word": false,
      "lstrip": false,
      "rstrip": false,
      "normalized": false,
      "special": true
    },
    {
      "id": 1,
      "content": "[PAD]",
      "single_word": false,
      "lstrip": false,
      "rstrip": false,
      "normalized": false,
      "special": true
    },
    {
      "id": 2,
      "content": "[MASK]",
      "single_word": false,
      "lstrip": false,
      "rstrip": false,
      "normalized": false,
      "special": true
    },
    {
      "id": 3,
      "content": "[SOS]",
      "single_word": false,
      "lstrip": false,
      "rstrip": false,
      "normalized": false,
      "special": true
    },
    {
      "id": 4,
      "content": "[EOS]",
      "single_word": false,
      "lstrip": false,
      "rstrip": false,
      "normalized": false,
      "special": true
    }
  ],
  "normalizer": {
    "type": "Lowercase"
  },
  "pre_tokenizer": {
    "type": "Whitespace"
  },
  "post_processor": {
    "type": "TemplateProcessing",
    "single": [
      {
        "SpecialToken": {
          "id": "[SOS]",
          "type_id": 0
        }
      },
      {
        "Sequence": {
          "id": "A",
          "type_id": 0
        }
      },
      {
        "SpecialToken": {
          "id": "[EOS]",
          "type_id": 0
        }
      }
    ],
    "pair": [
      {
        "Sequence": {
          "id": "A",
          "type_id": 0
        }
      },
      {
        "Sequence": {
          "id": "B",
          "type_id": 1
        }
      }
    ],
    "special_tokens": {
      "[EOS]": {
        "id": "[EOS]",
        "ids": [
          4
        ],
        "tokens": [
          "[EOS]"
        ]
      },
      "[SOS]": {
        "id": "[SOS]",
        "ids": [
          3
        ],
        "tokens": [
          "[SOS]"
        ]
      }
    }
  },
  "decoder": {
    "type": "BPEDecoder",
    "suffix": "##"
  },
  "model": {
    "type": "BPE",
    "dropout": null,
    "unk_token": "[UNK]",
    "continuing_subword_prefix": null,
    "end_of_word_suffix": "##",
    "fuse_unk": false,
    "byte_fallback": false,
    "ignore_merges": false,
    "vocab": {
      "[UNK]": 0,
      "[PAD]": 1,
      "[MASK]": 2,
      "[SOS]": 3,
      "[EOS]": 4,
      "!": 5,
      "\"": 6,
      "#": 7,
      "$": 8,
      "%": 9,
      "&": 10,
      "'": 11,
      "(": 12,
      ")": 13,
      "*": 14,
      "+": 15,
      ",": 16,
      "-": 17,
      ".": 18,
      "/": 19,
      "0": 20,
      "1": 21,
      "2": 22,
      "3": 23,
      "4": 24,
      "5": 25,
      "6": 26,
      "7": 27,
      "8": 28,
      "9": 29,
      ":": 30,
      ";": 31,
      "<": 32,
      "=": 33,
      ">": 34,
      "?": 35,
      "@": 36,
      "[": 37,
      "]": 38,
      "^": 39,
      "_": 40,
      "`": 41,
      "a": 42,
      "b": 43,
      "c": 44,
      "d": 45,
      "e": 46,
      "f": 47,
      "g": 48,
      "h": 49,
      "i": 50,
      "j": 51,
      "k": 52,
      "l": 53,
      "m": 54,
      "n": 55,
      "o": 56,
      "p": 57,
      "q": 58,
      "r": 59,
      "s": 60,
      "t": 61,
      "u": 62,
      "v": 63,
      "w": 64,
      "x": 65,
      "y": 66,
      "z": 67,
      "{": 68,
      "|": 69,
      "}": 70,
      "~": 71,
      "¢": 72,
      "£": 73,
      "¥": 74,
      "§": 75,
      "°": 76,
      "±": 77,
      "²": 78,
      "´": 79,
      "µ": 80,
      "·": 81,
      "½": 82,
      "¿": 83,
      "×": 84,
      "ß": 85,
      "à": 86,
      "á": 87,
      "â": 88,
      "ã": 89,
      "ä": 90,
      "å": 91,
      "æ": 92,
      "ç": 93,
      "è": 94,
      "é": 95,
      "ê": 96,
      "ë": 97,
      "ì": 98,
      "í": 99,
      "î": 100,
      "ï": 101,
      "ð": 102,
      "ñ": 103,
      "ò": 104,
      "ó": 105,
      "ô": 106,
      "õ": 107,
      "ö": 108,
      "÷": 109,
      "ø": 110,
      "ù": 111,
      "ú": 112,
      "û": 113,
      "ü": 114,
      "ý": 115,
      "þ": 116,
      "ÿ": 117,
      "ā": 118,
      "ă": 119,
      "ą": 120,
      "ć": 121,
      "ċ": 122,
      "č": 123,
      "ď": 124,
      "đ": 125,
      "ē": 126,
      "ė": 127,
      "ę": 128,
      "ě": 129,
      "ğ": 130,
      "ġ": 131,
      "ħ": 132,
      "ī": 133,
      "ĭ": 134,
      "ı": 135,
      "ļ": 136,
      "ł": 137,
      "ń": 138,
      "ň": 139,
      "ŋ": 140,
      "ō": 141,
      "ŏ": 142,
      "ő": 143,
      "œ": 144,
      "ř": 145,
      "ś": 146,
      "ş": 147,
      "š": 148,
      "ţ": 149,
      "ť": 150,
      "ũ": 151,
      "ū": 152,
      "ŭ": 153,
      "ů": 154,
      "ŵ": 155,
      "ź": 156,
      "ż": 157,
      "ž": 158,
      "ơ": 159,
      "ư": 160,
      "ƿ": 161,
      "ǀ": 162,
      "ǁ": 163,
      "ǂ": 164,
      "ǃ": 165,
      "ǎ": 166,
      "ǐ": 167,
      "ǒ": 168,
      "ǔ": 169,
      "ǜ": 170,
      "ǥ": 171,
      "ǵ": 172,
      "ș": 173,
      "ț": 174,
      "ɐ": 175,
      "ɑ": 176,
      "ɒ": 177,
      "ɔ": 178,
      "ɕ": 179,
      "ɖ": 180,
      "ə": 181,
      "ɛ": 182,
      "ɜ": 183,
      "ɡ": 184,
      "ɢ": 185,
      "ɣ": 186,
      "ɤ": 187,
      "ɥ": 188,
      "ɦ": 189,
      "ɨ": 190,
      "ɪ": 191,
      "ɫ": 192,
      "ɯ": 193,
      "ɳ": 194,
      "ɹ": 195,
      "ɾ": 196,
      "ʀ": 197,
      "ʁ": 198,
      "ʂ": 199,
      "ʃ": 200,
      "ʈ": 201,
      "ʊ": 202,
      "ʌ": 203,
      "ʎ": 204,
      "ʏ": 205,
      "ʒ": 206,
      "ʔ": 207,
      "ʕ": 208,
      "ʘ": 209,
      "ʰ": 210,
      "ʱ": 211,
      "ʲ": 212,
      "ʻ": 213,
      "ʼ": 214,
      "ʾ": 215,
      "ʿ": 216,
      "ˀ": 217,
      "ˇ": 218,
      "ˈ": 219,
      "ˌ": 220,
      "ː": 221,
      "ˤ": 222,
      "˥": 223,
      "˧": 224,
      "˨": 225,
      "˩": 226,
      "˭": 227,
      "̀": 228,
      "́": 229,
      "̃": 230,
      "̄": 231,
      "̇": 232,
      "̌": 233,
      "̍": 234,
      "̞": 235,
      "̠": 236,
      "̥": 237,
      "̧": 238,
      "̩": 239,
      "̪": 240,
      "̯": 241,
      "͡": 242,
      "ά": 243,
      "έ": 244,
      "ή": 245,
      "ί": 246,
      "α": 247,
      "β": 248,
      "γ": 249,
      "δ": 250,
      "ε": 251,
      "ζ": 252,
      "η": 253,
      "θ": 254,
      "ι": 255,
      "κ": 256,
      "λ": 257,
      "μ": 258,
      "ν": 259,
      "ξ": 260,
      "ο": 261,
      "π": 262,
      "ρ": 263,
      "ς": 264,
      "σ": 265,
      "τ": 266,
      "υ": 267,
      "φ": 268,
      "χ": 269,
      "ω": 270,
      "ό": 271,
      "ύ": 272,
      "ώ": 273,
      "а": 274,
      "б": 275,
      "в": 276,
      "г": 277,
      "д": 278,
      "е": 279,
      "ж": 280,
      "з": 281,
      "и": 282,
      "й": 283,
      "к": 284,
      "л": 285,
      "м": 286,
      "н": 287,
      "о": 288,
      "п": 289,
      "р": 290,
      "с": 291,
      "т": 292,
      "у": 293,
      "ф": 294,
      "х": 295,
      "ц": 296,
      "ч": 297,
      "ш": 298,
      "щ": 299,
      "ъ": 300,
      "ы": 301,
      "ь": 302,
      "ю": 303,
      "я": 304,
      "ё": 305,
      "є": 306,
      "і": 307,
      "ї": 308,
      "ј": 309,
      "ў": 310,
      "ѣ": 311,
      "ѧ": 312,
      "ѩ": 313,
      "ѫ": 314,
      "ѭ": 315,
      "ѳ": 316,
      "ѵ": 317,
      "ҳ": 318,
      "ҷ": 319,
      "ա": 320,
      "բ": 321,
      "ի": 322,
      "լ": 323,
      "կ": 324,
      "հ": 325,
      "յ": 326,
      "ն": 327,
      "պ": 328,
      "ս": 329,
      "տ": 330,
      "ր": 331,
      "ց": 332,
      "ְ": 333,
      "ִ": 334,
      "ֵ": 335,
      "ַ": 336,
      "ָ": 337,
      "ֹ": 338,
      "ּ": 339,
      "ֿ": 340,
      "ׁ": 341,
      "ׂ": 342,
      "א": 343,
      "ב": 344,
      "ד": 345,
      "ה": 346,
      "ו": 347,
      "ז": 348,
      "ח": 349,
      "ט": 350,
      "י": 351,
      "ך": 352,
      "ל": 353,
      "ם": 354,
      "מ": 355,
      "ן": 356,
      "נ": 357,
      "ס": 358,
      "ע": 359,
      "פ": 360,
      "צ": 361,
      "ק": 362,
      "ר": 363,
      "ש": 364,
      "ת": 365,
      "ײ": 366,
      "ء": 367,
      "أ": 368,
      "إ": 369,
      "ئ": 370,
      "ا": 371,
      "ب": 372,
      "ة": 373,
      "ت": 374,
      "ث": 375,
      "ج": 376,
      "ح": 377,
      "خ": 378,
      "د": 379,
      "ذ": 380,
      "ر": 381,
      "س": 382,
      "ش": 383,
      "ص": 384,
      "ض": 385,
      "ظ": 386,
      "ع": 387,
      "ف": 388,
      "ق": 389,
      "ك": 390,
      "ل": 391,
      "م": 392,
      "ن": 393,
      "ه": 394,
      "و": 395,
      "ى": 396,
      "ي": 397,
      "َ": 398,
      "ُ": 399,
      "ِ": 400,
      "ّ": 401,
      "ْ": 402,
      "ٔ": 403,
      "پ": 404,
      "ی": 405,
      "ܐ": 406,
      "ܝ": 407,
      "ܢ": 408,
      "ܩ": 409,
      "ܪ": 410,
      "ः": 411,
      "ई": 412,
      "क": 413,
      "ख": 414,
      "ग": 415,
      "ठ": 416,
      "ड": 417,
      "ण": 418,
      "त": 419,
      "द": 420,
      "ध": 421,
      "न": 422,
      "प": 423,
      "ब": 424,
      "म": 425,
      "य": 426,
      "र": 427,
      "ष": 428,
      "स": 429,
      "ा": 430,
      "ि": 431,
      "ु": 432,
      "ॊ": 433,
      "्": 434,
      "ข": 435,
      "ย": 436,
      "ว": 437,
      "ี": 438,
      "เ": 439,
      "་": 440,
      "ད": 441,
      "བ": 442,
      "ོ": 443,
      "ሂ": 444,
      "ላ": 445,
      "ሪ": 446,
      "ሻ": 447,
      "ቡ": 448,
      "ታ": 449,
      "ን": 450,
      "ᏹ": 451,
      "ᵻ": 452,
      "ᶢ": 453,
      "ḍ": 454,
      "ḗ": 455,
      "ḥ": 456,
      "ḱ": 457,
      "ḷ": 458,
      "ṃ": 459,
      "ṅ": 460,
      "ṇ": 461,
      "ṛ": 462,
      "ṣ": 463,
      "ṭ": 464,
      "ẓ": 465,
      "ả": 466,
      "ấ": 467,
      "ế": 468,
      "ễ": 469,
      "ỉ": 470,
      "ố": 471,
      "ồ": 472,
      "ớ": 473,
      "ờ": 474,
      "ụ": 475,
      "ữ": 476,
      "ἀ": 477,
      "ἁ": 478,
      "ἄ": 479,
      "ἐ": 480,
      "ἑ": 481,
      "ἔ": 482,
      "ἡ": 483,
      "ἥ": 484,
      "ἰ": 485,
      "ἴ": 486,
      "ἵ": 487,
      "ἶ": 488,
      "ὐ": 489,
      "ὑ": 490,
      "ὠ": 491,
      "ὰ": 492,
      "ὲ": 493,
      "ὸ": 494,
      "ῆ": 495,
      "ῖ": 496,
      "ῦ": 497,
      "ῶ": 498,
      "​": 499,
      "‌": 500,
      "‍": 501,
      "‎": 502,
      "‑": 503,
      "–": 504,
      "—": 505,
      "‘": 506,
      "’": 507,
      "“": 508,
      "”": 509,
      "•": 510,
      "…": 511,
      "′": 512,
      "″": 513,
      "›": 514,
      "⁄": 515,
      "⁊": 516,
      "₂": 517,
      "₥": 518,
      "€": 519,
      "₯": 520,
      "₹": 521,
      "№": 522,
      "⅓": 523,
      "→": 524,
      "∈": 525,
      "−": 526,
      "∖": 527,
      "≡": 528,
      "≥": 529,
      "◌": 530,
      "♆": 531,
      "♠": 532,
      "♯": 533,
      "❤": 534,
      "⟨": 535,
      "⟩": 536,
      "ⲏ": 537,
      "ⲓ": 538,
      "ⲙ": 539,
      "ⲭ": 540,
      "。": 541,
      "《": 542,
      "》": 543,
      "〜": 544,
      "い": 545,
      "た": 546,
      "つ": 547,
      "て": 548,
      "の": 549,
      "は": 550,
      "り": 551,
      "ろ": 552,
      "ァ": 553,
      "イ": 554,
      "カ": 555,
      "グ": 556,
      "コ": 557,
      "ス": 558,
      "セ": 559,
      "ゼ": 560,
      "タ": 561,
      "ダ": 562,
      "ッ": 563,
      "ト": 564,
      "パ": 565,
      "ピ": 566,
      "フ": 567,
      "プ": 568,
      "ミ": 569,
      "ュ": 570,
      "ラ": 571,
      "リ": 572,
      "ル": 573,
      "ワ": 574,
      "ン": 575,
      "ー": 576,
      "㓾": 577,
      "上": 578,
      "下": 579,
      "不": 580,
      "业": 581,
      "东": 582,
      "中": 583,
      "之": 584,
      "书": 585,
      "五": 586,
      "产": 587,
      "京": 588,
      "人": 589,
      "今": 590,
      "仕": 591,
      "代": 592,
      "仪": 593,
      "伐": 594,
      "伝": 595,
      "伯": 596,
      "体": 597,
      "何": 598,
      "佬": 599,
      "侍": 600,
      "俄": 601,
      "候": 602,
      "像": 603,
      "元": 604,
      "克": 605,
      "免": 606,
      "入": 607,
      "八": 608,
      "公": 609,
      "冶": 610,
      "凹": 611,
      "分": 612,
      "制": 613,
      "前": 614,
      "剎": 615,
      "劇": 616,
      "力": 617,
      "动": 618,
      "包": 619,
      "北": 620,
      "区": 621,
      "十": 622,
      "千": 623,
      "南": 624,
      "卫": 625,
      "印": 626,
      "又": 627,
      "发": 628,
      "受": 629,
      "叠": 630,
      "口": 631,
      "古": 632,
      "只": 633,
      "可": 634,
      "司": 635,
      "后": 636,
      "吐": 637,
      "唐": 638,
      "団": 639,
      "国": 640,
      "图": 641,
      "國": 642,
      "圖": 643,
      "土": 644,
      "地": 645,
      "坪": 646,
      "城": 647,
      "埠": 648,
      "基": 649,
      "堂": 650,
      "境": 651,
      "士": 652,
      "复": 653,
      "大": 654,
      "天": 655,
      "夷": 656,
      "奉": 657,
      "奴": 658,
      "子": 659,
      "字": 660,
      "宁": 661,
      "安": 662,
      "宗": 663,
      "家": 664,
      "寧": 665,
      "对": 666,
      "导": 667,
      "将": 668,
      "尉": 669,
      "導": 670,
      "小": 671,
      "島": 672,
      "川": 673,
      "巡": 674,
      "巴": 675,
      "布": 676,
      "帝": 677,
      "帥": 678,
      "師": 679,
      "常": 680,
      "平": 681,
      "庁": 682,
      "庆": 683,
      "库": 684,
      "府": 685,
      "庫": 686,
      "康": 687,
      "廚": 688,
      "建": 689,
      "开": 690,
      "弘": 691,
      "当": 692,
      "征": 693,
      "後": 694,
      "徒": 695,
      "御": 696,
      "忒": 697,
      "思": 698,
      "总": 699,
      "恢": 700,
      "息": 701,
      "惡": 702,
      "愛": 703,
      "憂": 704,
      "成": 705,
      "戰": 706,
      "才": 707,
      "批": 708,
      "技": 709,
      "把": 710,
      "折": 711,
      "拉": 712,
      "拿": 713,
      "挑": 714,
      "捨": 715,
      "提": 716,
      "援": 717,
      "撫": 718,
      "支": 719,
      "斗": 720,
      "斬": 721,
      "斯": 722,
      "新": 723,
      "方": 724,
      "於": 725,
      "族": 726,
      "日": 727,
      "旧": 728,
      "明": 729,
      "星": 730,
      "時": 731,
      "曲": 732,
      "書": 733,
      "曹": 734,
      "替": 735,
      "月": 736,
      "有": 737,
      "朝": 738,
      "术": 739,
      "朱": 740,
      "李": 741,
      "杭": 742,
      "東": 743,
      "杷": 744,
      "枇": 745,
      "林": 746,
      "校": 747,
      "案": 748,
      "桓": 749,
      "楊": 750,
      "業": 751,
      "槐": 752,
      "様": 753,
      "標": 754,
      "檀": 755,
      "次": 756,
      "武": 757,
      "比": 758,
      "民": 759,
      "水": 760,
      "氵": 761,
      "汉": 762,
      "江": 763,
      "汶": 764,
      "沐": 765,
      "泉": 766,
      "法": 767,
      "泥": 768,
      "洞": 769,
      "洲": 770,
      "流": 771,
      "济": 772,
      "浙": 773,
      "海": 774,
      "淮": 775,
      "清": 776,
      "済": 777,
      "渣": 778,
      "渤": 779,
      "準": 780,
      "漢": 781,
      "漳": 782,
      "澄": 783,
      "灾": 784,
      "烏": 785,
      "爭": 786,
      "爱": 787,
      "父": 788,
      "片": 789,
      "特": 790,
      "献": 791,
      "獻": 792,
      "王": 793,
      "现": 794,
      "理": 795,
      "琵": 796,
      "琶": 797,
      "用": 798,
      "田": 799,
      "番": 800,
      "白": 801,
      "的": 802,
      "皆": 803,
      "皇": 804,
      "盛": 805,
      "督": 806,
      "知": 807,
      "石": 808,
      "祐": 809,
      "禅": 810,
      "福": 811,
      "秣": 812,
      "竜": 813,
      "章": 814,
      "竹": 815,
      "篆": 816,
      "籲": 817,
      "米": 818,
      "粁": 819,
      "系": 820,
      "約": 821,
      "紅": 822,
      "紐": 823,
      "紫": 824,
      "紹": 825,
      "統": 826,
      "綠": 827,
      "維": 828,
      "緑": 829,
      "縣": 830,
      "總": 831,
      "红": 832,
      "绍": 833,
      "经": 834,
      "统": 835,
      "维": 836,
      "義": 837,
      "習": 838,
      "考": 839,
      "耶": 840,
      "耿": 841,
      "腐": 842,
      "膺": 843,
      "臨": 844,
      "興": 845,
      "舍": 846,
      "航": 847,
      "船": 848,
      "良": 849,
      "苏": 850,
      "苗": 851,
      "英": 852,
      "草": 853,
      "菩": 854,
      "華": 855,
      "萨": 856,
      "蒲": 857,
      "蕃": 858,
      "薩": 859,
      "藍": 860,
      "藏": 861,
      "虫": 862,
      "蜀": 863,
      "蝴": 864,
      "蝶": 865,
      "衛": 866,
      "表": 867,
      "西": 868,
      "覆": 869,
      "親": 870,
      "言": 871,
      "試": 872,
      "話": 873,
      "語": 874,
      "説": 875,
      "让": 876,
      "试": 877,
      "话": 878,
      "语": 879,
      "豆": 880,
      "豔": 881,
      "越": 882,
      "趙": 883,
      "軍": 884,
      "通": 885,
      "過": 886,
      "邑": 887,
      "那": 888,
      "部": 889,
      "都": 890,
      "鄴": 891,
      "釁": 892,
      "重": 893,
      "金": 894,
      "銖": 895,
      "鋪": 896,
      "铺": 897,
      "長": 898,
      "門": 899,
      "閏": 900,
      "閩": 901,
      "闽": 902,
      "陋": 903,
      "院": 904,
      "陵": 905,
      "隶": 906,
      "隸": 907,
      "雍": 908,
      "震": 909,
      "青": 910,
      "韓": 911,
      "顯": 912,
      "风": 913,
      "騷": 914,
      "驗": 915,
      "验": 916,
      "體": 917,
      "高": 918,
      "鬱": 919,
      "魂": 920,
      "魄": 921,
      "魏": 922,
      "鮮": 923,
      "鱻": 924,
      "鲁": 925,
      "鲜": 926,
      "齉": 927,
      "龍": 928,
      "龘": 929,
      "ꜣ": 930,
      "ꭰ": 931,
      "ꭳ": 932,
      "ꭶ": 933,
      "ꭸ": 934,
      "ꭹ": 935,
      "ꮀ": 936,
      "ꮃ": 937,
      "ꮉ": 938,
      "ꮎ": 939,
      "ꮝ": 940,
      "ꮟ": 941,
      "ꮤ": 942,
      "ꮿ": 943,
      "고": 944,
      "교": 945,
      "국": 946,
      "기": 947,
      "나": 948,
      "대": 949,
      "동": 950,
      "라": 951,
      "람": 952,
      "래": 953,
      "려": 954,
      "로": 955,
      "름": 956,
      "물": 957,
      "방": 958,
      "보": 959,
      "부": 960,
      "비": 961,
      "사": 962,
      "선": 963,
      "소": 964,
      "수": 965,
      "슈": 966,
      "신": 967,
      "아": 968,
      "예": 969,
      "을": 970,
      "이": 971,
      "인": 972,
      "작": 973,
      "장": 974,
      "쟁": 975,
      "전": 976,
      "조": 977,
      "족": 978,
      "컴": 979,
      "큰": 980,
      "통": 981,
      "파": 982,
      "퍼": 983,
      "하": 984,
      "한": 985,
      "합": 986,
      "해": 987,
      "현": 988,
      "회": 989,
      "ﬁ": 990,
      "ﬂ": 991,
      "﻿": 992,
      "，": 993,
      "～": 994,
      "�": 995,
      "𐀊": 996,
      "𐀍": 997,
      "𐀚": 998,
      "𐀞": 999,
      "𒄑": 1000,
      "𒆳": 1001,
      "𒈪": 1002,
      "𒊒": 1003,
      "𠔻": 1004,
      "𪚥": 1005,
      "r##": 1006,
      "c##": 1007,
      "s##": 1008,
      "l##": 1009,
      "a##": 1010,
      "g##": 1011,
      "e##": 1012,
      "*##": 1013,
      "x##": 1014,
      "n##": 1015,
      "o##": 1016,
      "m##": 1017,
      "k##": 1018,
      "i##": 1019,
      "6##": 1020,
      "y##": 1021,
      "t##": 1022,
      "d##": 1023,
      "ļ##": 1024,
      ")##": 1025,
      "f##": 1026,
      "u##": 1027,
      "h##": 1028,
      "0##": 1029,
      ".##": 1030,
      "4##": 1031,
      "9##": 1032,
      "w##": 1033,
      "ī##": 1034,
      "b##": 1035,
      "ə##": 1036,
      "q##": 1037,
      "[##": 1038,
      "3##": 1039,
      "ː##": 1040,
      "p##": 1041,
      "ō##": 1042,
      "覆##": 1043,
      "]##": 1044,
      "5##": 1045,
      "а##": 1046,
      "?##": 1047,
      "2##": 1048,
      "z##": 1049,
      "7##": 1050,
      ",##": 1051,
      "ر##": 1052,
      "v##": 1053,
      "\"##": 1054,
      "ن##": 1055,
      "ν##": 1056,
      "é##": 1057,
      "ه##": 1058,
      "í##": 1059,
      "ς##": 1060,
      "ب##": 1061,
      "8##": 1062,
      "習##": 1063,
      "府##": 1064,
      "ç##": 1065,
      "ð##": 1066,
      "试##": 1067,
      "ó##": 1068,
      "ƿ##": 1069,
      "j##": 1070,
      "1##": 1071,
      "浙##": 1072,
      "軍##": 1073,
      "ǵ##": 1074,
      "ć##": 1075,
      "書##": 1076,
      "⟩##": 1077,
      "ŭ##": 1078,
      "ス##": 1079,
      "ʻ##": 1080,
      "特##": 1081,
      "+##": 1082,
      "ö##": 1083,
      "â##": 1084,
      "ل##": 1085,
      "̯##": 1086,
      "区##": 1087,
      "(##": 1088,
      "н##": 1089,
      "ā##": 1090,
      "ē##": 1091,
      "𪚥##": 1092,
      "《##": 1093,
      "…##": 1094,
      "ο##": 1095,
      "ʰ##": 1096,
      "е##": 1097,
      "字##": 1098,
      "ū##": 1099,
      "震##": 1100,
      "쟁##": 1101,
      "ί##": 1102,
      "ú##": 1103,
      "ы##": 1104,
      "к##": 1105,
      ":##": 1106,
      "æ##": 1107,
      "{##": 1108,
      "ά##": 1109,
      "á##": 1110,
      "蝶##": 1111,
      "ĭ##": 1112,
      "°##": 1113,
      "α##": 1114,
      "신##": 1115,
      "ὰ##": 1116,
      "^##": 1117,
      "ʼ##": 1118,
      "ъ##": 1119,
      "ѩ##": 1120,
      "𐀚##": 1121,
      "龍##": 1122,
      "子##": 1123,
      "र##": 1124,
      "は##": 1125,
      "ध##": 1126,
      "이##": 1127,
      "理##": 1128,
      "ة##": 1129,
      "$##": 1130,
      "ײ##": 1131,
      "η##": 1132,
      "أ##": 1133,
      "י##": 1134,
      "θ##": 1135,
      "л##": 1136,
      "€##": 1137,
      "‎##": 1138,
      "堂##": 1139,
      "è##": 1140,
      "案##": 1141,
      "京##": 1142,
      "й##": 1143,
      "豔##": 1144,
      "安##": 1145,
      "ʁ##": 1146,
      "像##": 1147,
      ";##": 1148,
      "υ##": 1149,
      "ü##": 1150,
      "÷##": 1151,
      "š##": 1152,
      "하##": 1153,
      "ò##": 1154,
      "/##": 1155,
      "～##": 1156,
      "祐##": 1157,
      "–##": 1158,
      "大##": 1159,
      "蕃##": 1160,
      "ˇ##": 1161,
      "ሂ##": 1162,
      "δ##": 1163,
      "'##": 1164,
      "ᏹ##": 1165,
      "庫##": 1166,
      "@##": 1167,
      "ό##": 1168,
      "ɣ##": 1169,
      "я##": 1170,
      "ی##": 1171,
      "ź##": 1172,
      "薩##": 1173,
      "𠔻##": 1174,
      "म##": 1175,
      "и##": 1176,
      "ḗ##": 1177,
      "包##": 1178,
      "康##": 1179,
      "à##": 1180,
      "γ##": 1181,
      "ן##": 1182,
      "ω##": 1183,
      "о##": 1184,
      "説##": 1185,
      "父##": 1186,
      "槐##": 1187,
      "国##": 1188,
      "ι##": 1189,
      "ì##": 1190,
      "동##": 1191,
      "ʊ##": 1192,
      "ו##": 1193,
      "ט##": 1194,
      "閏##": 1195,
      "회##": 1196,
      "韓##": 1197,
      "-##": 1198,
      "₂##": 1199,
      "督##": 1200,
      "̄##": 1201,
      "蜀##": 1202,
      "ت##": 1203,
      "過##": 1204,
      "ך##": 1205,
      "统##": 1206,
      "人##": 1207,
      "ٔ##": 1208,
      "鮮##": 1209,
      "藏##": 1210,
      "φ##": 1211,
      "ê##": 1212,
      "합##": 1213,
      "—##": 1214,
      "ʃ##": 1215,
      "舍##": 1216,
      "漢##": 1217,
      "ô##": 1218,
      "小##": 1219,
      "у##": 1220,
      "’##": 1221,
      "代##": 1222,
      "話##": 1223,
      "ý##": 1224,
      ">##": 1225,
      "≥##": 1226,
      "​##": 1227,
      "公##": 1228,
      "ù##": 1229,
      "伐##": 1230,
      "草##": 1231,
      "ם##": 1232,
      "ʒ##": 1233,
      "♯##": 1234,
      "ɾ##": 1235,
      "한##": 1236,
      "師##": 1237,
      "́##": 1238,
      "虫##": 1239,
      "ѣ##": 1240,
      "յ##": 1241,
      "‘##": 1242,
      "﻿##": 1243,
      "в##": 1244,
      "−##": 1245,
      "ь##": 1246,
      "ρ##": 1247,
      "ת##": 1248,
      "ج##": 1249,
      "宗##": 1250,
      "维##": 1251,
      "р##": 1252,
      "埠##": 1253,
      "叠##": 1254,
      "ë##": 1255,
      "制##": 1256,
      "那##": 1257,
      "ɪ##": 1258,
      "朝##": 1259,
      "士##": 1260,
      "õ##": 1261,
      "с##": 1262,
      "建##": 1263,
      "表##": 1264,
      "國##": 1265,
      "民##": 1266,
      "话##": 1267,
      "魄##": 1268,
      "尉##": 1269,
      "把##": 1270,
      "ń##": 1271,
      "ई##": 1272,
      "红##": 1273,
      "魂##": 1274,
      "람##": 1275,
      "銖##": 1276,
      "ł##": 1277,
      "ン##": 1278,
      "ɐ##": 1279,
      "萨##": 1280,
      "파##": 1281,
      "ň##": 1282,
      "鬱##": 1283,
      "ז##": 1284,
      "十##": 1285,
      "·##": 1286,
      "ц##": 1287,
      "統##": 1288,
      "ѧ##": 1289,
      "水##": 1290,
      "###": 1291,
      "ַ##": 1292,
      "南##": 1293,
      "ى##": 1294,
      "ѳ##": 1295,
      "粁##": 1296,
      "ि##": 1297,
      "釁##": 1298,
      "′##": 1299,
      "ώ##": 1300,
      "을##": 1301,
      "×##": 1302,
      "⟨##": 1303,
      "族##": 1304,
      "語##": 1305,
      "王##": 1306,
      "م##": 1307,
      "ě##": 1308,
      "ɛ##": 1309,
      "د##": 1310,
      "<##": 1311,
      "î##": 1312,
      "折##": 1313,
      "ř##": 1314,
      "름##": 1315,
      "&##": 1316,
      "书##": 1317,
      "²##": 1318,
      "~##": 1319,
      "ï##": 1320,
      "タ##": 1321,
      "з##": 1322,
      "章##": 1323,
      "業##": 1324,
      "綠##": 1325,
      "%##": 1326,
      "城##": 1327,
      "。##": 1328,
      "‍##": 1329,
      "נ##": 1330,
      "分##": 1331,
      "ǐ##": 1332,
      "齉##": 1333,
      "清##": 1334,
      "ع##": 1335,
      "þ##": 1336,
      "奴##": 1337,
      "ή##": 1338,
      "献##": 1339,
      "•##": 1340,
      "ă##": 1341,
      "و##": 1342,
      "曲##": 1343,
      "ǔ##": 1344,
      "ṣ##": 1345,
      "ɤ##": 1346,
      "陵##": 1347,
      "č##": 1348,
      "№##": 1349,
      "ꮉ##": 1350,
      "ʾ##": 1351,
      "ِ##": 1352,
      "ʱ##": 1353,
      "ß##": 1354,
      "ž##": 1355,
      "ད##": 1356,
      "س##": 1357,
      "ş##": 1358,
      "语##": 1359,
      "퍼##": 1360,
      "ċ##": 1361,
      "´##": 1362,
      "江##": 1363,
      "竹##": 1364,
      "鱻##": 1365,
      "ي##": 1366,
      "库##": 1367,
      "ѭ##": 1368,
      "¿##": 1369,
      "ّ##": 1370,
      "₹##": 1371,
      "禅##": 1372,
      "金##": 1373,
      "_##": 1374,
      "ء##": 1375,
      "̃##": 1376,
      "대##": 1377,
      "`##": 1378,
      "桓##": 1379,
      "ῦ##": 1380,
      "≡##": 1381,
      "青##": 1382,
      "帝##": 1383,
      "り##": 1384,
      "ġ##": 1385,
      "소##": 1386,
      "汉##": 1387,
      "ồ##": 1388,
      "寧##": 1389,
      "λ##": 1390,
      "体##": 1391,
      "큰##": 1392,
      "ä##": 1393,
      "”##": 1394,
      "ф##": 1395,
      "ꮟ##": 1396,
      "래##": 1397,
      "∈##": 1398,
      "藍##": 1399,
      "ख##": 1400,
      "魏##": 1401,
      "ɔ##": 1402,
      "❤##": 1403,
      "顯##": 1404,
      "п##": 1405,
      "족##": 1406,
      "劇##": 1407,
      "番##": 1408,
      "ի##": 1409,
      "ב##": 1410,
      "爭##": 1411,
      "비##": 1412,
      "ን##": 1413,
      "“##": 1414,
      "米##": 1415,
      "ø##": 1416,
      "緑##": 1417,
      "境##": 1418,
      "ا##": 1419,
      "ď##": 1420,
      "獻##": 1421,
      "£##": 1422,
      "苗##": 1423,
      "ѵ##": 1424,
      "又##": 1425,
      "→##": 1426,
      "船##": 1427,
      "洲##": 1428,
      "息##": 1429,
      "¥##": 1430,
      "西##": 1431,
      "ю##": 1432,
      "ה##": 1433,
      "明##": 1434,
      "β##": 1435,
      "̞##": 1436,
      "門##": 1437,
      "ẓ##": 1438,
      "つ##": 1439,
      "¢##": 1440,
      "न##": 1441,
      "𒈪##": 1442,
      "ʔ##": 1443,
      "″##": 1444,
      "ɡ##": 1445,
      "ว##": 1446,
      "家##": 1447,
      "〜##": 1448,
      "ť##": 1449,
      "ơ##": 1450,
      "膺##": 1451,
      "ύ##": 1452,
      "英##": 1453,
      "𒄑##": 1454,
      "徒##": 1455,
      "ŋ##": 1456,
      "ʎ##": 1457,
      "ⲓ##": 1458,
      "ɹ##": 1459,
      "ῖ##": 1460,
      "ˈ##": 1461,
      "下##": 1462,
      "龘##": 1463,
      "興##": 1464,
      "縣##": 1465,
      "淮##": 1466,
      "⁄##": 1467,
      "邑##": 1468,
      "ữ##": 1469,
      "|##": 1470,
      "ʂ##": 1471,
      "法##": 1472,
      "𒆳##": 1473,
      "琶##": 1474,
      "島##": 1475,
      "杭##": 1476,
      "§##": 1477,
      "♠##": 1478,
      "ܐ##": 1479,
      "π##": 1480,
      "부##": 1481,
      "±##": 1482,
      "ἀ##": 1483,
      "日##": 1484,
      "籲##": 1485,
      "ı##": 1486,
      "ɫ##": 1487,
      "千##": 1488,
      "庁##": 1489,
      "ठ##": 1490,
      "장##": 1491,
      "紅##": 1492,
      "星##": 1493,
      "⅓##": 1494,
      "忒##": 1495,
      "宁##": 1496,
      "ѫ##": 1497,
      "㓾##": 1498,
      "比##": 1499,
      "ő##": 1500,
      "免##": 1501,
      "，##": 1502,
      "ą##": 1503,
      "泥##": 1504,
      "◌##": 1505,
      "‑##": 1506,
      "प##": 1507,
      "ǜ##": 1508,
      "都##": 1509,
      "̩##": 1510,
      "!##": 1511,
      "田##": 1512,
      "ч##": 1513,
      "ɦ##": 1514,
      "片##": 1515,
      "ל##": 1516,
      "ã##": 1517,
      "˥##": 1518,
      "侍##": 1519,
      "ሪ##": 1520,
      "撫##": 1521,
      "ꮿ##": 1522,
      "ﬂ##": 1523,
      "∖##": 1524,
      "才##": 1525,
      "仪##": 1526,
      "竜##": 1527,
      "₯##": 1528,
      "물##": 1529,
      "인##": 1530,
      "ण##": 1531,
      "½##": 1532,
      "氵##": 1533,
      "ṃ##": 1534,
      "=##": 1535,
      "і##": 1536,
      "𒊒##": 1537,
      "維##": 1538,
      "ト##": 1539,
      "鄴##": 1540,
      "月##": 1541,
      "杷##": 1542,
      "수##": 1543,
      "th": 1544,
      "the##": 1545,
      "an": 1546,
      "in": 1547,
      "er": 1548,
      "ed##": 1549,
      "ti": 1550,
      "re": 1551,
      "ar": 1552,
      "en": 1553,
      "of##": 1554,
      "on": 1555,
      "in##": 1556,
      "and##": 1557,
      "or": 1558,
      "on##": 1559,
      "it": 1560,
      "er##": 1561,
      "st": 1562,
      "al": 1563,
      "ro": 1564,
      "es##": 1565,
      "at": 1566,
      "ing##": 1567,
      "as##": 1568,
      "to##": 1569,
      "ou": 1570,
      "ic": 1571,
      "al##": 1572,
      "an##": 1573,
      "is": 1574,
      "is##": 1575,
      "wh": 1576,
      "at##": 1577,
      "el": 1578,
      "ac": 1579,
      "ati": 1580,
      "ec": 1581,
      "or##": 1582,
      "om": 1583,
      "es": 1584,
      "ol": 1585,
      "ur": 1586,
      "as": 1587,
      "il": 1588,
      "am": 1589,
      "di": 1590,
      "en##": 1591,
      "un": 1592,
      "si": 1593,
      "ch": 1594,
      "ly##": 1595,
      "was##": 1596,
      "ri": 1597,
      "em": 1598,
      "li": 1599,
      "ent##": 1600,
      "con": 1601,
      "ad": 1602,
      "ent": 1603,
      "op": 1604,
      "su": 1605,
      "ag": 1606,
      "ir": 1607,
      "le##": 1608,
      "ation##": 1609,
      "us": 1610,
      "ve##": 1611,
      "ow": 1612,
      "be": 1613,
      "by##": 1614,
      "os": 1615,
      "de": 1616,
      "le": 1617,
      "ver": 1618,
      "for##": 1619,
      "19": 1620,
      "wit": 1621,
      "ap": 1622,
      "ce##": 1623,
      "ere##": 1624,
      "pro": 1625,
      "with##": 1626,
      "ab": 1627,
      "com": 1628,
      "ul": 1629,
      "ity##": 1630,
      "ar##": 1631,
      "se": 1632,
      "ha": 1633,
      "ne": 1634,
      "th##": 1635,
      "ig": 1636,
      "20": 1637,
      "ers##": 1638,
      "tr": 1639,
      "oun": 1640,
      "that##": 1641,
      "ex": 1642,
      "for": 1643,
      "ons##": 1644,
      "pl": 1645,
      "the": 1646,
      "tion##": 1647,
      "ma": 1648,
      "ts##": 1649,
      "sp": 1650,
      "man": 1651,
      "fro": 1652,
      "from##": 1653,
      "oc": 1654,
      "it##": 1655,
      "cl": 1656,
      "ate##": 1657,
      "are##": 1658,
      "per": 1659,
      "ch##": 1660,
      "sh": 1661,
      "vi": 1662,
      "du": 1663,
      "bu": 1664,
      "ted##": 1665,
      "par": 1666,
      "ter": 1667,
      "were##": 1668,
      "qu": 1669,
      "pre": 1670,
      "what##": 1671,
      "no": 1672,
      "ds##": 1673,
      "ich##": 1674,
      "st##": 1675,
      "af": 1676,
      "ther##": 1677,
      "ated##": 1678,
      "which##": 1679,
      "ci": 1680,
      "wor": 1681,
      "pe": 1682,
      "im": 1683,
      "oo": 1684,
      "est##": 1685,
      "ally##": 1686,
      "ra": 1687,
      "ye": 1688,
      "ud": 1689,
      "ter##": 1690,
      "ic##": 1691,
      "str": 1692,
      "por": 1693,
      "me": 1694,
      "ev": 1695,
      "00##": 1696,
      "mo": 1697,
      "um": 1698,
      "all##": 1699,
      "tw": 1700,
      "ff": 1701,
      "ld##": 1702,
      "ing": 1703,
      "its##": 1704,
      "one##": 1705,
      "est": 1706,
      "age##": 1707,
      "cent": 1708,
      "ded##": 1709,
      "ta": 1710,
      "be##": 1711,
      "ir##": 1712,
      "ame##": 1713,
      "gh": 1714,
      "la": 1715,
      "co": 1716,
      "ary##": 1717,
      "his##": 1718,
      "gre": 1719,
      "so##": 1720,
      "pu": 1721,
      "ang": 1722,
      "ow##": 1723,
      "der": 1724,
      "tim": 1725,
      "fir": 1726,
      "many##": 1727,
      "ost##": 1728,
      "id": 1729,
      "ia##": 1730,
      "tur": 1731,
      "onal##": 1732,
      "18": 1733,
      "ment##": 1734,
      "ph": 1735,
      "200": 1736,
      "),##": 1737,
      "ay##": 1738,
      "ies##": 1739,
      "has##": 1740,
      "city##": 1741,
      "us##": 1742,
      "cor": 1743,
      "all": 1744,
      "bo": 1745,
      "mar": 1746,
      "this##": 1747,
      "rou": 1748,
      "had##": 1749,
      "coun": 1750,
      "gi": 1751,
      "out##": 1752,
      "ome##": 1753,
      "other##": 1754,
      "au": 1755,
      "first##": 1756,
      "201": 1757,
      "tu": 1758,
      "duc": 1759,
      "have##": 1760,
      "ding##": 1761,
      "go": 1762,
      "tic": 1763,
      "ents##": 1764,
      "comm": 1765,
      "ver##": 1766,
      "our": 1767,
      "also##": 1768,
      "po": 1769,
      "did##": 1770,
      "ber##": 1771,
      "der##": 1772,
      "when##": 1773,
      "fe": 1774,
      "ine##": 1775,
      "cont": 1776,
      "bl": 1777,
      "ran": 1778,
      "their##": 1779,
      "to": 1780,
      "ser": 1781,
      "igh": 1782,
      "ay": 1783,
      "arg": 1784,
      "mil": 1785,
      "col": 1786,
      "pr": 1787,
      "ence##": 1788,
      "ese##": 1789,
      "most##": 1790,
      "year##": 1791,
      "new##": 1792,
      "own##": 1793,
      "he##": 1794,
      "nati": 1795,
      "av": 1796,
      "ates##": 1797,
      "not##": 1798,
      "hi": 1799,
      "he": 1800,
      "dis": 1801,
      "uni": 1802,
      "bec": 1803,
      "pol": 1804,
      "ke##": 1805,
      "ass": 1806,
      "pop": 1807,
      "fi": 1808,
      "ore##": 1809,
      "ong##": 1810,
      "min": 1811,
      "ast##": 1812,
      "ren": 1813,
      "ous##": 1814,
      "but##": 1815,
      "comp": 1816,
      "sec": 1817,
      "form": 1818,
      "clud": 1819,
      "att": 1820,
      "ties##": 1821,
      "ans##": 1822,
      "te": 1823,
      "gh##": 1824,
      "cre": 1825,
      "ting##": 1826,
      "ce": 1827,
      "ations##": 1828,
      "ely##": 1829,
      "ish##": 1830,
      "land##": 1831,
      "popul": 1832,
      "ess##": 1833,
      "includ": 1834,
      "og": 1835,
      "ty##": 1836,
      "ian##": 1837,
      "et##": 1838,
      ").##": 1839,
      "ish": 1840,
      "br": 1841,
      "nor": 1842,
      "ved##": 1843,
      "eng": 1844,
      "after##": 1845,
      "ad##": 1846,
      "fl": 1847,
      "who##": 1848,
      "gen": 1849,
      "ant##": 1850,
      "dec": 1851,
      "ars##": 1852,
      "sch": 1853,
      "de##": 1854,
      "mon": 1855,
      "sy": 1856,
      "ial##": 1857,
      "inter": 1858,
      "ould##": 1859,
      "ited##": 1860,
      "larg": 1861,
      "dur": 1862,
      "ical##": 1863,
      "how##": 1864,
      "ard##": 1865,
      "more##": 1866,
      "been##": 1867,
      "mu": 1868,
      "ell##": 1869,
      "used##": 1870,
      "king##": 1871,
      "ks##": 1872,
      "iz": 1873,
      "pres": 1874,
      "se##": 1875,
      "tions##": 1876,
      "ern##": 1877,
      "eu": 1878,
      "ade##": 1879,
      "sou": 1880,
      "able##": 1881,
      "do": 1882,
      "they##": 1883,
      "te##": 1884,
      "000##": 1885,
      "during##": 1886,
      "two##": 1887,
      "res##": 1888,
      "use##": 1889,
      "des": 1890,
      "ast": 1891,
      "ght##": 1892,
      "ain": 1893,
      "man##": 1894,
      "world##": 1895,
      "ater##": 1896,
      "el##": 1897,
      "pri": 1898,
      "than##": 1899,
      "ear": 1900,
      "off": 1901,
      "amer": 1902,
      "een##": 1903,
      "tri": 1904,
      "ace##": 1905,
      "into##": 1906,
      "ice##": 1907,
      "over##": 1908,
      "such##": 1909,
      "enti": 1910,
      "ory##": 1911,
      "als##": 1912,
      "ue##": 1913,
      "gr": 1914,
      "time##": 1915,
      "ree##": 1916,
      "ber": 1917,
      "led##": 1918,
      "are": 1919,
      "americ": 1920,
      "fin": 1921,
      "sti": 1922,
      "only##": 1923,
      "dev": 1924,
      "car": 1925,
      "state##": 1926,
      "ste": 1927,
      "ound##": 1928,
      "ased##": 1929,
      "arm": 1930,
      "id##": 1931,
      "some##": 1932,
      "ge##": 1933,
      "spec": 1934,
      "there##": 1935,
      "and": 1936,
      "ile##": 1937,
      "kn": 1938,
      "national##": 1939,
      "ury##": 1940,
      "ces##": 1941,
      "we": 1942,
      "ess": 1943,
      "ric": 1944,
      "ance##": 1945,
      "thou": 1946,
      "end": 1947,
      "ite##": 1948,
      "ru": 1949,
      "shi": 1950,
      "sion##": 1951,
      "our##": 1952,
      "vern": 1953,
      "num": 1954,
      "cu": 1955,
      "ure##": 1956,
      "gn": 1957,
      "peop": 1958,
      "bri": 1959,
      "tro": 1960,
      "jo": 1961,
      "ain##": 1962,
      "um##": 1963,
      "199": 1964,
      "tic##": 1965,
      "govern": 1966,
      "low": 1967,
      "ince##": 1968,
      "wi": 1969,
      "vers": 1970,
      "cap": 1971,
      "ist": 1972,
      "lo": 1973,
      "tor": 1974,
      "cri": 1975,
      "sol": 1976,
      "states##": 1977,
      "elec": 1978,
      "people##": 1979,
      "ann": 1980,
      "amp": 1981,
      "ose##": 1982,
      "euro": 1983,
      "ten": 1984,
      "ist##": 1985,
      "betw": 1986,
      "of": 1987,
      "ack##": 1988,
      "between##": 1989,
      "population##": 1990,
      "war##": 1991,
      "century##": 1992,
      "emp": 1993,
      "united##": 1994,
      "indi": 1995,
      "loc": 1996,
      "uc": 1997,
      "sub": 1998,
      "ell": 1999,
      "beg": 2000,
      "ings##": 2001,
      "these##": 2002,
      "eg": 2003,
      "am##": 2004,
      "ase##": 2005,
      "ger": 2006,
      "while##": 2007,
      "ps##": 2008,
      "years##": 2009,
      "tt": 2010,
      "inv": 2011,
      "any##": 2012,
      "produc": 2013,
      "ished##": 2014,
      "ves##": 2015,
      "per##": 2016,
      "ement##": 2017,
      "maj": 2018,
      "devel": 2019,
      "bli": 2020,
      "tive##": 2021,
      "ten##": 2022,
      "ant": 2023,
      "rec": 2024,
      "ever##": 2025,
      "rit": 2026,
      "hou": 2027,
      "how": 2028,
      "throu": 2029,
      "ca": 2030,
      "ach": 2031,
      "peri": 2032,
      "ving##": 2033,
      "gu": 2034,
      "chin": 2035,
      "lion##": 2036,
      "sa": 2037,
      "about##": 2038,
      "yp": 2039,
      "0s##": 2040,
      "day##": 2041,
      "ture##": 2042,
      "ood##": 2043,
      "may##": 2044,
      "tis": 2045,
      "ism##": 2046,
      "fac": 2047,
      "can##": 2048,
      "fol": 2049,
      "if": 2050,
      "would##": 2051,
      "ember##": 2052,
      "les##": 2053,
      "cul": 2054,
      "sid": 2055,
      "ke": 2056,
      "try##": 2057,
      "pos": 2058,
      "ked##": 2059,
      "isi": 2060,
      "tran": 2061,
      "main": 2062,
      "publi": 2063,
      "develop": 2064,
      "gener": 2065,
      "three##": 2066,
      "public##": 2067,
      "though##": 2068,
      "univers": 2069,
      "where##": 2070,
      "buil": 2071,
      "ie": 2072,
      "gro": 2073,
      "ris": 2074,
      "fa": 2075,
      "17": 2076,
      "her##": 2077,
      "sul": 2078,
      "known##": 2079,
      "became##": 2080,
      "pow": 2081,
      "fu": 2082,
      "with": 2083,
      "red##": 2084,
      "ating##": 2085,
      "war": 2086,
      "ach##": 2087,
      "ily##": 2088,
      "mus": 2089,
      "port##": 2090,
      "tec": 2091,
      "up##": 2092,
      "hel": 2093,
      "ond##": 2094,
      "can": 2095,
      "ire##": 2096,
      "since##": 2097,
      "adi": 2098,
      "under##": 2099,
      "char": 2100,
      "ge": 2101,
      "bro": 2102,
      "sup": 2103,
      "including##": 2104,
      "bel": 2105,
      "ned##": 2106,
      "sel": 2107,
      "sur": 2108,
      "fer": 2109,
      "198": 2110,
      "angu": 2111,
      "contin": 2112,
      "ced##": 2113,
      "wil": 2114,
      "number##": 2115,
      "ms##": 2116,
      "ors##": 2117,
      "lan": 2118,
      "me##": 2119,
      "fran": 2120,
      "fil": 2121,
      "government##": 2122,
      "son##": 2123,
      "rel": 2124,
      "langu": 2125,
      "cur": 2126,
      "alled##": 2127,
      "197": 2128,
      "ew": 2129,
      "grou": 2130,
      "ong": 2131,
      "high": 2132,
      "vic": 2133,
      "old##": 2134,
      "stitu": 2135,
      "var": 2136,
      "made##": 2137,
      "play": 2138,
      "west##": 2139,
      "american##": 2140,
      "tain": 2141,
      "recor": 2142,
      "olog": 2143,
      "end##": 2144,
      "hist": 2145,
      "however##": 2146,
      "sm": 2147,
      "regi": 2148,
      "consi": 2149,
      "tical##": 2150,
      "ed": 2151,
      "bi": 2152,
      "10##": 2153,
      "sign": 2154,
      "bor": 2155,
      "ho": 2156,
      "north##": 2157,
      "so": 2158,
      "very##": 2159,
      "abl": 2160,
      "ble##": 2161,
      "country##": 2162,
      "sic##": 2163,
      "form##": 2164,
      "well##": 2165,
      "offic": 2166,
      "diff": 2167,
      "igh##": 2168,
      "fam": 2169,
      "both##": 2170,
      "ool##": 2171,
      "val": 2172,
      "stem##": 2173,
      "no##": 2174,
      "tre": 2175,
      "follow": 2176,
      "ect##": 2177,
      "ton##": 2178,
      "tish##": 2179,
      "part##": 2180,
      "establ": 2181,
      "struc": 2182,
      "largest##": 2183,
      "196": 2184,
      "lin": 2185,
      "onom": 2186,
      "bil": 2187,
      "ore": 2188,
      "tiv": 2189,
      "system##": 2190,
      "university##": 2191,
      "dep": 2192,
      "later##": 2193,
      "south##": 2194,
      "ning##": 2195,
      "ters##": 2196,
      "stud": 2197,
      "ight##": 2198,
      "ages##": 2199,
      "early##": 2200,
      "sts##": 2201,
      "ak": 2202,
      "called##": 2203,
      "ss##": 2204,
      "re##": 2205,
      "area##": 2206,
      "rev": 2207,
      "ven##": 2208,
      "dom": 2209,
      "exp": 2210,
      "major##": 2211,
      "50##": 2212,
      "sever": 2213,
      "mat": 2214,
      "ek##": 2215,
      "ants##": 2216,
      "rus": 2217,
      "hu": 2218,
      "british##": 2219,
      "il##": 2220,
      "ale##": 2221,
      "air": 2222,
      "way##": 2223,
      "20##": 2224,
      "oper": 2225,
      "ered##": 2226,
      "win": 2227,
      "orig": 2228,
      "ry##": 2229,
      "\".##": 2230,
      "high##": 2231,
      "incre": 2232,
      "mi": 2233,
      "soc": 2234,
      "\",##": 2235,
      "through##": 2236,
      "reg": 2237,
      "reli": 2238,
      "od##": 2239,
      "org": 2240,
      "music##": 2241,
      "ook##": 2242,
      "work##": 2243,
      "ays##": 2244,
      "ship##": 2245,
      "dre": 2246,
      "dem": 2247,
      "wid": 2248,
      "times##": 2249,
      "cour": 2250,
      "fren": 2251,
      "ign##": 2252,
      "being##": 2253,
      "million##": 2254,
      "cep": 2255,
      "seas": 2256,
      "nam": 2257,
      "til##": 2258,
      "ob": 2259,
      "ative##": 2260,
      "french##": 2261,
      "until##": 2262,
      "second##": 2263,
      "stri": 2264,
      "chur": 2265,
      "art##": 2266,
      "publ": 2267,
      "mp": 2268,
      "contro": 2269,
      "194": 2270,
      "school##": 2271,
      "ath": 2272,
      "suc": 2273,
      "app": 2274,
      "ond": 2275,
      "act##": 2276,
      "west": 2277,
      "har": 2278,
      "four##": 2279,
      "arch": 2280,
      "fore##": 2281,
      "16": 2282,
      "them##": 2283,
      "up": 2284,
      "emb": 2285,
      "fre": 2286,
      "cent##": 2287,
      "dic": 2288,
      "foun": 2289,
      "erg": 2290,
      "som": 2291,
      "several##": 2292,
      "fr": 2293,
      "ized##": 2294,
      "then##": 2295,
      "pi": 2296,
      "hol": 2297,
      "ital##": 2298,
      "leg": 2299,
      "ill": 2300,
      "tional##": 2301,
      "cer": 2302,
      "chang": 2303,
      "origin": 2304,
      "each##": 2305,
      "ass##": 2306,
      "afric": 2307,
      "power##": 2308,
      "serv": 2309,
      "chil": 2310,
      "port": 2311,
      "although##": 2312,
      "emper": 2313,
      "ature##": 2314,
      "ju": 2315,
      "pe##": 2316,
      "resul": 2317,
      "fe##": 2318,
      "medi": 2319,
      "language##": 2320,
      "et": 2321,
      "bur": 2322,
      "ision##": 2323,
      "line##": 2324,
      "sen": 2325,
      "cro": 2326,
      "ther": 2327,
      "poli": 2328,
      "rele": 2329,
      "az": 2330,
      "yor": 2331,
      "differ": 2332,
      "bs##": 2333,
      "period##": 2334,
      "tal##": 2335,
      "large##": 2336,
      ".\"##": 2337,
      "empire##": 2338,
      "lit": 2339,
      "bre": 2340,
      "ath##": 2341,
      "typ": 2342,
      "ics##": 2343,
      "tel": 2344,
      "econom": 2345,
      "joh": 2346,
      "poin": 2347,
      "based##": 2348,
      "thern##": 2349,
      "clu": 2350,
      "began##": 2351,
      "self##": 2352,
      "sc": 2353,
      "often##": 2354,
      "organ": 2355,
      "do##": 2356,
      "bc##": 2357,
      "stre": 2358,
      "europe": 2359,
      "195": 2360,
      "mis": 2361,
      "side##": 2362,
      "dered##": 2363,
      "accor": 2364,
      "moder": 2365,
      "name##": 2366,
      "again": 2367,
      "phil": 2368,
      "against##": 2369,
      "eff": 2370,
      "sum": 2371,
      "much##": 2372,
      "out": 2373,
      "tly##": 2374,
      "succ": 2375,
      "now##": 2376,
      "lim": 2377,
      "engl": 2378,
      "among##": 2379,
      "ii##": 2380,
      "flu": 2381,
      "around##": 2382,
      "religi": 2383,
      "ust##": 2384,
      "15##": 2385,
      "continu": 2386,
      "ority##": 2387,
      "english##": 2388,
      "spe": 2389,
      "arly##": 2390,
      "del": 2391,
      "like##": 2392,
      "leag": 2393,
      "bar": 2394,
      "25##": 2395,
      "east##": 2396,
      "hy": 2397,
      "12##": 2398,
      "sing": 2399,
      "commun": 2400,
      "posi": 2401,
      "uary##": 2402,
      "30##": 2403,
      "tor##": 2404,
      "cas": 2405,
      "new": 2406,
      "jap": 2407,
      "found##": 2408,
      "milit": 2409,
      "lead": 2410,
      "vo": 2411,
      "hn": 2412,
      "season##": 2413,
      "writ": 2414,
      "york##": 2415,
      "direc": 2416,
      "according##": 2417,
      "dr": 2418,
      "five##": 2419,
      "john##": 2420,
      "western##": 2421,
      "ying##": 2422,
      "tradi": 2423,
      "russi": 2424,
      "greek##": 2425,
      "international##": 2426,
      "company##": 2427,
      "european##": 2428,
      "appro": 2429,
      "vari": 2430,
      "sive##": 2431,
      "ball##": 2432,
      "before##": 2433,
      "eded##": 2434,
      "ird##": 2435,
      "europe##": 2436,
      "depend": 2437,
      "centr": 2438,
      "pal": 2439,
      "established##": 2440,
      "bas": 2441,
      "presid": 2442,
      "2010##": 2443,
      "home##": 2444,
      "ause##": 2445,
      "na##": 2446,
      "within##": 2447,
      "those##": 2448,
      "tain##": 2449,
      "could##": 2450,
      "ses##": 2451,
      "does##": 2452,
      "ific": 2453,
      "aver": 2454,
      "lands##": 2455,
      "sci": 2456,
      "king": 2457,
      "same##": 2458,
      "feder": 2459,
      "tion": 2460,
      "remain": 2461,
      "techn": 2462,
      "ames##": 2463,
      "ful##": 2464,
      "china##": 2465,
      "jew": 2466,
      "plac": 2467,
      "cei": 2468,
      "over": 2469,
      "her": 2470,
      "league##": 2471,
      "rap": 2472,
      "pat": 2473,
      "comple": 2474,
      "military##": 2475,
      "ented##": 2476,
      "provi": 2477,
      "because##": 2478,
      "france##": 2479,
      "ities##": 2480,
      "ok": 2481,
      "ital": 2482,
      "ban": 2483,
      "army##": 2484,
      "den": 2485,
      "pt": 2486,
      "church##": 2487,
      "roman##": 2488,
      "ini": 2489,
      "modern##": 2490,
      "193": 2491,
      "hun": 2492,
      "ep": 2493,
      "ft##": 2494,
      "light##": 2495,
      "plo": 2496,
      "fun": 2497,
      "group##": 2498,
      "os##": 2499,
      "following##": 2500,
      "cy##": 2501,
      "she##": 2502,
      "star": 2503,
      "indu": 2504,
      "mid": 2505,
      "sk": 2506,
      "ects##": 2507,
      "influ": 2508,
      "ially##": 2509,
      "air##": 2510,
      "ution##": 2511,
      "cr": 2512,
      "hum": 2513,
      "include##": 2514,
      "german##": 2515,
      "roy": 2516,
      "ams##": 2517,
      "own": 2518,
      "fied##": 2519,
      "ected##": 2520,
      "coll": 2521,
      "une##": 2522,
      "tries##": 2523,
      "chinese##": 2524,
      "vir": 2525,
      "sed##": 2526,
      "place##": 2527,
      "non##": 2528,
      "independ": 2529,
      "great##": 2530,
      "itation##": 2531,
      "life##": 2532,
      "stric": 2533,
      "due##": 2534,
      "ll##": 2535,
      "stand": 2536,
      "foo": 2537,
      "appe": 2538,
      "ual##": 2539,
      "vis": 2540,
      "death##": 2541,
      "another##": 2542,
      "pur": 2543,
      "countries##": 2544,
      "batt": 2545,
      "anci": 2546,
      "under": 2547,
      "even##": 2548,
      "by": 2549,
      "main##": 2550,
      "prin": 2551,
      "nov": 2552,
      "educ": 2553,
      "sted##": 2554,
      "ols##": 2555,
      "18##": 2556,
      "dom##": 2557,
      "hom": 2558,
      "less##": 2559,
      "15": 2560,
      "dio##": 2561,
      "11##": 2562,
      "14##": 2563,
      "ately##": 2564,
      "late##": 2565,
      "spon": 2566,
      "formed##": 2567,
      "ston##": 2568,
      "ems##": 2569,
      "political##": 2570,
      "ology##": 2571,
      "ures##": 2572,
      "import": 2573,
      "cel": 2574,
      "will##": 2575,
      "water##": 2576,
      "spor": 2577,
      "grow": 2578,
      "ful": 2579,
      "fur": 2580,
      "become##": 2581,
      "cop": 2582,
      "risti": 2583,
      "lev": 2584,
      "christi": 2585,
      "development##": 2586,
      "atur": 2587,
      "long##": 2588,
      "tes##": 2589,
      "him##": 2590,
      "dy##": 2591,
      "40##": 2592,
      "oci": 2593,
      "ments##": 2594,
      "prov": 2595,
      "histor": 2596,
      "pen": 2597,
      "associ": 2598,
      "gra": 2599,
      "bey": 2600,
      "ised##": 2601,
      "eth": 2602,
      "hal": 2603,
      "ically##": 2604,
      "house##": 2605,
      "2008##": 2606,
      "ef": 2607,
      "third##": 2608,
      "repres": 2609,
      "region##": 2610,
      "general##": 2611,
      "cal": 2612,
      "ash": 2613,
      "cla": 2614,
      "trans": 2615,
      "lond": 2616,
      "law##": 2617,
      "along##": 2618,
      "ular##": 2619,
      "average##": 2620,
      "16##": 2621,
      "recei": 2622,
      "ici": 2623,
      "addi": 2624,
      "arch##": 2625,
      "island##": 2626,
      "han": 2627,
      "2009##": 2628,
      "tics##": 2629,
      "union##": 2630,
      "ib": 2631,
      "dge##": 2632,
      ".[##": 2633,
      "ared##": 2634,
      "apol": 2635,
      "percent##": 2636,
      "ous": 2637,
      "london##": 2638,
      "els##": 2639,
      "ements##": 2640,
      "ak##": 2641,
      "rang": 2642,
      "tball##": 2643,
      "cover": 2644,
      "def": 2645,
      "memb": 2646,
      "yn": 2647,
      "total##": 2648,
      "wom": 2649,
      "cess##": 2650,
      "oth": 2651,
      "institu": 2652,
      "needed##": 2653,
      "brit": 2654,
      "still##": 2655,
      "kil": 2656,
      "curren": 2657,
      "term##": 2658,
      "equ": 2659,
      "ually##": 2660,
      "13##": 2661,
      "located##": 2662,
      "back##": 2663,
      "tit": 2664,
      "ality##": 2665,
      "ven": 2666,
      "colon": 2667,
      "stry##": 2668,
      "adv": 2669,
      "india##": 2670,
      "local##": 2671,
      "control##": 2672,
      "gl": 2673,
      "pass": 2674,
      "ences##": 2675,
      "east": 2676,
      "ise##": 2677,
      "scho": 2678,
      "requ": 2679,
      "arti": 2680,
      "constitu": 2681,
      "bus": 2682,
      "dist": 2683,
      "if##": 2684,
      "last##": 2685,
      "anti": 2686,
      "held##": 2687,
      "president##": 2688,
      "members##": 2689,
      "2013##": 2690,
      "men##": 2691,
      "set##": 2692,
      "common##": 2693,
      "england##": 2694,
      "different##": 2695,
      "ental##": 2696,
      "2011##": 2697,
      "using##": 2698,
      "ail": 2699,
      "fes": 2700,
      "sal": 2701,
      "mag": 2702,
      "fore": 2703,
      "cy": 2704,
      "auth": 2705,
      "cip": 2706,
      "17##": 2707,
      "co##": 2708,
      "allow": 2709,
      "60##": 2710,
      "sour": 2711,
      "ze##": 2712,
      "ve": 2713,
      "areas##": 2714,
      "low##": 2715,
      "center##": 2716,
      "mer": 2717,
      "ired##": 2718,
      "pp": 2719,
      "part": 2720,
      "history##": 2721,
      "town##": 2722,
      "bir": 2723,
      "considered##": 2724,
      "ported##": 2725,
      "force##": 2726,
      "respon": 2727,
      "ample##": 2728,
      "aw": 2729,
      "cen": 2730,
      "forces##": 2731,
      "paris##": 2732,
      "cities##": 2733,
      "2007##": 2734,
      "colle": 2735,
      "built##": 2736,
      "ards##": 2737,
      "small##": 2738,
      "100##": 2739,
      "jan": 2740,
      "territ": 2741,
      "charac": 2742,
      "simil": 2743,
      "ergy##": 2744,
      "ens##": 2745,
      "capital##": 2746,
      "revol": 2747,
      "mal": 2748,
      "rese": 2749,
      "signific": 2750,
      "trac": 2751,
      "med": 2752,
      "central##": 2753,
      "domin": 2754,
      "ently##": 2755,
      "mini": 2756,
      "div": 2757,
      "species##": 2758,
      "lab": 2759,
      "cat": 2760,
      "top##": 2761,
      "ni": 2762,
      "them": 2763,
      "stat": 2764,
      "intro": 2765,
      "britain##": 2766,
      "albu": 2767,
      "family##": 2768,
      "schools##": 2769,
      "mor": 2770,
      "eld##": 2771,
      "dro": 2772,
      "tural##": 2773,
      "released##": 2774,
      "sions##": 2775,
      "partic": 2776,
      "mary##": 2777,
      "duced##": 2778,
      "ential##": 2779,
      "2014##": 2780,
      "grad": 2781,
      "developed##": 2782,
      "rac": 2783,
      "san": 2784,
      "best##": 2785,
      "rul": 2786,
      "ened##": 2787,
      "sist": 2788,
      "conn": 2789,
      "om##": 2790,
      "game##": 2791,
      "isl": 2792,
      "important##": 2793,
      "iety##": 2794,
      "2006##": 2795,
      "mul": 2796,
      "mig": 2797,
      "ication##": 2798,
      "example##": 2799,
      "film##": 2800,
      "atic##": 2801,
      "founded##": 2802,
      "education##": 2803,
      "college##": 2804,
      "10": 2805,
      "team##": 2806,
      "din": 2807,
      "success": 2808,
      "won##": 2809,
      "und##": 2810,
      "victor": 2811,
      "continued##": 2812,
      "ins##": 2813,
      "dle##": 2814,
      "tan": 2815,
      "bud": 2816,
      "vide": 2817,
      "construc": 2818,
      "egyp": 2819,
      "took##": 2820,
      "sequ": 2821,
      "aug": 2822,
      "ghts##": 2823,
      "childre": 2824,
      "refer": 2825,
      "sovi": 2826,
      "children##": 2827,
      "bac": 2828,
      "aged##": 2829,
      "sett": 2830,
      "2012##": 2831,
      "ket##": 2832,
      "abil": 2833,
      "initi": 2834,
      "groups##": 2835,
      "position##": 2836,
      "ym": 2837,
      "asi": 2838,
      "ously##": 2839,
      "sla": 2840,
      "roc": 2841,
      "21##": 2842,
      "anese##": 2843,
      "stor": 2844,
      "eastern##": 2845,
      "ys": 2846,
      "liter": 2847,
      "isra": 2848,
      "alth##": 2849,
      "ches##": 2850,
      "prac": 2851,
      "14": 2852,
      "24##": 2853,
      "stu": 2854,
      "kingdom##": 2855,
      "students##": 2856,
      "rate##": 2857,
      "ering##": 2858,
      "ne##": 2859,
      "resid": 2860,
      "energy##": 2861,
      "order##": 2862,
      "compe": 2863,
      "ave##": 2864,
      "popular##": 2865,
      "black##": 2866,
      "dh": 2867,
      "service##": 2868,
      "lu": 2869,
      "ops##": 2870,
      "human##": 2871,
      "priv": 2872,
      "usu": 2873,
      "test": 2874,
      "pers": 2875,
      "down##": 2876,
      "america##": 2877,
      "some": 2878,
      "football##": 2879,
      "ths##": 2880,
      "mand": 2881,
      "white##": 2882,
      "river##": 2883,
      "13": 2884,
      "xim": 2885,
      "retur": 2886,
      "ines##": 2887,
      "various##": 2888,
      "middle##": 2889,
      "mac": 2890,
      "mos": 2891,
      "days##": 2892,
      "see##": 2893,
      "gran": 2894,
      "inc": 2895,
      "cogn": 2896,
      "pan": 2897,
      "occu": 2898,
      "beyon": 2899,
      "bed##": 2900,
      "federal##": 2901,
      "val##": 2902,
      "ina##": 2903,
      "sus##": 2904,
      "cil##": 2905,
      "relati": 2906,
      "record##": 2907,
      "religious##": 2908,
      "court##": 2909,
      "gar": 2910,
      "ended##": 2911,
      "squ": 2912,
      "sept": 2913,
      "council##": 2914,
      "through": 2915,
      "building##": 2916,
      "op##": 2917,
      "women##": 2918,
      "bra": 2919,
      "sw": 2920,
      "sing##": 2921,
      "six##": 2922,
      "shor": 2923,
      "june##": 2924,
      "throughout##": 2925,
      "ites##": 2926,
      "issu": 2927,
      "sam": 2928,
      "exic": 2929,
      "battle##": 2930,
      "ine": 2931,
      "da": 2932,
      "tex": 2933,
      "african##": 2934,
      "single##": 2935,
      "19##": 2936,
      "mad": 2937,
      "mexic": 2938,
      "ley##": 2939,
      "make##": 2940,
      "research##": 2941,
      "22##": 2942,
      "alli": 2943,
      "doc": 2944,
      "ner##": 2945,
      "january##": 2946,
      "games##": 2947,
      "lati": 2948,
      "came##": 2949,
      "ece##": 2950,
      "further##": 2951,
      "estim": 2952,
      "every##": 2953,
      "gg": 2954,
      "come##": 2955,
      "standard##": 2956,
      "word##": 2957,
      "ians##": 2958,
      "republic##": 2959,
      "support##": 2960,
      "descri": 2961,
      "september##": 2962,
      "citation##": 2963,
      "ring##": 2964,
      "tow": 2965,
      "emplo": 2966,
      "posed##": 2967,
      "soviet##": 2968,
      "ys##": 2969,
      "mic": 2970,
      "economic##": 2971,
      "ban##": 2972,
      "int": 2973,
      "party##": 2974,
      "80##": 2975,
      "moun": 2976,
      "created##": 2977,
      "ization##": 2978,
      "ined##": 2979,
      "oph": 2980,
      "highest##": 2981,
      "official##": 2982,
      "sible##": 2983,
      "187": 2984,
      "desig": 2985,
      "ists##": 2986,
      "ot": 2987,
      "included##": 2988,
      "ium##": 2989,
      "amm": 2990,
      "play##": 2991,
      "percent": 2992,
      "des##": 2993,
      "tors##": 2994,
      "club##": 2995,
      "ns##": 2996,
      "god##": 2997,
      "esp": 2998,
      "jud": 2999,
      "temper": 3000,
      "station##": 3001,
      "japanese##": 3002,
      "germany##": 3003,
      "july##": 3004,
      "distric": 3005,
      "percentage##": 3006,
      "social##": 3007,
      "ref": 3008,
      "exten": 3009,
      "previ": 3010,
      "compan": 3011,
      "190": 3012,
      "treat": 3013,
      "bal": 3014,
      "aren": 3015,
      "ached##": 3016,
      "free##": 3017,
      "pap": 3018,
      "lat": 3019,
      "inf": 3020,
      "exec": 3021,
      "12": 3022,
      "ide": 3023,
      "take##": 3024,
      "wide##": 3025,
      "bour": 3026,
      "2015##": 3027,
      "southern##": 3028,
      "saw##": 3029,
      "without##": 3030,
      "tch##": 3031,
      "cé##": 3032,
      "quar": 3033,
      "northern##": 3034,
      "former##": 3035,
      "recogn": 3036,
      "near##": 3037,
      "busin": 3038,
      "placed##": 3039,
      "beyoncé##": 3040,
      "usually##": 3041,
      "sea##": 3042,
      "musli": 3043,
      "read": 3044,
      "agre": 3045,
      "royal##": 3046,
      "ject##": 3047,
      "ada##": 3048,
      "dest": 3049,
      "23##": 3050,
      "den##": 3051,
      "corpor": 3052,
      "attemp": 3053,
      "named##": 3054,
      "wood##": 3055,
      "earli": 3056,
      "rich": 3057,
      "higher##": 3058,
      "march##": 3059,
      "defe": 3060,
      "net": 3061,
      "2005##": 3062,
      "book##": 3063,
      "hen": 3064,
      "stan": 3065,
      "emperor##": 3066,
      "ched##": 3067,
      "nex": 3068,
      "half##": 3069,
      "ders##": 3070,
      "ony##": 3071,
      "russian##": 3072,
      "forms##": 3073,
      "wards##": 3074,
      "protec": 3075,
      "series##": 3076,
      "announ": 3077,
      "album##": 3078,
      "ken##": 3079,
      "production##": 3080,
      "mater": 3081,
      "ats##": 3082,
      "sil": 3083,
      "anish##": 3084,
      "austr": 3085,
      "served##": 3086,
      "broad": 3087,
      "dings##": 3088,
      "identi": 3089,
      "died##": 3090,
      "tained##": 3091,
      "latin##": 3092,
      "dutch##": 3093,
      "africa##": 3094,
      "tibe": 3095,
      "queen##": 3096,
      "few##": 3097,
      "produced##": 3098,
      "original##": 3099,
      "ships##": 3100,
      "off##": 3101,
      "pris": 3102,
      "vol": 3103,
      "rule##": 3104,
      "expan": 3105,
      "27##": 3106,
      "dat": 3107,
      "live##": 3108,
      "played##": 3109,
      "tho": 3110,
      "ency##": 3111,
      "summ": 3112,
      "ah##": 3113,
      "trade##": 3114,
      "ministr": 3115,
      "cam": 3116,
      "189": 3117,
      "victoria##": 3118,
      "long": 3119,
      "administr": 3120,
      "ribu": 3121,
      "parts##": 3122,
      "invol": 3123,
      "outh##": 3124,
      "portu": 3125,
      "formation##": 3126,
      "date##": 3127,
      "wal": 3128,
      "clos": 3129,
      "claim": 3130,
      "islands##": 3131,
      "ows##": 3132,
      "head": 3133,
      "field##": 3134,
      "electr": 3135,
      "published##": 3136,
      "35##": 3137,
      "ean##": 3138,
      "ind##": 3139,
      "study##": 3140,
      "ew##": 3141,
      "fri": 3142,
      "tively##": 3143,
      "point##": 3144,
      "class": 3145,
      "laun": 3146,
      "fif": 3147,
      "law": 3148,
      "natur": 3149,
      "greece##": 3150,
      "vely##": 3151,
      "octo": 3152,
      "186": 3153,
      "october##": 3154,
      "head##": 3155,
      "boo": 3156,
      "syst": 3157,
      "native##": 3158,
      "similar##": 3159,
      "depart": 3160,
      "separ": 3161,
      "cir": 3162,
      "ril##": 3163,
      "majority##": 3164,
      "via##": 3165,
      "vidu": 3166,
      "individu": 3167,
      "atures##": 3168,
      "iled##": 3169,
      "south": 3170,
      "500##": 3171,
      "alia##": 3172,
      "commer": 3173,
      "polic": 3174,
      "manu": 3175,
      "ab##": 3176,
      "nation": 3177,
      "result##": 3178,
      "ion": 3179,
      "spanish##": 3180,
      "cath": 3181,
      "type##": 3182,
      "defin": 3183,
      "significant##": 3184,
      "mel": 3185,
      "compar": 3186,
      "adop": 3187,
      "ai": 3188,
      "dyn": 3189,
      "olic##": 3190,
      "april##": 3191,
      "body##": 3192,
      "carri": 3193,
      "ang##": 3194,
      "que##": 3195,
      "nic": 3196,
      "parti": 3197,
      "change##": 3198,
      "aff": 3199,
      "moved##": 3200,
      "avail": 3201,
      "tains##": 3202,
      "others##": 3203,
      "ues##": 3204,
      "ably##": 3205,
      "works##": 3206,
      "29##": 3207,
      "rome##": 3208,
      "crip": 3209,
      "said##": 3210,
      "making##": 3211,
      "archit": 3212,
      "video##": 3213,
      "covered##": 3214,
      "sty": 3215,
      "del##": 3216,
      "comb": 3217,
      "civi": 3218,
      "ll": 3219,
      "mov": 3220,
      "given##": 3221,
      "ability##": 3222,
      "19th##": 3223,
      "show##": 3224,
      "telev": 3225,
      "received##": 3226,
      "ets##": 3227,
      "han##": 3228,
      "aut": 3229,
      "dies##": 3230,
      "mans##": 3231,
      "minist": 3232,
      "park##": 3233,
      "ories##": 3234,
      "ularly##": 3235,
      "today##": 3236,
      "level##": 3237,
      "compu": 3238,
      "plan": 3239,
      "languages##": 3240,
      "community##": 3241,
      "august##": 3242,
      "los": 3243,
      "board##": 3244,
      "fem": 3245,
      "suff": 3246,
      "ecially##": 3247,
      "ograp": 3248,
      "bert##": 3249,
      "especially##": 3250,
      "tures##": 3251,
      "ben": 3252,
      "rights##": 3253,
      "cial##": 3254,
      "bron": 3255,
      "ott": 3256,
      "acy##": 3257,
      "accoun": 3258,
      "185": 3259,
      "square##": 3260,
      "la##": 3261,
      "ific##": 3262,
      "ological##": 3263,
      "increas": 3264,
      "ot##": 3265,
      "sor": 3266,
      "market##": 3267,
      "increased##": 3268,
      "nation##": 3269,
      "anim": 3270,
      "liber": 3271,
      "2000##": 3272,
      "jewish##": 3273,
      "growth##": 3274,
      "experi": 3275,
      "decl": 3276,
      "acro": 3277,
      "aft##": 3278,
      "cept##": 3279,
      "november##": 3280,
      "28##": 3281,
      "hor": 3282,
      "188": 3283,
      "70##": 3284,
      "oned##": 3285,
      "camp": 3286,
      "km##": 3287,
      "ained##": 3288,
      "ster##": 3289,
      "ligh": 3290,
      "having##": 3291,
      "napol": 3292,
      "sem": 3293,
      "manufac": 3294,
      "december##": 3295,
      "private##": 3296,
      "ult##": 3297,
      "philos": 3298,
      "pun": 3299,
      "bes##": 3300,
      "pac": 3301,
      "left##": 3302,
      "rought##": 3303,
      "county##": 3304,
      "street##": 3305,
      "sof": 3306,
      "table##": 3307,
      "key##": 3308,
      "versi": 3309,
      "introduced##": 3310,
      "execu": 3311,
      "bers##": 3312,
      "ger##": 3313,
      "200##": 3314,
      "duce##": 3315,
      "followed##": 3316,
      "elected##": 3317,
      "enced##": 3318,
      "fron": 3319,
      "japan##": 3320,
      "announced##": 3321,
      "ways##": 3322,
      "tation##": 3323,
      "ana##": 3324,
      "ection##": 3325,
      "ide##": 3326,
      "color##": 3327,
      "television##": 3328,
      "istic##": 3329,
      "may": 3330,
      "armen": 3331,
      "tv##": 3332,
      "radio##": 3333,
      "put##": 3334,
      "ending##": 3335,
      "green##": 3336,
      "napole": 3337,
      "terms##": 3338,
      "traditional##": 3339,
      "nav": 3340,
      "tter##": 3341,
      "action##": 3342,
      "present##": 3343,
      "go##": 3344,
      "lower##": 3345,
      "buddh": 3346,
      "inning##": 3347,
      "event": 3348,
      "ward##": 3349,
      "living##": 3350,
      "exist": 3351,
      "2004##": 3352,
      "available##": 3353,
      "ai##": 3354,
      "ol##": 3355,
      "process##": 3356,
      "seven##": 3357,
      "started##": 3358,
      "bom": 3359,
      "census##": 3360,
      "met": 3361,
      "addition##": 3362,
      "ottom": 3363,
      "civil##": 3364,
      "across##": 3365,
      "dell##": 3366,
      "respec": 3367,
      "remained##": 3368,
      "ones##": 3369,
      "onic##": 3370,
      "health##": 3371,
      "father##": 3372,
      "least##": 3373,
      "serve##": 3374,
      "industry##": 3375,
      "ei": 3376,
      "italy##": 3377,
      "nal##": 3378,
      "uses##": 3379,
      "bell##": 3380,
      "again##": 3381,
      "dri": 3382,
      "vil": 3383,
      "chop": 3384,
      "concer": 3385,
      "office##": 3386,
      "ta##": 3387,
      "urban##": 3388,
      "culture##": 3389,
      "independence##": 3390,
      "department##": 3391,
      "dra": 3392,
      "ications##": 3393,
      "occur": 3394,
      "view": 3395,
      "view##": 3396,
      "nations##": 3397,
      "asty##": 3398,
      "sun": 3399,
      "read##": 3400,
      "christian##": 3401,
      "ji": 3402,
      "israel##": 3403,
      "lo##": 3404,
      "ymp": 3405,
      "arab": 3406,
      "sometimes##": 3407,
      "dynasty##": 3408,
      "ham": 3409,
      "just##": 3410,
      "ka##": 3411,
      "uk##": 3412,
      "protest": 3413,
      "site##": 3414,
      "champ": 3415,
      "right##": 3416,
      "indian##": 3417,
      "ograph": 3418,
      "wn##": 3419,
      "ening##": 3420,
      "ports##": 3421,
      "rock##": 3422,
      "90##": 3423,
      "cast": 3424,
      "kore": 3425,
      "era##": 3426,
      "jews##": 3427,
      "gram##": 3428,
      "foreign##": 3429,
      "ls##": 3430,
      "ranked##": 3431,
      "competi": 3432,
      "reas": 3433,
      "teams##": 3434,
      "cup##": 3435,
      "yu": 3436,
      "aries##": 3437,
      "ock##": 3438,
      "mean": 3439,
      "written##": 3440,
      "ination##": 3441,
      "imper": 3442,
      "mexico##": 3443,
      "ials##": 3444,
      "lahom": 3445,
      "ours##": 3446,
      "inst": 3447,
      "acc": 3448,
      "184": 3449,
      "frequ": 3450,
      "dam": 3451,
      "mi##": 3452,
      "generally##": 3453,
      "approxim": 3454,
      "oklahom": 3455,
      "systems##": 3456,
      "run": 3457,
      "alism##": 3458,
      "abo": 3459,
      "ition##": 3460,
      "neigh": 3461,
      "media##": 3462,
      "chopin##": 3463,
      "ipo": 3464,
      "sco": 3465,
      "desp": 3466,
      "26##": 3467,
      "ip": 3468,
      "hi##": 3469,
      "tiz": 3470,
      "eved##": 3471,
      "down": 3472,
      "kers##": 3473,
      "ery##": 3474,
      "heav": 3475,
      "febr": 3476,
      "police##": 3477,
      "february##": 3478,
      "billion##": 3479,
      "despite##": 3480,
      "ancient##": 3481,
      "rest##": 3482,
      "role##": 3483,
      "enci": 3484,
      "business##": 3485,
      "marri": 3486,
      "beginning##": 3487,
      "servic": 3488,
      "summer##": 3489,
      "geor": 3490,
      "ire": 3491,
      "mun": 3492,
      "mother##": 3493,
      "construction##": 3494,
      "district##": 3495,
      "natural##": 3496,
      "lines##": 3497,
      "hab": 3498,
      "final##": 3499,
      "oklahoma##": 3500,
      "election##": 3501,
      "influence##": 3502,
      "ped##": 3503,
      "once##": 3504,
      "almost##": 3505,
      "egypt##": 3506,
      "case##": 3507,
      "youn": 3508,
      "philosoph": 3509,
      "brought##": 3510,
      "achi": 3511,
      "ges##": 3512,
      "tice##": 3513,
      "viol": 3514,
      "democ": 3515,
      "particularly##": 3516,
      "reached##": 3517,
      "trav": 3518,
      "attac": 3519,
      "kes##": 3520,
      "alls##": 3521,
      "mas": 3522,
      "divi": 3523,
      "ago##": 3524,
      "ples##": 3525,
      "allowed##": 3526,
      "dial": 3527,
      "financi": 3528,
      "primary##": 3529,
      "canada##": 3530,
      "ness##": 3531,
      "olymp": 3532,
      "cle": 3533,
      "un##": 3534,
      "insec": 3535,
      "territory##": 3536,
      "ator##": 3537,
      "napoleon##": 3538,
      "empor": 3539,
      "eight##": 3540,
      "itself##": 3541,
      "asia##": 3542,
      "congre": 3543,
      "ground##": 3544,
      "current##": 3545,
      "mem": 3546,
      "increase##": 3547,
      "approximately##": 3548,
      "services##": 3549,
      "get##": 3550,
      "thus##": 3551,
      "bility##": 3552,
      "conqu": 3553,
      "working##": 3554,
      "greater##": 3555,
      "schol": 3556,
      "ey##": 3557,
      "upon##": 3558,
      "sent##": 3559,
      "records##": 3560,
      "companies##": 3561,
      "aid##": 3562,
      "uries##": 3563,
      "ake##": 3564,
      "yed##": 3565,
      "inste": 3566,
      "independent##": 3567,
      "glo": 3568,
      "ators##": 3569,
      "ington##": 3570,
      "born##": 3571,
      "cultural##": 3572,
      "settl": 3573,
      "eventually##": 3574,
      "dest##": 3575,
      "conver": 3576,
      "cele": 3577,
      "full##": 3578,
      "fle": 3579,
      "adem": 3580,
      "commit": 3581,
      "bal##": 3582,
      "fav": 3583,
      "race##": 3584,
      "program##": 3585,
      "clas": 3586,
      "leading##": 3587,
      "treaty##": 3588,
      "band##": 3589,
      "mid##": 3590,
      "dig": 3591,
      "far##": 3592,
      "opened##": 3593,
      "lor": 3594,
      "ices##": 3595,
      "four": 3596,
      "ational##": 3597,
      "catholic##": 3598,
      "lost##": 3599,
      "rather##": 3600,
      "estimated##": 3601,
      "uran": 3602,
      "ethn": 3603,
      "ly": 3604,
      "should##": 3605,
      "next##": 3606,
      "gad": 3607,
      "science##": 3608,
      "expl": 3609,
      "termin": 3610,
      "plym": 3611,
      "aul##": 3612,
      "ested##": 3613,
      "willi": 3614,
      "metro": 3615,
      "secre": 3616,
      "architec": 3617,
      "log": 3618,
      "ox": 3619,
      "tle##": 3620,
      "bul": 3621,
      "itan##": 3622,
      "recent##": 3623,
      "amoun": 3624,
      "ize##": 3625,
      "society##": 3626,
      "ottoman##": 3627,
      "sha": 3628,
      "degre": 3629,
      "2001##": 3630,
      "economy##": 3631,
      "technology##": 3632,
      "imperial##": 3633,
      "hold##": 3634,
      "pus##": 3635,
      "troops##": 3636,
      "open##": 3637,
      "progr": 3638,
      "begin##": 3639,
      "range##": 3640,
      "stly##": 3641,
      "house": 3642,
      "killed##": 3643,
      "revolution##": 3644,
      "plymouth##": 3645,
      "association##": 3646,
      "network##": 3647,
      "ep##": 3648,
      "inten": 3649,
      "appoin": 3650,
      "represent": 3651,
      "reported##": 3652,
      "ick##": 3653,
      "20th##": 3654,
      "song##": 3655,
      "erous##": 3656,
      "meas": 3657,
      "ief##": 3658,
      "ou##": 3659,
      "contribu": 3660,
      "ishing##": 3661,
      "wee": 3662,
      "george##": 3663,
      "member##": 3664,
      "apple##": 3665,
      "net##": 3666,
      "183": 3667,
      "annual##": 3668,
      "au##": 3669,
      "went##": 3670,
      "prof": 3671,
      "toge": 3672,
      "ever": 3673,
      "eston": 3674,
      "carol": 3675,
      "there": 3676,
      "industri": 3677,
      "passed##": 3678,
      "ba##": 3679,
      "run##": 3680,
      "italian##": 3681,
      "him": 3682,
      "im##": 3683,
      "road##": 3684,
      "taken##": 3685,
      "great": 3686,
      "phys": 3687,
      "migr": 3688,
      "commercial##": 3689,
      "together##": 3690,
      "hos": 3691,
      "scrip": 3692,
      "contr": 3693,
      "promo": 3694,
      "wind": 3695,
      "campa": 3696,
      "tour": 3697,
      "wat": 3698,
      "class##": 3699,
      "aking##": 3700,
      "tito##": 3701,
      "enue##": 3702,
      "acqu": 3703,
      "ests##": 3704,
      "famil": 3705,
      "fall##": 3706,
      "start##": 3707,
      "liam": 3708,
      "tual##": 3709,
      "child##": 3710,
      "style##": 3711,
      "celebr": 3712,
      "oil##": 3713,
      "ra##": 3714,
      "invasi": 3715,
      "da##": 3716,
      "ick": 3717,
      "parliam": 3718,
      "airport##": 3719,
      "financial##": 3720,
      "cast##": 3721,
      "alist##": 3722,
      "legal##": 3723,
      "75##": 3724,
      "ham##": 3725,
      "elling##": 3726,
      "outside##": 3727,
      "movement##": 3728,
      "either##": 3729,
      "sugg": 3730,
      "selves##": 3731,
      "fully##": 3732,
      "metropol": 3733,
      "food##": 3734,
      "ple##": 3735,
      "ingu": 3736,
      "scienti": 3737,
      "residents##": 3738,
      "bran": 3739,
      "dou": 3740,
      "fig": 3741,
      "sain": 3742,
      "tory##": 3743,
      "const": 3744,
      "centuries##": 3745,
      ".,##": 3746,
      "ona##": 3747,
      "mit": 3748,
      "tre##": 3749,
      "americans##": 3750,
      "face##": 3751,
      "profes": 3752,
      "syn": 3753,
      "craft##": 3754,
      "status##": 3755,
      "hon": 3756,
      "ali##": 3757,
      "fort##": 3758,
      "universi": 3759,
      "designed##": 3760,
      "universities##": 3761,
      "san##": 3762,
      "wro": 3763,
      "constitution##": 3764,
      "successful##": 3765,
      "above##": 3766,
      "academ": 3767,
      "small": 3768,
      "signed##": 3769,
      "russia##": 3770,
      "instead##": 3771,
      "anal": 3772,
      "know": 3773,
      "design##": 3774,
      "sources##": 3775,
      "data##": 3776,
      "policy##": 3777,
      "bronx##": 3778,
      "lic": 3779,
      "tan##": 3780,
      "uments##": 3781,
      "grap": 3782,
      "wrote##": 3783,
      "themselves##": 3784,
      "foc": 3785,
      "my": 3786,
      "indic": 3787,
      "active##": 3788,
      "chr": 3789,
      "associated##": 3790,
      "arri": 3791,
      "transpor": 3792,
      "title##": 3793,
      "ill##": 3794,
      "compos": 3795,
      "che": 3796,
      "adopted##": 3797,
      "recorded##": 3798,
      "eal": 3799,
      "ective##": 3800,
      "citiz": 3801,
      "eum##": 3802,
      "ling##": 3803,
      "thro": 3804,
      "ami##": 3805,
      "north": 3806,
      "public": 3807,
      "distinc": 3808,
      "relation": 3809,
      "\")##": 3810,
      "..": 3811,
      "sound##": 3812,
      "prob": 3813,
      "mostly##": 3814,
      "source##": 3815,
      "lou": 3816,
      "nig": 3817,
      "jects##": 3818,
      "manag": 3819,
      "atic": 3820,
      "strong##": 3821,
      "ipod##": 3822,
      "(\"##": 3823,
      "song": 3824,
      "we##": 3825,
      "ech##": 3826,
      "ads##": 3827,
      "boston##": 3828,
      "daf": 3829,
      "men": 3830,
      "muslim##": 3831,
      "bit": 3832,
      "report##": 3833,
      "spain##": 3834,
      "manufactur": 3835,
      "gaddaf": 3836,
      "em##": 3837,
      "win##": 3838,
      "atory##": 3839,
      "little##": 3840,
      "32##": 3841,
      "ots##": 3842,
      "forced##": 3843,
      "grand##": 3844,
      "rup": 3845,
      "provide##": 3846,
      "referred##": 3847,
      "short##": 3848,
      "dar": 3849,
      "seen##": 3850,
      "metropolitan##": 3851,
      "proper": 3852,
      "survi": 3853,
      "65##": 3854,
      "subsequ": 3855,
      "gradu": 3856,
      "ama##": 3857,
      "nel##": 3858,
      "becom": 3859,
      "must##": 3860,
      "ori": 3861,
      "verse##": 3862,
      "domes": 3863,
      "legisl": 3864,
      "religion##": 3865,
      "300##": 3866,
      "miles##": 3867,
      "ampton##": 3868,
      "buildings##": 3869,
      "tionally##": 3870,
      "festiv": 3871,
      "sold##": 3872,
      "beli": 3873,
      "clim": 3874,
      "secur": 3875,
      "widely##": 3876,
      "australia##": 3877,
      "kan": 3878,
      "haven##": 3879,
      "words##": 3880,
      "limited##": 3881,
      "ac##": 3882,
      "gave##": 3883,
      "nine##": 3884,
      "pra": 3885,
      "deri": 3886,
      "disc": 3887,
      "decade##": 3888,
      "don": 3889,
      "never##": 3890,
      "exper": 3891,
      "includes##": 3892,
      "months##": 3893,
      "division##": 3894,
      "ming##": 3895,
      "wash": 3896,
      "simp": 3897,
      "william##": 3898,
      "2003##": 3899,
      "antly##": 3900,
      "related##": 3901,
      "gol": 3902,
      "gen##": 3903,
      "land": 3904,
      "thre": 3905,
      "size##": 3906,
      "officially##": 3907,
      "temperature##": 3908,
      "eis": 3909,
      "pon": 3910,
      "arab##": 3911,
      "stations##": 3912,
      "whe": 3913,
      "flic": 3914,
      "copper##": 3915,
      "paul##": 3916,
      "sym": 3917,
      "45##": 3918,
      "mur": 3919,
      "sional##": 3920,
      "space##": 3921,
      "perfor": 3922,
      "claimed##": 3923,
      "gal": 3924,
      "nass": 3925,
      "ricul": 3926,
      "thought##": 3927,
      "divided##": 3928,
      "spi": 3929,
      "soon##": 3930,
      "primar": 3931,
      "originally##": 3932,
      "province##": 3933,
      "version##": 3934,
      "tivity##": 3935,
      ");##": 3936,
      "ith##": 3937,
      "aircraft##": 3938,
      "gos": 3939,
      "gold##": 3940,
      "iii##": 3941,
      "post##": 3942,
      "premi": 3943,
      "means##": 3944,
      "neu": 3945,
      "possible##": 3946,
      "southampton##": 3947,
      "fourth##": 3948,
      "ethnic##": 3949,
      "ma##": 3950,
      "swit": 3951,
      "sto": 3952,
      "ough##": 3953,
      "teach": 3954,
      "gs##": 3955,
      "ano##": 3956,
      "female##": 3957,
      "cing##": 3958,
      "his": 3959,
      "ided##": 3960,
      "worl": 3961,
      "caused##": 3962,
      "regul": 3963,
      "performan": 3964,
      "xed##": 3965,
      "stadi": 3966,
      "consol": 3967,
      "esses##": 3968,
      "gaddafi##": 3969,
      "roun": 3970,
      "nearly##": 3971,
      "laws##": 3972,
      "sac": 3973,
      "ades##": 3974,
      "players##": 3975,
      "regions##": 3976,
      "eisen": 3977,
      "dog": 3978,
      "rely##": 3979,
      "model##": 3980,
      "month##": 3981,
      "away##": 3982,
      "conduc": 3983,
      "plants##": 3984,
      "engine": 3985,
      "supp": 3986,
      "hours##": 3987,
      "jing##": 3988,
      "rest": 3989,
      "unities##": 3990,
      "ut": 3991,
      "attack##": 3992,
      "carolina##": 3993,
      "nasser##": 3994,
      "omin": 3995,
      "berg##": 3996,
      "medical##": 3997,
      "islam": 3998,
      "launched##": 3999,
      "beer##": 4000,
      "rail": 4001,
      "centre##": 4002,
      "mond##": 4003,
      "tric##": 4004,
      "described##": 4005,
      "primarily##": 4006,
      "kath": 4007,
      "ership##": 4008,
      "whose##": 4009,
      "lived##": 4010,
      "regar": 4011,
      "ireland##": 4012,
      "eisenhow": 4013,
      "cou": 4014,
      "eds##": 4015,
      "pot": 4016,
      "aining##": 4017,
      "universal##": 4018,
      "evi": 4019,
      "stone##": 4020,
      "knowle": 4021,
      "pit": 4022,
      "release##": 4023,
      "character": 4024,
      "particip": 4025,
      "roman": 4026,
      "2002##": 4027,
      "pression##": 4028,
      "success##": 4029,
      "eisenhower##": 4030,
      "replaced##": 4031,
      "arc": 4032,
      "alex": 4033,
      "oods##": 4034,
      "return##": 4035,
      "earlier##": 4036,
      "washington##": 4037,
      "tal": 4038,
      "appl": 4039,
      "prince##": 4040,
      "larger##": 4041,
      "largely##": 4042,
      "sports##": 4043,
      "administration##": 4044,
      "himself##": 4045,
      "good##": 4046,
      "meaning##": 4047,
      "esti": 4048,
      "ession##": 4049,
      "ford##": 4050,
      "close##": 4051,
      "miami##": 4052,
      "list##": 4053,
      "events##": 4054,
      "required##": 4055,
      "special##": 4056,
      "fication##": 4057,
      "ortho": 4058,
      "condi": 4059,
      "author": 4060,
      "paper##": 4061,
      "duction##": 4062,
      "museum##": 4063,
      "found": 4064,
      "computer##": 4065,
      "enter": 4066,
      "phili": 4067,
      "tibet##": 4068,
      "vent": 4069,
      "oldest##": 4070,
      "distri": 4071,
      "chem": 4072,
      "ext": 4073,
      "move##": 4074,
      "tton##": 4075,
      "effect##": 4076,
      "sit": 4077,
      "plan##": 4078,
      "changes##": 4079,
      "confer": 4080,
      "minister##": 4081,
      "distribu": 4082,
      "awards##": 4083,
      "night##": 4084,
      "emo": 4085,
      "person##": 4086,
      "mandu##": 4087,
      "standing##": 4088,
      "democr": 4089,
      "kathmandu##": 4090,
      "ah": 4091,
      "jac": 4092,
      "chi": 4093,
      "cho": 4094,
      "ishment##": 4095,
      "solar##": 4096,
      "emporary##": 4097,
      "uranium##": 4098,
      "hispan": 4099,
      "mec": 4100,
      "aring##": 4101,
      "atis": 4102,
      "erged##": 4103,
      "typically##": 4104,
      "cases##": 4105,
      "press##": 4106,
      "certain##": 4107,
      "direct##": 4108,
      "institute##": 4109,
      "front##": 4110,
      "saint##": 4111,
      "orthodo": 4112,
      "tun": 4113,
      "zer": 4114,
      "instr": 4115,
      "sia##": 4116,
      "bel##": 4117,
      "ude##": 4118,
      "pope##": 4119,
      "bridge##": 4120,
      "anned##": 4121,
      "previously##": 4122,
      "44##": 4123,
      "hall##": 4124,
      "commonly##": 4125,
      "transi": 4126,
      "31##": 4127,
      "bit##": 4128,
      "dru": 4129,
      "super": 4130,
      "provided##": 4131,
      "multi": 4132,
      "material##": 4133,
      "compared##": 4134,
      "cell": 4135,
      "jur": 4136,
      "inte": 4137,
      "owned##": 4138,
      "mark##": 4139,
      "fair": 4140,
      "defeated##": 4141,
      "dogs##": 4142,
      "fo": 4143,
      "pic": 4144,
      "information##": 4145,
      "iting##": 4146,
      "spread##": 4147,
      "facil": 4148,
      "virg": 4149,
      "involved##": 4150,
      "dates##": 4151,
      "ion##": 4152,
      "incorpor": 4153,
      "ker##": 4154,
      "tian##": 4155,
      "proc": 4156,
      "ception##": 4157,
      "func": 4158,
      "zed##": 4159,
      "ought##": 4160,
      "conflic": 4161,
      "theat": 4162,
      "famous##": 4163,
      "demon": 4164,
      "ino##": 4165,
      "ingly##": 4166,
      "scot": 4167,
      "dence##": 4168,
      "nes": 4169,
      "alty##": 4170,
      "troit##": 4171,
      "structure##": 4172,
      "bourne##": 4173,
      "invasion##": 4174,
      "envir": 4175,
      "spok": 4176,
      "pped##": 4177,
      "connec": 4178,
      "sian##": 4179,
      "impro": 4180,
      "blue##": 4181,
      "help##": 4182,
      "holds##": 4183,
      "palace##": 4184,
      "mosa": 4185,
      "declared##": 4186,
      "dol": 4187,
      "m2##": 4188,
      "detroit##": 4189,
      "lear": 4190,
      "theory##": 4191,
      "remains##": 4192,
      "demonstr": 4193,
      "environ": 4194,
      "tou": 4195,
      "yl": 4196,
      "income##": 4197,
      "oles": 4198,
      "variety##": 4199,
      "oms##": 4200,
      "show": 4201,
      "1990s##": 4202,
      "destroy": 4203,
      "world": 4204,
      "vi##": 4205,
      "ends##": 4206,
      "strat": 4207,
      "starting##": 4208,
      "studies##": 4209,
      "avi": 4210,
      "base##": 4211,
      "ca##": 4212,
      "nar": 4213,
      "pal##": 4214,
      "governor##": 4215,
      "portugu": 4216,
      "du##": 4217,
      "plant##": 4218,
      "evol": 4219,
      "magaz": 4220,
      "catal": 4221,
      "initially##": 4222,
      "nu": 4223,
      "vill": 4224,
      "alter": 4225,
      "ica##": 4226,
      "deb": 4227,
      "fire##": 4228,
      "%)##": 4229,
      "400##": 4230,
      "gal##": 4231,
      "die##": 4232,
      "classical##": 4233,
      "melbourne##": 4234,
      "smaller##": 4235,
      "impl": 4236,
      "gam": 4237,
      "ker": 4238,
      "pain": 4239,
      "ural##": 4240,
      "pho": 4241,
      "tically##": 4242,
      "artists##": 4243,
      "campus##": 4244,
      "ya##": 4245,
      "ission##": 4246,
      "exam": 4247,
      "longer##": 4248,
      "lies##": 4249,
      "attle##": 4250,
      "numerous##": 4251,
      "young##": 4252,
      "qur": 4253,
      "alized##": 4254,
      "atlan": 4255,
      "authority##": 4256,
      "portuguese##": 4257,
      "atlantic##": 4258,
      "kish##": 4259,
      "mass##": 4260,
      "accep": 4261,
      "chan": 4262,
      "istan##": 4263,
      "diffic": 4264,
      "birth##": 4265,
      "ready##": 4266,
      "asian##": 4267,
      "ils##": 4268,
      "theast##": 4269,
      "currently##": 4270,
      "discovered##": 4271,
      "charles##": 4272,
      "labour##": 4273,
      "stadium##": 4274,
      "cost##": 4275,
      "vers##": 4276,
      "prime##": 4277,
      "anti##": 4278,
      "houston##": 4279,
      "below##": 4280,
      "particular##": 4281,
      "islamic##": 4282,
      "zen": 4283,
      "cust": 4284,
      "sure##": 4285,
      "prior##": 4286,
      "powers##": 4287,
      "champion": 4288,
      "ied##": 4289,
      "nes##": 4290,
      "saf": 4291,
      "organization##": 4292,
      "global##": 4293,
      "yer##": 4294,
      "insul": 4295,
      "coast##": 4296,
      "personal##": 4297,
      "orthodox##": 4298,
      "sting##": 4299,
      "chief##": 4300,
      "rit##": 4301,
      "prev": 4302,
      "peace##": 4303,
      "capac": 4304,
      "isions##": 4305,
      "changed##": 4306,
      "niger": 4307,
      "conven": 4308,
      "produce##": 4309,
      "quality##": 4310,
      "civil": 4311,
      "regional##": 4312,
      "completed##": 4313,
      "ef##": 4314,
      "mach": 4315,
      "older##": 4316,
      "polish##": 4317,
      "failed##": 4318,
      "burke##": 4319,
      "parliament##": 4320,
      "figh": 4321,
      "ga##": 4322,
      "scor": 4323,
      "arts##": 4324,
      "beh": 4325,
      "1990##": 4326,
      "1991##": 4327,
      "transm": 4328,
      "migran": 4329,
      "classi": 4330,
      "professional##": 4331,
      "ids##": 4332,
      "nan": 4333,
      "ole##": 4334,
      "six": 4335,
      "ading##": 4336,
      "portion##": 4337,
      "tured##": 4338,
      "families##": 4339,
      "jour": 4340,
      "returned##": 4341,
      "spir": 4342,
      "growing##": 4343,
      "kh": 4344,
      "rati": 4345,
      "test##": 4346,
      "added##": 4347,
      "turn##": 4348,
      "marke": 4349,
      "respectively##": 4350,
      "worldwide##": 4351,
      "aving##": 4352,
      "rise##": 4353,
      "advan": 4354,
      "agricul": 4355,
      "ounds##": 4356,
      "churches##": 4357,
      "provin": 4358,
      "you##": 4359,
      "ita##": 4360,
      "plat": 4361,
      "event##": 4362,
      "lay##": 4363,
      "hydro": 4364,
      "sales##": 4365,
      "previous##": 4366,
      "amount##": 4367,
      "48##": 4368,
      "92##": 4369,
      "sa##": 4370,
      "store##": 4371,
      "elements##": 4372,
      "charg": 4373,
      "phone##": 4374,
      "supported##": 4375,
      "resulted##": 4376,
      "braz": 4377,
      "insects##": 4378,
      "dan": 4379,
      "ense##": 4380,
      "dog##": 4381,
      "operations##": 4382,
      "leader##": 4383,
      "experim": 4384,
      "libr": 4385,
      "nec": 4386,
      "zone##": 4387,
      "code##": 4388,
      "numbers##": 4389,
      "soldi": 4390,
      "winter##": 4391,
      "richmond##": 4392,
      "henry##": 4393,
      "36##": 4394,
      "sion": 4395,
      "cardin": 4396,
      "1980s##": 4397,
      "domestic##": 4398,
      "85##": 4399,
      "sity##": 4400,
      "swe": 4401,
      "thu": 4402,
      "cali": 4403,
      "spoken##": 4404,
      "37##": 4405,
      "lled##": 4406,
      "inhab": 4407,
      "stren": 4408,
      "lied##": 4409,
      "organis": 4410,
      "books##": 4411,
      "climate##": 4412,
      "med##": 4413,
      "birds##": 4414,
      "earliest##": 4415,
      "55##": 4416,
      "mental##": 4417,
      "inc##": 4418,
      "practice##": 4419,
      "78##": 4420,
      "nature##": 4421,
      "ye##": 4422,
      "ention##": 4423,
      "format##": 4424,
      "neighbor": 4425,
      "38##": 4426,
      "ious##": 4427,
      "james##": 4428,
      "ney##": 4429,
      "entire##": 4430,
      "daily##": 4431,
      "pacific##": 4432,
      "architecture##": 4433,
      "ken": 4434,
      "real##": 4435,
      "liby": 4436,
      "marked##": 4437,
      "featur": 4438,
      "prus": 4439,
      "apollo##": 4440,
      "sistance##": 4441,
      "headquar": 4442,
      "ners##": 4443,
      "ute##": 4444,
      "ordin": 4445,
      "austri": 4446,
      "songs##": 4447,
      "quran##": 4448,
      "ae": 4449,
      "refl": 4450,
      "irish##": 4451,
      "mainly##": 4452,
      "tradition##": 4453,
      "behind##": 4454,
      "ga": 4455,
      "kings##": 4456,
      "sat": 4457,
      "tin##": 4458,
      "whom##": 4459,
      "conserv": 4460,
      "tually##": 4461,
      "communities##": 4462,
      "tee##": 4463,
      "operation##": 4464,
      "streng": 4465,
      "fic##": 4466,
      "acti": 4467,
      "asp": 4468,
      "sex": 4469,
      "seattle##": 4470,
      "scale##": 4471,
      "micro": 4472,
      "sun##": 4473,
      "ester##": 4474,
      "individual##": 4475,
      "believed##": 4476,
      "ari": 4477,
      "aded##": 4478,
      "earth##": 4479,
      "complex##": 4480,
      "knowledge##": 4481,
      "tary##": 4482,
      "yale##": 4483,
      "units##": 4484,
      "tered##": 4485,
      "surroun": 4486,
      "adoles": 4487,
      "houses##": 4488,
      "adian##": 4489,
      "portugal##": 4490,
      "mechan": 4491,
      "ena##": 4492,
      "ster": 4493,
      "week##": 4494,
      "join": 4495,
      "ssed##": 4496,
      "speaking##": 4497,
      "sands##": 4498,
      "scholars##": 4499,
      "migration##": 4500,
      "49##": 4501,
      "ki": 4502,
      "adel": 4503,
      "belie": 4504,
      "consider": 4505,
      "separate##": 4506,
      "downtown##": 4507,
      "munici": 4508,
      "becoming##": 4509,
      "gosla": 4510,
      "strateg": 4511,
      "past##": 4512,
      "wars##": 4513,
      "180": 4514,
      "flo": 4515,
      "hot##": 4516,
      "newsp": 4517,
      "nuc": 4518,
      "arity##": 4519,
      "elled##": 4520,
      "occas": 4521,
      "torch##": 4522,
      "institutions##": 4523,
      "yugosla": 4524,
      "95##": 4525,
      "town": 4526,
      "ison##": 4527,
      "abor": 4528,
      "imp": 4529,
      "audio##": 4530,
      "digital##": 4531,
      "campaign##": 4532,
      "newspap": 4533,
      "cru": 4534,
      "hit##": 4535,
      "ior##": 4536,
      "ions##": 4537,
      "promin": 4538,
      "transl": 4539,
      "congress##": 4540,
      "scientific##": 4541,
      "security##": 4542,
      "situ": 4543,
      "bish": 4544,
      "dance##": 4545,
      "ged##": 4546,
      "hard##": 4547,
      "1970s##": 4548,
      "news##": 4549,
      "occurred##": 4550,
      "ut##": 4551,
      "she": 4552,
      "ength##": 4553,
      "solution##": 4554,
      "product##": 4555,
      "suppor": 4556,
      "hunting##": 4557,
      "categ": 4558,
      "married##": 4559,
      "integr": 4560,
      "nucle": 4561,
      "%.##": 4562,
      ",\"##": 4563,
      "99##": 4564,
      "dp##": 4565,
      "jos": 4566,
      "wing##": 4567,
      "territories##": 4568,
      "towards##": 4569,
      "relationship##": 4570,
      "56##": 4571,
      "cris": 4572,
      "remain##": 4573,
      "entation##": 4574,
      "ultim": 4575,
      "forts##": 4576,
      "future##": 4577,
      "1960s##": 4578,
      "appeared##": 4579,
      "levels##": 4580,
      "eas": 4581,
      "jer": 4582,
      "amed##": 4583,
      "entary##": 4584,
      "pre##": 4585,
      "border##": 4586,
      "resulting##": 4587,
      "writing##": 4588,
      "historical##": 4589,
      "agreed##": 4590,
      "ping##": 4591,
      "radi": 4592,
      "cotton##": 4593,
      "18th##": 4594,
      "33##": 4595,
      "compl": 4596,
      "phal": 4597,
      "joined##": 4598,
      "student##": 4599,
      "philosophy##": 4600,
      "care": 4601,
      "hand": 4602,
      "kind##": 4603,
      "lin##": 4604,
      "ensive##": 4605,
      "ria##": 4606,
      "cloth": 4607,
      "second": 4608,
      "armed##": 4609,
      "taining##": 4610,
      "overall##": 4611,
      "korea##": 4612,
      "soldiers##": 4613,
      "sic": 4614,
      "chic": 4615,
      "ains##": 4616,
      "clubs##": 4617,
      "character##": 4618,
      "agreement##": 4619,
      "appointed##": 4620,
      "hispanic##": 4621,
      "magazine##": 4622,
      "inci": 4623,
      "box##": 4624,
      "directly##": 4625,
      "34##": 4626,
      "poly": 4627,
      "anta##": 4628,
      "experience##": 4629,
      "industrial##": 4630,
      "don##": 4631,
      "ron": 4632,
      "vin": 4633,
      "avo": 4634,
      "decline##": 4635,
      "%),##": 4636,
      "fy##": 4637,
      "jes": 4638,
      "individuals##": 4639,
      "performance##": 4640,
      "39##": 4641,
      "paren": 4642,
      "qing##": 4643,
      "rates##": 4644,
      "ander##": 4645,
      "teen##": 4646,
      "finally##": 4647,
      "1992##": 4648,
      "purch": 4649,
      "christians##": 4650,
      "windows##": 4651,
      "fic": 4652,
      "iran##": 4653,
      "colum": 4654,
      "love##": 4655,
      "canadian##": 4656,
      "heavy##": 4657,
      "stores##": 4658,
      "orial##": 4659,
      "always##": 4660,
      "audi": 4661,
      "soci": 4662,
      "princip": 4663,
      "64##": 4664,
      "bi##": 4665,
      "cle##": 4666,
      "hell": 4667,
      "son": 4668,
      "republic": 4669,
      "marsh": 4670,
      "section##": 4671,
      "internet##": 4672,
      "surve": 4673,
      "richard##": 4674,
      "expansion##": 4675,
      "sent": 4676,
      "tting##": 4677,
      "thing##": 4678,
      "onna##": 4679,
      "spring##": 4680,
      "share##": 4681,
      "grew##": 4682,
      "specific##": 4683,
      "free": 4684,
      "bank##": 4685,
      "intend": 4686,
      "estonia##": 4687,
      "festival##": 4688,
      "supre": 4689,
      "yet##": 4690,
      "cover##": 4691,
      "disc##": 4692,
      "embly##": 4693,
      "influenced##": 4694,
      "softw": 4695,
      "activi": 4696,
      "bon##": 4697,
      "lead##": 4698,
      "give##": 4699,
      "electric##": 4700,
      "victory##": 4701,
      "tele": 4702,
      "racial##": 4703,
      "52##": 4704,
      "89##": 4705,
      "mol": 4706,
      "tin": 4707,
      "thom": 4708,
      "quake##": 4709,
      "met##": 4710,
      "highly##": 4711,
      "literature##": 4712,
      "granted##": 4713,
      "madonna##": 4714,
      "allies##": 4715,
      "muslims##": 4716,
      "loss##": 4717,
      "len": 4718,
      "round##": 4719,
      "generation##": 4720,
      "types##": 4721,
      "discus": 4722,
      "destroyed##": 4723,
      "42##": 4724,
      "63##": 4725,
      "gas##": 4726,
      "km2##": 4727,
      "ash##": 4728,
      "lik": 4729,
      "features##": 4730,
      "regular##": 4731,
      "somali##": 4732,
      "historic##": 4733,
      "response##": 4734,
      "practic": 4735,
      "occup": 4736,
      "attacks##": 4737,
      "my##": 4738,
      "stated##": 4739,
      "elev": 4740,
      "turkish##": 4741,
      "too##": 4742,
      "create##": 4743,
      "schwar": 4744,
      "money##": 4745,
      "officials##": 4746,
      "valley##": 4747,
      "mission##": 4748,
      "latter##": 4749,
      "competition##": 4750,
      "evidence##": 4751,
      "hin": 4752,
      "male##": 4753,
      "rad": 4754,
      "sand##": 4755,
      "consum": 4756,
      "note##": 4757,
      "medic": 4758,
      "assembly##": 4759,
      "sector##": 4760,
      "crime##": 4761,
      "temperatures##": 4762,
      "fifth##": 4763,
      "armenia##": 4764,
      "therefore##": 4765,
      "atives##": 4766,
      "manch": 4767,
      "earth": 4768,
      "egger##": 4769,
      "products##": 4770,
      "link##": 4771,
      "olympic##": 4772,
      "secondary##": 4773,
      "inde": 4774,
      "concentr": 4775,
      "comman": 4776,
      "idol##": 4777,
      "allo": 4778,
      "poland##": 4779,
      "1994##": 4780,
      "names##": 4781,
      "animals##": 4782,
      "louis##": 4783,
      "zenegger##": 4784,
      "schwarzenegger##": 4785,
      "quick": 4786,
      "silver##": 4787,
      "gir": 4788,
      "ques": 4789,
      "lam##": 4790,
      "1999##": 4791,
      "films##": 4792,
      "relations##": 4793,
      "star##": 4794,
      "let##": 4795,
      "project##": 4796,
      "ument##": 4797,
      "tuc": 4798,
      "minority##": 4799,
      "israel": 4800,
      "increasing##": 4801,
      "conflict##": 4802,
      "migrants##": 4803,
      "necess": 4804,
      "73##": 4805,
      "ae##": 4806,
      "wr": 4807,
      "declin": 4808,
      "antarc": 4809,
      "valenci": 4810,
      "delhi##": 4811,
      "tionary##": 4812,
      "navy##": 4813,
      "premier##": 4814,
      "doll": 4815,
      "bon": 4816,
      "dges##": 4817,
      "ler##": 4818,
      "rebel": 4819,
      "extre": 4820,
      "worked##": 4821,
      "metho": 4822,
      "pied##": 4823,
      "additional##": 4824,
      "award##": 4825,
      "tibetan##": 4826,
      "aur": 4827,
      "tru": 4828,
      "exhi": 4829,
      "allow##": 4830,
      "pressed##": 4831,
      "1997##": 4832,
      "subject##": 4833,
      "59##": 4834,
      "hand##": 4835,
      "repe": 4836,
      "reduced##": 4837,
      "eless##": 4838,
      "activity##": 4839,
      "ides##": 4840,
      "helped##": 4841,
      "operating##": 4842,
      "seasons##": 4843,
      "expanded##": 4844,
      "76##": 4845,
      "hap": 4846,
      "albert##": 4847,
      "metal##": 4848,
      "franc": 4849,
      "cross##": 4850,
      "scen": 4851,
      "settlement##": 4852,
      "crisis##": 4853,
      "47##": 4854,
      "hood##": 4855,
      "pul": 4856,
      "eral##": 4857,
      "need##": 4858,
      "phon": 4859,
      "prus##": 4860,
      "cause##": 4861,
      "vote##": 4862,
      "cyprus##": 4863,
      "occupied##": 4864,
      "relatively##": 4865,
      "issue##": 4866,
      "software##": 4867,
      "already##": 4868,
      "iss##": 4869,
      "immedi": 4870,
      "contemporary##": 4871,
      "pro##": 4872,
      "visit##": 4873,
      "kilom": 4874,
      "colony##": 4875,
      "gdp##": 4876,
      "pain##": 4877,
      "blac": 4878,
      "wealth##": 4879,
      "ibn##": 4880,
      "egyptian##": 4881,
      "derived##": 4882,
      "quickly##": 4883,
      "gor": 4884,
      "happ": 4885,
      "jected##": 4886,
      "arsen": 4887,
      "iron##": 4888,
      "notable##": 4889,
      "decre": 4890,
      "decided##": 4891,
      "1970##": 4892,
      "bio": 4893,
      "claim##": 4894,
      "glass##": 4895,
      "mountains##": 4896,
      "dw": 4897,
      "fa##": 4898,
      "gation##": 4899,
      "real": 4900,
      "stage##": 4901,
      "training##": 4902,
      "angel": 4903,
      "musical##": 4904,
      "capacity##": 4905,
      "53##": 4906,
      "66##": 4907,
      "nintend": 4908,
      "top": 4909,
      "probl": 4910,
      "perman": 4911,
      "power": 4912,
      "switzer": 4913,
      "nintendo##": 4914,
      "switzerland##": 4915,
      "abe": 4916,
      "eval##": 4917,
      "thousands##": 4918,
      "patter": 4919,
      "attempt##": 4920,
      "broadcast": 4921,
      "benef": 4922,
      "ha##": 4923,
      "wan": 4924,
      "intel": 4925,
      "tra": 4926,
      "after": 4927,
      "arms##": 4928,
      "fact##": 4929,
      "wides": 4930,
      "barcel": 4931,
      "collec": 4932,
      "equi": 4933,
      "degree##": 4934,
      "98##": 4935,
      "fla": 4936,
      "py": 4937,
      "lem##": 4938,
      "mad##": 4939,
      "serves##": 4940,
      "aves##": 4941,
      "colonies##": 4942,
      "graph": 4943,
      "...##": 4944,
      "barcelona##": 4945,
      "deser": 4946,
      "speci": 4947,
      "captured##": 4948,
      "continental##": 4949,
      "consists##": 4950,
      "greatest##": 4951,
      "eas##": 4952,
      "hic": 4953,
      "nd##": 4954,
      "ale": 4955,
      "row##": 4956,
      "cently##": 4957,
      "turned##": 4958,
      "speak": 4959,
      "mass": 4960,
      "targ": 4961,
      "ink##": 4962,
      "recently##": 4963,
      "performed##": 4964,
      "creation##": 4965,
      "icient##": 4966,
      "maced": 4967,
      "lord##": 4968,
      "adelph": 4969,
      "chicago##": 4970,
      "wher": 4971,
      "better##": 4972,
      "tucson##": 4973,
      "1st##": 4974,
      "bol": 4975,
      "di##": 4976,
      "edi": 4977,
      "las": 4978,
      "temp": 4979,
      "alists##": 4980,
      "osis##": 4981,
      "exist##": 4982,
      "planned##": 4983,
      "meth": 4984,
      "tai": 4985,
      "cut##": 4986,
      "tana##": 4987,
      "bacter": 4988,
      "identified##": 4989,
      "theatre##": 4990,
      "likely##": 4991,
      "ease##": 4992,
      "voc": 4993,
      "yment##": 4994,
      "restric": 4995,
      "phas": 4996,
      "value##": 4997,
      "establishment##": 4998,
      "byz": 4999,
      "arabic##": 5000,
      "eting##": 5001,
      "ku": 5002,
      "emy##": 5003,
      "true##": 5004,
      "remaining##": 5005,
      "rules##": 5006,
      "eding##": 5007,
      "fel": 5008,
      "pose##": 5009,
      "proposed##": 5010,
      "strong": 5011,
      "command##": 5012,
      "1995##": 5013,
      "philadelph": 5014,
      "ruled##": 5015,
      "soft##": 5016,
      "kar": 5017,
      "sh##": 5018,
      "tel##": 5019,
      "efforts##": 5020,
      "broadcast##": 5021,
      "committee##": 5022,
      "nuclear##": 5023,
      "supreme##": 5024,
      "philadelphia##": 5025,
      "bay##": 5026,
      "hill##": 5027,
      "mc": 5028,
      "except##": 5029,
      "interest##": 5030,
      "subst": 5031,
      "tters##": 5032,
      "continent##": 5033,
      "medieval##": 5034,
      "artist##": 5035,
      "issued##": 5036,
      "autonom": 5037,
      "41##": 5038,
      "gence##": 5039,
      "progre": 5040,
      "giving##": 5041,
      "feature##": 5042,
      "antine##": 5043,
      "tainment##": 5044,
      "big##": 5045,
      "property##": 5046,
      "conference##": 5047,
      "nigeria##": 5048,
      "library##": 5049,
      "intelli": 5050,
      "gained##": 5051,
      "anthro": 5052,
      "ali": 5053,
      "letter##": 5054,
      "presence##": 5055,
      "penalty##": 5056,
      "secretary##": 5057,
      "hellen": 5058,
      "%,##": 5059,
      "cz": 5060,
      "etic##": 5061,
      "actions##": 5062,
      "ocean##": 5063,
      "minor##": 5064,
      "forming##": 5065,
      "citizens##": 5066,
      "91##": 5067,
      "od": 5068,
      "ram": 5069,
      "ching##": 5070,
      "concept##": 5071,
      "ceeded##": 5072,
      "gramm": 5073,
      "german": 5074,
      "matter##": 5075,
      "break##": 5076,
      "collap": 5077,
      "defence##": 5078,
      "defeat##": 5079,
      "encies##": 5080,
      "here##": 5081,
      "mm##": 5082,
      "nia##": 5083,
      "nomin": 5084,
      "ple": 5085,
      "sar": 5086,
      "sony##": 5087,
      "chall": 5088,
      "enth##": 5089,
      "heart##": 5090,
      "genous##": 5091,
      "represented##": 5092,
      "programs##": 5093,
      "graduate##": 5094,
      "46##": 5095,
      "62##": 5096,
      "mathem": 5097,
      "pread##": 5098,
      "tax": 5099,
      "route##": 5100,
      "serving##": 5101,
      "formal##": 5102,
      "peninsul": 5103,
      "vehic": 5104,
      "widespread##": 5105,
      "79##": 5106,
      "gun": 5107,
      "length##": 5108,
      "mari": 5109,
      "pron": 5110,
      "avenue##": 5111,
      "compon": 5112,
      "leaders##": 5113,
      "dominant##": 5114,
      "dialects##": 5115,
      "ky": 5116,
      "wol": 5117,
      "stra": 5118,
      "alth": 5119,
      "indigenous##": 5120,
      ".)##": 5121,
      "71##": 5122,
      "loo": 5123,
      "vid##": 5124,
      "bus##": 5125,
      "going##": 5126,
      "1989##": 5127,
      "responsible##": 5128,
      "occur##": 5129,
      "suffered##": 5130,
      "challeng": 5131,
      ".:##": 5132,
      "bce##": 5133,
      "va##": 5134,
      "zinc##": 5135,
      "ghly##": 5136,
      "possi": 5137,
      "mixed##": 5138,
      "basic##": 5139,
      "places##": 5140,
      "revolu": 5141,
      "quarter##": 5142,
      "executive##": 5143,
      "weeks##": 5144,
      "fairs##": 5145,
      "problems##": 5146,
      "2nd##": 5147,
      "stal": 5148,
      "room##": 5149,
      "attrac": 5150,
      "islam##": 5151,
      "shap": 5152,
      "1998##": 5153,
      "origin##": 5154,
      "organiz": 5155,
      "person": 5156,
      "43##": 5157,
      "ba": 5158,
      "asphal": 5159,
      "deal##": 5160,
      "ayed##": 5161,
      "bap": 5162,
      "cm##": 5163,
      "jus": 5164,
      "sr##": 5165,
      "wa": 5166,
      "thers##": 5167,
      "ored##": 5168,
      "ales##": 5169,
      "continue##": 5170,
      "communist##": 5171,
      "beyond##": 5172,
      "characters##": 5173,
      "increasingly##": 5174,
      "alexander##": 5175,
      "headquarters##": 5176,
      "crus": 5177,
      "mir": 5178,
      "not": 5179,
      "movi": 5180,
      "taking##": 5181,
      "populations##": 5182,
      "elections##": 5183,
      "ellow##": 5184,
      "speed##": 5185,
      "federation##": 5186,
      "fleet##": 5187,
      "bat": 5188,
      "ued##": 5189,
      "encour": 5190,
      "contains##": 5191,
      "location##": 5192,
      "burg##": 5193,
      "defined##": 5194,
      "combined##": 5195,
      "animal##": 5196,
      "composed##": 5197,
      "clothing##": 5198,
      "pa##": 5199,
      "xi": 5200,
      "listed##": 5201,
      "basis##": 5202,
      "collection##": 5203,
      "back": 5204,
      "recognized##": 5205,
      "conditions##": 5206,
      "68##": 5207,
      "hop": 5208,
      "mal##": 5209,
      "thr": 5210,
      "reign##": 5211,
      "aging##": 5212,
      "abol": 5213,
      "player##": 5214,
      "herit": 5215,
      "hammad##": 5216,
      "every": 5217,
      "prominent##": 5218,
      "600##": 5219,
      "care##": 5220,
      "dame##": 5221,
      "opening##": 5222,
      "letters##": 5223,
      "minim": 5224,
      "montana##": 5225,
      "1996##": 5226,
      "crown##": 5227,
      "subsequently##": 5228,
      "satell": 5229,
      "\"),##": 5230,
      "jun": 5231,
      "selling##": 5232,
      "tree##": 5233,
      "master##": 5234,
      "notre##": 5235,
      "internal##": 5236,
      "complete##": 5237,
      "ibm##": 5238,
      "account##": 5239,
      "running##": 5240,
      "towns##": 5241,
      "peninsula##": 5242,
      "awar": 5243,
      "cd##": 5244,
      "pc##": 5245,
      "pas": 5246,
      "staf": 5247,
      "mann##": 5248,
      "workers##": 5249,
      "stru": 5250,
      "invest": 5251,
      "christian": 5252,
      "mayor##": 5253,
      "management##": 5254,
      "temple##": 5255,
      "bor##": 5256,
      "might##": 5257,
      "pt##": 5258,
      "tac": 5259,
      "uk": 5260,
      "meeting##": 5261,
      "roughly##": 5262,
      "heat##": 5263,
      "housing##": 5264,
      "sense##": 5265,
      "attempted##": 5266,
      "engineering##": 5267,
      "nanjing##": 5268,
      "anthropol": 5269,
      "69##": 5270,
      "ound": 5271,
      "offered##": 5272,
      "plays##": 5273,
      "merc": 5274,
      "activities##": 5275,
      "150##": 5276,
      "elds##": 5277,
      "1950##": 5278,
      "track##": 5279,
      "covery##": 5280,
      "crimin": 5281,
      "poss": 5282,
      "groun": 5283,
      "humans##": 5284,
      "colonial##": 5285,
      "stored##": 5286,
      "incorporated##": 5287,
      "brazil##": 5288,
      "54##": 5289,
      "ais": 5290,
      "bing##": 5291,
      "thir": 5292,
      "whole##": 5293,
      "determin": 5294,
      "tail##": 5295,
      "operated##": 5296,
      "standards##": 5297,
      "text##": 5298,
      "texas##": 5299,
      "67##": 5300,
      "non": 5301,
      "ode##": 5302,
      "remo": 5303,
      "beha": 5304,
      "mean##": 5305,
      "alling##": 5306,
      "cape##": 5307,
      "1945##": 5308,
      "traditionally##": 5309,
      "korean##": 5310,
      "clear##": 5311,
      "whether##": 5312,
      "libya##": 5313,
      "jesus##": 5314,
      "eigh": 5315,
      "lack##": 5316,
      "onian##": 5317,
      "aband": 5318,
      "ums##": 5319,
      "tax##": 5320,
      "post": 5321,
      "los##": 5322,
      "course##": 5323,
      "buddhism##": 5324,
      "advanced##": 5325,
      "provinces##": 5326,
      "arsenal##": 5327,
      "96##": 5328,
      "iter": 5329,
      "elberg##": 5330,
      "sump": 5331,
      "huan##": 5332,
      "kerry##": 5333,
      "thomas##": 5334,
      "58##": 5335,
      "61##": 5336,
      "hus": 5337,
      "lam": 5338,
      "paid##": 5339,
      "access##": 5340,
      "bure": 5341,
      "ticle##": 5342,
      "weap": 5343,
      "controlled##": 5344,
      "frequently##": 5345,
      "fell##": 5346,
      "adult##": 5347,
      "aching##": 5348,
      "materials##": 5349,
      "manufacturing##": 5350,
      "hydrogen##": 5351,
      "bird##": 5352,
      "eks##": 5353,
      "nether": 5354,
      "aying##": 5355,
      "patent##": 5356,
      "appear": 5357,
      "sixth##": 5358,
      "story##": 5359,
      "agency##": 5360,
      "que": 5361,
      "carni": 5362,
      "1988##": 5363,
      "74##": 5364,
      "97##": 5365,
      "rich##": 5366,
      "tour##": 5367,
      "reach##": 5368,
      "emerged##": 5369,
      "adap": 5370,
      "super##": 5371,
      "colleg": 5372,
      "tennes": 5373,
      "ferred##": 5374,
      "valent##": 5375,
      "organized##": 5376,
      "density##": 5377,
      "spielberg##": 5378,
      "permanent##": 5379,
      "77##": 5380,
      "dent##": 5381,
      "etry##": 5382,
      "interpre": 5383,
      "find##": 5384,
      "winning##": 5385,
      "settled##": 5386,
      "households##": 5387,
      "channel##": 5388,
      "inhabit": 5389,
      "cab": 5390,
      "wan##": 5391,
      "anian##": 5392,
      "surface##": 5393,
      "crow": 5394,
      "effective##": 5395,
      "gradually##": 5396,
      "issues##": 5397,
      "protection##": 5398,
      "democratic##": 5399,
      "process": 5400,
      "09##": 5401,
      "cum": 5402,
      "gest##": 5403,
      "ost": 5404,
      "ps": 5405,
      "ti##": 5406,
      "inn": 5407,
      "romans##": 5408,
      "sig": 5409,
      "traff": 5410,
      "maxim": 5411,
      "bloc": 5412,
      "decision##": 5413,
      "brother##": 5414,
      "constructed##": 5415,
      "austral": 5416,
      "entertainment##": 5417,
      "implem": 5418,
      "earthquake##": 5419,
      "desert##": 5420,
      "christianity##": 5421,
      "\").##": 5422,
      "84##": 5423,
      "bia##": 5424,
      "sites##": 5425,
      "ania##": 5426,
      "ordered##": 5427,
      "robert##": 5428,
      "dipl": 5429,
      "augh": 5430,
      "differences##": 5431,
      "mosaic##": 5432,
      "speakers##": 5433,
      "flight##": 5434,
      "mes##": 5435,
      "sin": 5436,
      "resistance##": 5437,
      "ising##": 5438,
      "consequ": 5439,
      "turkey##": 5440,
      "muhammad##": 5441,
      "revenue##": 5442,
      "doms##": 5443,
      "human": 5444,
      "holy##": 5445,
      "swiss##": 5446,
      "degrees##": 5447,
      "physical##": 5448,
      "republican##": 5449,
      "staff##": 5450,
      "51##": 5451,
      "ires##": 5452,
      "ances##": 5453,
      "unity##": 5454,
      "sively##": 5455,
      "lit##": 5456,
      "noted##": 5457,
      "poor##": 5458,
      "ella##": 5459,
      "speech##": 5460,
      "studio##": 5461,
      "existence##": 5462,
      "behavi": 5463,
      "colleges##": 5464,
      "tennessee##": 5465,
      "diplom": 5466,
      "dy": 5467,
      "art": 5468,
      "conf": 5469,
      "entered##": 5470,
      "sought##": 5471,
      "deli": 5472,
      "allowing##": 5473,
      "allied##": 5474,
      "extended##": 5475,
      "yugoslavia##": 5476,
      "awarded##": 5477,
      "host##": 5478,
      "erly##": 5479,
      "stand##": 5480,
      "content##": 5481,
      "ights##": 5482,
      "candi": 5483,
      "positions##": 5484,
      "advant": 5485,
      "david##": 5486,
      "supply##": 5487,
      "chemical##": 5488,
      "inhabitants##": 5489,
      "fs##": 5490,
      "sell##": 5491,
      "statis": 5492,
      "cents##": 5493,
      "pop##": 5494,
      "1993##": 5495,
      "investi": 5496,
      "develop##": 5497,
      "distingu": 5498,
      "photo": 5499,
      "big": 5500,
      "fas": 5501,
      "ja##": 5502,
      "mac##": 5503,
      "affairs##": 5504,
      "immigrants##": 5505,
      "fili": 5506,
      "appear##": 5507,
      "refused##": 5508,
      "prising##": 5509,
      "foundation##": 5510,
      "virgin": 5511,
      "catalan##": 5512,
      "5th##": 5513,
      "elim": 5514,
      "ira": 5515,
      "lee##": 5516,
      "number": 5517,
      "namib": 5518,
      "results##": 5519,
      "executed##": 5520,
      "armenian##": 5521,
      "converted##": 5522,
      "philip##": 5523,
      "sexual##": 5524,
      "arist": 5525,
      "rose##": 5526,
      "astic##": 5527,
      "chos": 5528,
      "leaving##": 5529,
      "shows##": 5530,
      "viet": 5531,
      "tuval": 5532,
      "popularity##": 5533,
      "ieties##": 5534,
      "expected##": 5535,
      "hua##": 5536,
      "upper##": 5537,
      "slaves##": 5538,
      "showed##": 5539,
      "hem": 5540,
      "psy": 5541,
      "rus##": 5542,
      "scre": 5543,
      "anten": 5544,
      "enna##": 5545,
      "acts##": 5546,
      "unit##": 5547,
      "manh": 5548,
      "feet##": 5549,
      "devices##": 5550,
      "ego##": 5551,
      "geograph": 5552,
      "playing##": 5553,
      "16th##": 5554,
      "woman##": 5555,
      "mathematic": 5556,
      "pay##": 5557,
      "wall##": 5558,
      "eries##": 5559,
      "roads##": 5560,
      "chap": 5561,
      "neg": 5562,
      "affili": 5563,
      "disease##": 5564,
      "attan##": 5565,
      "maintained##": 5566,
      "update##": 5567,
      "stream##": 5568,
      "mountain##": 5569,
      "ideas##": 5570,
      "closed##": 5571,
      "87##": 5572,
      "8th##": 5573,
      "800##": 5574,
      "fought##": 5575,
      "hur": 5576,
      "ky##": 5577,
      "woo": 5578,
      "peak##": 5579,
      "rain##": 5580,
      "lowest##": 5581,
      "volum": 5582,
      "authorities##": 5583,
      "7th##": 5584,
      "bis": 5585,
      "bes": 5586,
      "dor": 5587,
      "zeal": 5588,
      "unlike##": 5589,
      "cles##": 5590,
      "shown##": 5591,
      "rain": 5592,
      "marine##": 5593,
      "peoples##": 5594,
      "1976##": 5595,
      "officers##": 5596,
      "significantly##": 5597,
      "mexican##": 5598,
      "corporation##": 5599,
      "reason##": 5600,
      "achieved##": 5601,
      "console##": 5602,
      "convention##": 5603,
      "method##": 5604,
      "bow": 5605,
      "call##": 5606,
      "gri": 5607,
      "eliz": 5608,
      "opport": 5609,
      "districts##": 5610,
      "heritage##": 5611,
      "4th##": 5612,
      "88##": 5613,
      "ie##": 5614,
      "santa##": 5615,
      "ts": 5616,
      "ty": 5617,
      "alle": 5618,
      "opposed##": 5619,
      "coast": 5620,
      "pressure##": 5621,
      "tribes##": 5622,
      "applied##": 5623,
      "custom": 5624,
      "sumption##": 5625,
      "82##": 5626,
      "car##": 5627,
      "cement##": 5628,
      "hour##": 5629,
      "wel": 5630,
      "alp": 5631,
      "icity##": 5632,
      "duke##": 5633,
      "common": 5634,
      "attention##": 5635,
      "employment##": 5636,
      "bitum": 5637,
      "railway##": 5638,
      "multiple##": 5639,
      "rd##": 5640,
      "infr": 5641,
      "contain##": 5642,
      "goal##": 5643,
      "tica##": 5644,
      "formally##": 5645,
      "perio": 5646,
      "sax": 5647,
      "1949##": 5648,
      "carried##": 5649,
      "jiang##": 5650,
      "medicine##": 5651,
      "byzantine##": 5652,
      "intelligence##": 5653,
      "57##": 5654,
      "daugh": 5655,
      "fast": 5656,
      "emphas": 5657,
      "exclu": 5658,
      "wife##": 5659,
      "pursu": 5660,
      "greatly##": 5661,
      "academic##": 5662,
      "powerful##": 5663,
      "abeth##": 5664,
      "86##": 5665,
      "kin": 5666,
      "ogi": 5667,
      "sli": 5668,
      "conclud": 5669,
      "meant##": 5670,
      "green": 5671,
      "tum##": 5672,
      "bled##": 5673,
      "decades##": 5674,
      "recording##": 5675,
      "races##": 5676,
      "administrative##": 5677,
      "carriers##": 5678,
      "mitted##": 5679,
      "arrived##": 5680,
      "ultimately##": 5681,
      "netherlands##": 5682,
      "72##": 5683,
      "700##": 5684,
      "say##": 5685,
      "tici": 5686,
      "review##": 5687,
      "20s##": 5688,
      "boys##": 5689,
      "presby": 5690,
      "southeast##": 5691,
      "guar": 5692,
      "dress##": 5693,
      "rapid##": 5694,
      "visited##": 5695,
      "week": 5696,
      "hosp": 5697,
      "israeli##": 5698,
      "valencia##": 5699,
      "cli": 5700,
      "ov": 5701,
      "ton": 5702,
      "tile##": 5703,
      "removed##": 5704,
      "relay##": 5705,
      "element##": 5706,
      "acu": 5707,
      "dic##": 5708,
      "enty##": 5709,
      "dispu": 5710,
      "attribu": 5711,
      "cred": 5712,
      "critical##": 5713,
      "struction##": 5714,
      "titles##": 5715,
      "employed##": 5716,
      "buddhist##": 5717,
      "asphalt##": 5718,
      "virginia##": 5719,
      "pak": 5720,
      "tab": 5721,
      "tra##": 5722,
      "clar": 5723,
      "parties##": 5724,
      "image##": 5725,
      "raised##": 5726,
      "offer##": 5727,
      "aches##": 5728,
      "1979##": 5729,
      "piano##": 5730,
      "kingdoms##": 5731,
      "dialect##": 5732,
      "restaur": 5733,
      "difficult##": 5734,
      "califor": 5735,
      "municipal": 5736,
      "83##": 5737,
      "81##": 5738,
      "pc": 5739,
      "annex": 5740,
      "reduce##": 5741,
      "roll": 5742,
      "versions##": 5743,
      "promis": 5744,
      "comes##": 5745,
      "sey##": 5746,
      "plans##": 5747,
      "1950s##": 5748,
      "launch##": 5749,
      "household##": 5750,
      "focus##": 5751,
      "strugg": 5752,
      "chosen##": 5753,
      "yers##": 5754,
      "ann##": 5755,
      "inated##": 5756,
      "asa##": 5757,
      "persian##": 5758,
      "cold##": 5759,
      "bill": 5760,
      "cros": 5761,
      "cypri": 5762,
      "initial##": 5763,
      "fifa##": 5764,
      "potential##": 5765,
      "germanic##": 5766,
      "manhattan##": 5767,
      "ee##": 5768,
      "visi": 5769,
      "perform##": 5770,
      "greeks##": 5771,
      "rank##": 5772,
      "mile##": 5773,
      "1960##": 5774,
      "constitutional##": 5775,
      "damage##": 5776,
      "problem##": 5777,
      "examples##": 5778,
      "day": 5779,
      "dna##": 5780,
      "any": 5781,
      "users##": 5782,
      "shel": 5783,
      "worth##": 5784,
      "metr": 5785,
      "1940##": 5786,
      "sumed##": 5787,
      "tower##": 5788,
      "marriage##": 5789,
      "namibia##": 5790,
      "30": 5791,
      "ki##": 5792,
      "rural##": 5793,
      "resources##": 5794,
      "whit": 5795,
      "actually##": 5796,
      "trading##": 5797,
      "ranean##": 5798,
      "jobs##": 5799,
      "folk##": 5800,
      "racy##": 5801,
      "intell": 5802,
      "extensive##": 5803,
      "scotland##": 5804,
      "notably##": 5805,
      "traffic##": 5806,
      "dly##": 5807,
      "nag": 5808,
      "tol": 5809,
      "stop": 5810,
      "vere": 5811,
      "absor": 5812,
      "nepal##": 5813,
      "fields##": 5814,
      "annually##": 5815,
      "faith##": 5816,
      "borough##": 5817,
      "points##": 5818,
      "influential##": 5819,
      "receive##": 5820,
      "ministry##": 5821,
      "introduction##": 5822,
      "albums##": 5823,
      "treatment##": 5824,
      "academy##": 5825,
      "marshall##": 5826,
      "zealand##": 5827,
      "presbyter": 5828,
      "california##": 5829,
      "xi##": 5830,
      "you": 5831,
      "arily##": 5832,
      "row": 5833,
      "seg": 5834,
      "marg": 5835,
      "gods##": 5836,
      "specific": 5837,
      "governments##": 5838,
      "anning##": 5839,
      "1986##": 5840,
      "1974##": 5841,
      "provides##": 5842,
      "equal##": 5843,
      "prison": 5844,
      "contrast##": 5845,
      "accepted##": 5846,
      "featured##": 5847,
      "practices##": 5848,
      "done##": 5849,
      "eve##": 5850,
      "von##": 5851,
      "tili": 5852,
      "prece": 5853,
      "rail##": 5854,
      "twenty##": 5855,
      "phase##": 5856,
      "counter": 5857,
      "descent##": 5858,
      "17th##": 5859,
      "cannot##": 5860,
      "sovere": 5861,
      "effec": 5862,
      "tioned##": 5863,
      "mediter": 5864,
      "travel##": 5865,
      "australian##": 5866,
      "mediterranean##": 5867,
      "menti": 5868,
      "pil": 5869,
      "rice##": 5870,
      "sq##": 5871,
      "ur##": 5872,
      "sub##": 5873,
      "modi": 5874,
      "tuber": 5875,
      "price##": 5876,
      "secu": 5877,
      "join##": 5878,
      "playstation##": 5879,
      "byu##": 5880,
      "golden##": 5881,
      "necessary##": 5882,
      "declined##": 5883,
      "bly##": 5884,
      "dst##": 5885,
      "oke##": 5886,
      "diego##": 5887,
      "sisted##": 5888,
      "haz": 5889,
      "tube##": 5890,
      "sansk": 5891,
      "views##": 5892,
      "figures##": 5893,
      "probably##": 5894,
      "subsequent##": 5895,
      "instruments##": 5896,
      "czech##": 5897,
      "sign##": 5898,
      "elizabeth##": 5899,
      "11": 5900,
      "far": 5901,
      "alas": 5902,
      "dedic": 5903,
      "ida##": 5904,
      "risk##": 5905,
      "establish##": 5906,
      "aths##": 5907,
      "senate##": 5908,
      "passeng": 5909,
      "persons##": 5910,
      "drive##": 5911,
      "carnival##": 5912,
      "bitumen##": 5913,
      ",[##": 5914,
      "dated##": 5915,
      "ri##": 5916,
      "alone##": 5917,
      "sim": 5918,
      "exchange##": 5919,
      "managed##": 5920,
      "baske": 5921,
      "literary##": 5922,
      "viewed##": 5923,
      "reasons##": 5924,
      "distinct##": 5925,
      "fighting##": 5926,
      "prussia##": 5927,
      "surrounding##": 5928,
      "stalin##": 5929,
      "120##": 5930,
      "93##": 5931,
      "bbc##": 5932,
      "eu##": 5933,
      "eful##": 5934,
      "sir##": 5935,
      "abad##": 5936,
      "coming##": 5937,
      "formerly##": 5938,
      "flor": 5939,
      "decor": 5940,
      "match##": 5941,
      "technical##": 5942,
      "purpose##": 5943,
      "allows##": 5944,
      "identity##": 5945,
      "classes##": 5946,
      "everton##": 5947,
      "championship##": 5948,
      "tubercul": 5949,
      "ather##": 5950,
      "lun": 5951,
      "twice##": 5952,
      "corrup": 5953,
      "unique##": 5954,
      "minu": 5955,
      "helena##": 5956,
      "1985##": 5957,
      "1978##": 5958,
      "bill##": 5959,
      "positive##": 5960,
      "connected##": 5961,
      "12th##": 5962,
      "believe##": 5963,
      "methods##": 5964,
      "billboard##": 5965,
      "sanskrit##": 5966,
      "basketball##": 5967,
      "pus": 5968,
      "ane##": 5969,
      "1980##": 5970,
      "effects##": 5971,
      "importance##": 5972,
      "protestant##": 5973,
      "northwestern##": 5974,
      "regarded##": 5975,
      "wanted##": 5976,
      "fru": 5977,
      "thes": 5978,
      "reform##": 5979,
      "sust": 5980,
      "seas##": 5981,
      "anglo##": 5982,
      "trop": 5983,
      "depic": 5984,
      "azi##": 5985,
      "pping##": 5986,
      "naval##": 5987,
      "existing##": 5988,
      "attacked##": 5989,
      "acquired##": 5990,
      "galic": 5991,
      "drug##": 5992,
      "cer##": 5993,
      "ez##": 5994,
      "les": 5995,
      "pool##": 5996,
      "reduc": 5997,
      "refu": 5998,
      "article##": 5999,
      "one": 6000,
      "ato##": 6001,
      "teenth##": 6002,
      "web": 6003,
      "cultures##": 6004,
      "toward##": 6005,
      "nationally##": 6006,
      "licen": 6007,
      "strength##": 6008,
      "joint##": 6009,
      "weapons##": 6010,
      "pom": 6011,
      "sl": 6012,
      "tia##": 6013,
      "lives##": 6014,
      "precip": 6015,
      "2016##": 6016,
      "producer##": 6017,
      "broke##": 6018,
      "athle": 6019,
      "cerem": 6020,
      "dram": 6021,
      "mort": 6022,
      "idea##": 6023,
      "christ##": 6024,
      "anthropolog": 6025,
      "umay": 6026,
      "developing##": 6027,
      "1983##": 6028,
      "direction##": 6029,
      "approved##": 6030,
      "1930s##": 6031,
      "princi": 6032,
      "historians##": 6033,
      "effort##": 6034,
      "dropped##": 6035,
      "alliance##": 6036,
      "definition##": 6037,
      "dan##": 6038,
      "fbi##": 6039,
      "gain##": 6040,
      "tely##": 6041,
      "ance": 6042,
      "renew": 6043,
      "opposition##": 6044,
      "dead##": 6045,
      "ulty##": 6046,
      "expensive##": 6047,
      "defense##": 6048,
      "refer##": 6049,
      "experienced##": 6050,
      "tourism##": 6051,
      "conducted##": 6052,
      "girls##": 6053,
      "bou": 6054,
      "bun": 6055,
      "cra": 6056,
      "fer##": 6057,
      "arrang": 6058,
      "enjo": 6059,
      "deter": 6060,
      "poetry##": 6061,
      "1987##": 6062,
      "edul": 6063,
      "offices##": 6064,
      "archy##": 6065,
      "sciences##": 6066,
      "punj": 6067,
      "cend": 6068,
      "gate##": 6069,
      "mes": 6070,
      "mine##": 6071,
      "oz": 6072,
      "sn": 6073,
      "wise##": 6074,
      "revi": 6075,
      "encing##": 6076,
      "orche": 6077,
      "accompan": 6078,
      "twel": 6079,
      "blood##": 6080,
      "tom##": 6081,
      "flow": 6082,
      "gency##": 6083,
      "tried##": 6084,
      "princess##": 6085,
      "dominated##": 6086,
      "brain##": 6087,
      "samo": 6088,
      "distribution##": 6089,
      "prevent##": 6090,
      "intellec": 6091,
      "orchestr": 6092,
      "bic": 6093,
      "tons##": 6094,
      "whites##": 6095,
      "ili": 6096,
      "seat##": 6097,
      "discovery##": 6098,
      "creating##": 6099,
      "schedul": 6100,
      "lodge##": 6101,
      "gust": 6102,
      "fail": 6103,
      "hou##": 6104,
      "males##": 6105,
      "liberal##": 6106,
      "transport##": 6107,
      "transportation##": 6108,
      "eter##": 6109,
      "kill": 6110,
      "sas##": 6111,
      "replac": 6112,
      "explo": 6113,
      "prepar": 6114,
      "subur": 6115,
      "warsaw##": 6116,
      "hotel##": 6117,
      "regim": 6118,
      "autom": 6119,
      "neighbour": 6120,
      "agriculture##": 6121,
      "dollar##": 6122,
      "negative##": 6123,
      "94##": 6124,
      "ner": 6125,
      "acted##": 6126,
      "ases##": 6127,
      "lights##": 6128,
      "qual": 6129,
      "hip##": 6130,
      "essed##": 6131,
      "build##": 6132,
      "values##": 6133,
      "successfully##": 6134,
      "index##": 6135,
      "mentioned##": 6136,
      "3rd##": 6137,
      "ny##": 6138,
      "tom": 6139,
      "wave##": 6140,
      "inking##": 6141,
      "istics##": 6142,
      "sex##": 6143,
      "nego": 6144,
      "thedr": 6145,
      "loy": 6146,
      "cathedr": 6147,
      "1968##": 6148,
      "reveal": 6149,
      "drew##": 6150,
      "leadership##": 6151,
      "sport##": 6152,
      "austria##": 6153,
      "write##": 6154,
      "whereas##": 6155,
      "organizations##": 6156,
      "satellite##": 6157,
      "negoti": 6158,
      "gb##": 6159,
      "gall": 6160,
      "vs##": 6161,
      "tives##": 6162,
      "onia##": 6163,
      "stop##": 6164,
      "nept": 6165,
      "contest": 6166,
      "deman": 6167,
      "1948##": 6168,
      "traditions##": 6169,
      "heavily##": 6170,
      "telephone##": 6171,
      "bapti": 6172,
      "bond##": 6173,
      "bound": 6174,
      "gar##": 6175,
      "split##": 6176,
      "ques##": 6177,
      "meet##": 6178,
      "lake##": 6179,
      "lasted##": 6180,
      "phen": 6181,
      "ogue##": 6182,
      "grade##": 6183,
      "weight##": 6184,
      "shif": 6185,
      "edward##": 6186,
      "closely##": 6187,
      "score##": 6188,
      "revolutionary##": 6189,
      "tuberculosis##": 6190,
      "250##": 6191,
      "pass##": 6192,
      "tage##": 6193,
      "yellow##": 6194,
      "aria##": 6195,
      "legi": 6196,
      "proper##": 6197,
      "idly##": 6198,
      "attended##": 6199,
      "providing##": 6200,
      "bands##": 6201,
      "eph##": 6202,
      "collabor": 6203,
      "friends##": 6204,
      "teaching##": 6205,
      "transition##": 6206,
      "joseph##": 6207,
      "appearance##": 6208,
      "cau": 6209,
      "je": 6210,
      "onto##": 6211,
      "ign": 6212,
      "factors##": 6213,
      "1984##": 6214,
      "1981##": 6215,
      "wind##": 6216,
      "output##": 6217,
      "completely##": 6218,
      "storage##": 6219,
      "attempts##": 6220,
      "daughter##": 6221,
      "hospital##": 6222,
      "dv": 6223,
      "jam": 6224,
      "inaug": 6225,
      "alco": 6226,
      "spent##": 6227,
      "vic##": 6228,
      "commis": 6229,
      "commission##": 6230,
      "tox": 6231,
      "relative##": 6232,
      "etres##": 6233,
      "politics##": 6234,
      "russians##": 6235,
      "conquered##": 6236,
      "northwest##": 6237,
      "learning##": 6238,
      "situation##": 6239,
      "tuvalu##": 6240,
      "bab": 6241,
      "rer##": 6242,
      "enligh": 6243,
      "gender##": 6244,
      "techni": 6245,
      "friend": 6246,
      "circu": 6247,
      "conquest##": 6248,
      "bishop##": 6249,
      "substanti": 6250,
      "enlighten": 6251,
      "6th##": 6252,
      "cav": 6253,
      "mess": 6254,
      "pel": 6255,
      "vision##": 6256,
      "walls##": 6257,
      "thor": 6258,
      "ults##": 6259,
      "izing##": 6260,
      "apparen": 6261,
      "brew##": 6262,
      "samur": 6263,
      "occurs##": 6264,
      "double##": 6265,
      "applications##": 6266,
      "freedom##": 6267,
      "throne##": 6268,
      "dang": 6269,
      "lingu": 6270,
      "zhe": 6271,
      "res": 6272,
      "enco": 6273,
      "conc": 6274,
      "ople##": 6275,
      "sevent": 6276,
      "syria##": 6277,
      "carbon##": 6278,
      "1971##": 6279,
      "newly##": 6280,
      "epis": 6281,
      "icians##": 6282,
      "runs##": 6283,
      "facilities##": 6284,
      "1000##": 6285,
      "fal": 6286,
      "enough##": 6287,
      "chri": 6288,
      "deta": 6289,
      "1900##": 6290,
      "1918##": 6291,
      "shoo": 6292,
      "inging##": 6293,
      "essor##": 6294,
      "germans##": 6295,
      "succeeded##": 6296,
      "approach##": 6297,
      "presidential##": 6298,
      "rapidly##": 6299,
      "1939##": 6300,
      "represent##": 6301,
      "metres##": 6302,
      "script##": 6303,
      "impact##": 6304,
      "dedicated##": 6305,
      "revealed##": 6306,
      "samurai##": 6307,
      "tations##": 6308,
      "zi": 6309,
      "ured##": 6310,
      "witn": 6311,
      "pup": 6312,
      "invented##": 6313,
      "invaded##": 6314,
      "operate##": 6315,
      "texts##": 6316,
      "contributed##": 6317,
      "farm": 6318,
      "hill": 6319,
      "jec": 6320,
      "och": 6321,
      "pm##": 6322,
      "online##": 6323,
      "eled##": 6324,
      "lions##": 6325,
      "makes##": 6326,
      "cia##": 6327,
      "udes##": 6328,
      "model": 6329,
      "aya##": 6330,
      "renamed##": 6331,
      "armies##": 6332,
      "caes": 6333,
      "1977##": 6334,
      "drop##": 6335,
      "employe": 6336,
      "judges##": 6337,
      "kansas##": 6338,
      "cardinal##": 6339,
      "supporters##": 6340,
      "hellenistic##": 6341,
      "],##": 6342,
      "dred##": 6343,
      "hong##": 6344,
      "lis": 6345,
      "ran##": 6346,
      "reforms##": 6347,
      "itors##": 6348,
      "alties##": 6349,
      "aci": 6350,
      "predic": 6351,
      "raj": 6352,
      "core##": 6353,
      "goals##": 6354,
      "prise##": 6355,
      "kept##": 6356,
      "withdra": 6357,
      "bition##": 6358,
      "achiev": 6359,
      "classified##": 6360,
      "manchester##": 6361,
      "kilometres##": 6362,
      "mercury##": 6363,
      "bureau##": 6364,
      "umayy": 6365,
      "zhejiang##": 6366,
      "cin": 6367,
      "nit": 6368,
      "van##": 6369,
      "confir": 6370,
      "seats##": 6371,
      "phere##": 6372,
      "ranking##": 6373,
      "argued##": 6374,
      "ishes##": 6375,
      "electro": 6376,
      "follow##": 6377,
      "maintain##": 6378,
      "fair##": 6379,
      "1966##": 6380,
      "1969##": 6381,
      "writers##": 6382,
      "similarly##": 6383,
      "literacy##": 6384,
      "claims##": 6385,
      "yuan##": 6386,
      "transmit": 6387,
      "newspaper##": 6388,
      "parents##": 6389,
      "angeles##": 6390,
      "neptune##": 6391,
      "aim": 6392,
      "aks##": 6393,
      "cant": 6394,
      "ro##": 6395,
      "sor##": 6396,
      "resolution##": 6397,
      "bei": 6398,
      "leave##": 6399,
      "colors##": 6400,
      "critic": 6401,
      "keep##": 6402,
      "1962##": 6403,
      "1956##": 6404,
      "director##": 6405,
      "novel##": 6406,
      "equip": 6407,
      "programm": 6408,
      "campaig": 6409,
      "equivalent##": 6410,
      "felt##": 6411,
      "psych": 6412,
      "commonwealth##": 6413,
      "less": 6414,
      "tus##": 6415,
      "wer##": 6416,
      "reports##": 6417,
      "ror##": 6418,
      "atol": 6419,
      "consul": 6420,
      "usa##": 6421,
      "producing##": 6422,
      "1964##": 6423,
      "founding##": 6424,
      "streets##": 6425,
      "speak##": 6426,
      "balk": 6427,
      "affected##": 6428,
      "accounts##": 6429,
      "fox##": 6430,
      "ratio##": 6431,
      "antarctica##": 6432,
      "ax": 6433,
      "ege##": 6434,
      "ff##": 6435,
      "hed##": 6436,
      "sand": 6437,
      "zhou##": 6438,
      "inside##": 6439,
      "ero": 6440,
      "cham": 6441,
      "deep##": 6442,
      "expe": 6443,
      "prize##": 6444,
      "antin": 6445,
      "historically##": 6446,
      "doctr": 6447,
      "electronic##": 6448,
      "branch##": 6449,
      "machine##": 6450,
      "adolescents##": 6451,
      "equipment##": 6452,
      "af##": 6453,
      "za##": 6454,
      "diam": 6455,
      "enter##": 6456,
      "iranian##": 6457,
      "user##": 6458,
      "proved##": 6459,
      "comics##": 6460,
      "tery##": 6461,
      "prehen": 6462,
      "serious##": 6463,
      "descend": 6464,
      "entially##": 6465,
      "charter##": 6466,
      "1967##": 6467,
      "observ": 6468,
      "limit##": 6469,
      "continues##": 6470,
      "ceived##": 6471,
      "additionally##": 6472,
      "labor": 6473,
      "grand": 6474,
      "circul": 6475,
      "ville##": 6476,
      "member": 6477,
      "neutr": 6478,
      "fashi": 6479,
      "alaska##": 6480,
      "hes##": 6481,
      "thic##": 6482,
      "reserve##": 6483,
      "stered##": 6484,
      "ald##": 6485,
      "ric##": 6486,
      "ray##": 6487,
      "capture##": 6488,
      "1973##": 6489,
      "1944##": 6490,
      "frag": 6491,
      "hyder": 6492,
      "budget##": 6493,
      "lightly##": 6494,
      "conservative##": 6495,
      "sichuan##": 6496,
      "haps##": 6497,
      "grounds##": 6498,
      "ius##": 6499,
      "selec": 6500,
      "vow": 6501,
      "wast": 6502,
      "erit": 6503,
      "retained##": 6504,
      "rejected##": 6505,
      "lif": 6506,
      "contained##": 6507,
      "hael##": 6508,
      "exer": 6509,
      "forbes##": 6510,
      "perhaps##": 6511,
      "berlin##": 6512,
      "georg": 6513,
      "1982##": 6514,
      "demand##": 6515,
      "originated##": 6516,
      "ysis##": 6517,
      "audience##": 6518,
      "360##": 6519,
      "40": 6520,
      "kel": 6521,
      "nas": 6522,
      "nam##": 6523,
      "rale": 6524,
      "anism##": 6525,
      "train##": 6526,
      "mod": 6527,
      "moving##": 6528,
      "entirely##": 6529,
      "solo##": 6530,
      "begun##": 6531,
      "wild": 6532,
      "mp3##": 6533,
      "representatives##": 6534,
      "markets##": 6535,
      "numbered##": 6536,
      "youtube##": 6537,
      "raleigh##": 6538,
      "aen": 6539,
      "goods##": 6540,
      "tb##": 6541,
      "til": 6542,
      "projects##": 6543,
      "attend": 6544,
      "charle": 6545,
      "hundred##": 6546,
      "reading##": 6547,
      "longest##": 6548,
      "frequency##": 6549,
      "simple##": 6550,
      "threat": 6551,
      "nutri": 6552,
      "survey##": 6553,
      "taiwan##": 6554,
      "determined##": 6555,
      "coastal##": 6556,
      "innov": 6557,
      "repor": 6558,
      "itable##": 6559,
      "ata##": 6560,
      "sets##": 6561,
      "bring##": 6562,
      "severe##": 6563,
      "matches##": 6564,
      "kill##": 6565,
      "slavic##": 6566,
      "stances##": 6567,
      "extrem": 6568,
      "metro##": 6569,
      "gary##": 6570,
      "aling##": 6571,
      "afl##": 6572,
      "guine": 6573,
      "controll": 6574,
      "sister##": 6575,
      "females##": 6576,
      "castle##": 6577,
      "installed##": 6578,
      "olympics##": 6579,
      "analy": 6580,
      "career##": 6581,
      "cathedral##": 6582,
      "900##": 6583,
      "aa##": 6584,
      "ap##": 6585,
      "ball": 6586,
      "cable##": 6587,
      "merged##": 6588,
      "resp": 6589,
      "emer": 6590,
      "habe": 6591,
      "subsi": 6592,
      "chart##": 6593,
      "1958##": 6594,
      "overseas##": 6595,
      "banks##": 6596,
      "calend": 6597,
      "13th##": 6598,
      "estimates##": 6599,
      "describe##": 6600,
      "electricity##": 6601,
      "movements##": 6602,
      "insect##": 6603,
      "suggested##": 6604,
      "constantin": 6605,
      "cardinals##": 6606,
      "considerable##": 6607,
      "abandoned##": 6608,
      "iraq##": 6609,
      "charleston##": 6610,
      "eous##": 6611,
      "rated##": 6612,
      "xbox##": 6613,
      "ze": 6614,
      "rif": 6615,
      "opol": 6616,
      "usage##": 6617,
      "1914##": 6618,
      "ulation##": 6619,
      "troph": 6620,
      "faced##": 6621,
      "brothers##": 6622,
      "1972##": 6623,
      "consider##": 6624,
      "1961##": 6625,
      "depending##": 6626,
      "mix": 6627,
      "juli": 6628,
      "hundre": 6629,
      "educational##": 6630,
      "homes##": 6631,
      "destin": 6632,
      "instance##": 6633,
      "architectural##": 6634,
      "intended##": 6635,
      "atically##": 6636,
      "threat##": 6637,
      "alternative##": 6638,
      "advantage##": 6639,
      "biggest##": 6640,
      "punjab##": 6641,
      "enlightenment##": 6642,
      "dry##": 6643,
      "tren": 6644,
      "yes##": 6645,
      "insp": 6646,
      "diverse##": 6647,
      "list": 6648,
      "beau": 6649,
      "ternal##": 6650,
      "ram##": 6651,
      "offers##": 6652,
      "observed##": 6653,
      "voted##": 6654,
      "1936##": 6655,
      "computers##": 6656,
      "improved##": 6657,
      "environmental##": 6658,
      "charge##": 6659,
      "immediately##": 6660,
      "movie##": 6661,
      "antenna##": 6662,
      "pakistan##": 6663,
      "(/##": 6664,
      "aer": 6665,
      "cus##": 6666,
      "eing##": 6667,
      "ji##": 6668,
      "oes##": 6669,
      "slightly##": 6670,
      "rep": 6671,
      "eces##": 6672,
      "unic": 6673,
      "1911##": 6674,
      "ulated##": 6675,
      "fort": 6676,
      "peg##": 6677,
      "phr": 6678,
      "bles##": 6679,
      "populous##": 6680,
      "door##": 6681,
      "shift##": 6682,
      "belong": 6683,
      "borders##": 6684,
      "hosted##": 6685,
      "structures##": 6686,
      "medium##": 6687,
      "1954##": 6688,
      "communication##": 6689,
      "cycl": 6690,
      "planes##": 6691,
      "declar": 6692,
      "classic##": 6693,
      "tournam": 6694,
      "analysis##": 6695,
      "environment##": 6696,
      "agricultural##": 6697,
      "maximum##": 6698,
      "restaurants##": 6699,
      "hyderabad##": 6700,
      "eritre": 6701,
      "bann": 6702,
      "sen##": 6703,
      "ught##": 6704,
      "yan##": 6705,
      "things##": 6706,
      "retail##": 6707,
      "adver": 6708,
      "parks##": 6709,
      "laid##": 6710,
      "label##": 6711,
      "sides##": 6712,
      "grow##": 6713,
      "1963##": 6714,
      "holding##": 6715,
      "responsi": 6716,
      "existed##": 6717,
      "hindu##": 6718,
      "bacteria##": 6719,
      "minutes##": 6720,
      "hundreds##": 6721,
      "gul": 6722,
      "lac": 6723,
      "rare##": 6724,
      "recomm": 6725,
      "stable##": 6726,
      "isol": 6727,
      "conv": 6728,
      "consumption##": 6729,
      "lets##": 6730,
      "proce": 6731,
      "propos": 6732,
      "exce": 6733,
      "correc": 6734,
      "northeast##": 6735,
      "amps##": 6736,
      "consist": 6737,
      "trees##": 6738,
      "somalia##": 6739,
      "1955##": 6740,
      "merch": 6741,
      "losses##": 6742,
      "translation##": 6743,
      "caesar##": 6744,
      "extremely##": 6745,
      "constantinople##": 6746,
      "bought##": 6747,
      "fare##": 6748,
      "mom": 6749,
      "ni##": 6750,
      "oted##": 6751,
      "pag": 6752,
      "along": 6753,
      "emerg": 6754,
      "consecu": 6755,
      "detec": 6756,
      "shared##": 6757,
      "nobility##": 6758,
      "genetic##": 6759,
      "schem": 6760,
      "stic##": 6761,
      "device##": 6762,
      "refers##": 6763,
      "violence##": 6764,
      "consolid": 6765,
      "championships##": 6766,
      "broadcasting##": 6767,
      "effectively##": 6768,
      "pin": 6769,
      "eleven##": 6770,
      "comprehen": 6771,
      "plus##": 6772,
      "mind##": 6773,
      "finished##": 6774,
      "carry##": 6775,
      "capita##": 6776,
      "understanding##": 6777,
      "multi##": 6778,
      "mount##": 6779,
      "massive##": 6780,
      "newspapers##": 6781,
      "rebellion##": 6782,
      "presbyterian##": 6783,
      "alongside##": 6784,
      "bad": 6785,
      "fight##": 6786,
      "mit##": 6787,
      "telec": 6788,
      "stood##": 6789,
      "setting##": 6790,
      "thetic##": 6791,
      "pover": 6792,
      "wear##": 6793,
      "ells##": 6794,
      "consisting##": 6795,
      "1965##": 6796,
      "1861##": 6797,
      "dark##": 6798,
      "legislature##": 6799,
      "journ": 6800,
      "floor##": 6801,
      "ancestry##": 6802,
      "beijing##": 6803,
      "expedi": 6804,
      "fish##": 6805,
      "tar": 6806,
      "emas": 6807,
      "spoke##": 6808,
      "marks##": 6809,
      "hebrew##": 6810,
      "hua": 6811,
      "efficient##": 6812,
      "religions##": 6813,
      "singles##": 6814,
      "funding##": 6815,
      "ota##": 6816,
      "circum": 6817,
      "nickn": 6818,
      "estonian##": 6819,
      "extinc": 6820,
      "chihua": 6821,
      "francis": 6822,
      "07##": 6823,
      "ety##": 6824,
      "nom": 6825,
      "arby##": 6826,
      "aggre": 6827,
      "nearby##": 6828,
      "igan##": 6829,
      "centers##": 6830,
      "objects##": 6831,
      "etc##": 6832,
      "brew": 6833,
      "break": 6834,
      "divisions##": 6835,
      "recognition##": 6836,
      "buddha##": 6837,
      "regarding##": 6838,
      "periods##": 6839,
      "visible##": 6840,
      "specifically##": 6841,
      "precipitation##": 6842,
      "declaration##": 6843,
      "consecutive##": 6844,
      "bern##": 6845,
      "dam##": 6846,
      "jay##": 6847,
      "ko": 6848,
      "luc": 6849,
      "erb": 6850,
      "isation##": 6851,
      "chain##": 6852,
      "aders##": 6853,
      "motor##": 6854,
      "ange##": 6855,
      "prices##": 6856,
      "compati": 6857,
      "ptol": 6858,
      "hands##": 6859,
      "residential##": 6860,
      "contract##": 6861,
      "promoted##": 6862,
      "extent##": 6863,
      "juris": 6864,
      "columbia##": 6865,
      "vehicles##": 6866,
      "bowl##": 6867,
      "inspired##": 6868,
      "nor##": 6869,
      "other": 6870,
      "slo": 6871,
      "zh": 6872,
      "oral##": 6873,
      "orders##": 6874,
      "rivers##": 6875,
      "advis": 6876,
      "enting##": 6877,
      "ope##": 6878,
      "susp": 6879,
      "1922##": 6880,
      "ounded##": 6881,
      "august": 6882,
      "essential##": 6883,
      "causing##": 6884,
      "seleu": 6885,
      "files##": 6886,
      "signal##": 6887,
      "courses##": 6888,
      "publication##": 6889,
      "median##": 6890,
      "aza##": 6891,
      "miss": 6892,
      "copy": 6893,
      "slave##": 6894,
      "shortly##": 6895,
      "bourg##": 6896,
      "focused##": 6897,
      "simply##": 6898,
      "emotions##": 6899,
      "facility##": 6900,
      "village##": 6901,
      "blacks##": 6902,
      "twelve##": 6903,
      "9th##": 6904,
      "hoods##": 6905,
      "roy##": 6906,
      "rooms##": 6907,
      "atom": 6908,
      "dum##": 6909,
      "dish##": 6910,
      "bras": 6911,
      "pione": 6912,
      "limits##": 6913,
      "writer##": 6914,
      "antibio": 6915,
      "revolt##": 6916,
      "divine##": 6917,
      "mandol": 6918,
      "execution##": 6919,
      "ography##": 6920,
      "microsoft##": 6921,
      "possibly##": 6922,
      "employees##": 6923,
      "bar##": 6924,
      "mamm": 6925,
      "mpeg##": 6926,
      "pa": 6927,
      "ure": 6928,
      "veg": 6929,
      "zing##": 6930,
      "alf": 6931,
      "ough": 6932,
      "rival##": 6933,
      "ado##": 6934,
      "exception##": 6935,
      "theast": 6936,
      "rainf": 6937,
      "counties##": 6938,
      "soul##": 6939,
      "poses##": 6940,
      "surren": 6941,
      "1975##": 6942,
      "freemas": 6943,
      "1953##": 6944,
      "appears##": 6945,
      "successor##": 6946,
      "michael##": 6947,
      "semi##": 6948,
      "democracy##": 6949,
      "figure##": 6950,
      "mosaics##": 6951,
      "volume##": 6952,
      "astr": 6953,
      "bin": 6954,
      "ging##": 6955,
      "pati": 6956,
      "vast##": 6957,
      "vacc": 6958,
      "icial##": 6959,
      "acres##": 6960,
      "dian##": 6961,
      "1920s##": 6962,
      "proportion##": 6963,
      "spac": 6964,
      "cipl": 6965,
      "takes##": 6966,
      "phy": 6967,
      "discipl": 6968,
      "assem": 6969,
      "presented##": 6970,
      "weather##": 6971,
      "cubs##": 6972,
      "ologies##": 6973,
      "15th##": 6974,
      "distance##": 6975,
      "labor##": 6976,
      "southwest##": 6977,
      "picture##": 6978,
      "mou": 6979,
      "vals##": 6980,
      "inner##": 6981,
      "ero##": 6982,
      "stock##": 6983,
      "osh##": 6984,
      "deplo": 6985,
      "1919##": 6986,
      "perf": 6987,
      "shell##": 6988,
      "quanti": 6989,
      "contex": 6990,
      "sections##": 6991,
      "monte": 6992,
      "wealth": 6993,
      "critics##": 6994,
      "hardw": 6995,
      "represents##": 6996,
      "institution##": 6997,
      "garden##": 6998,
      "concert##": 6999,
      "concerns##": 7000,
      "profit##": 7001,
      "evolved##": 7002,
      "tropical##": 7003,
      "fashion##": 7004,
      "theastern##": 7005,
      "gath": 7006,
      "hd": 7007,
      "iv##": 7008,
      "na": 7009,
      "page##": 7010,
      "sav": 7011,
      "snow##": 7012,
      "containing##": 7013,
      "composition##": 7014,
      "clock##": 7015,
      "vienna##": 7016,
      "improv": 7017,
      "establishing##": 7018,
      "courts##": 7019,
      "awa##": 7020,
      "reference##": 7021,
      "wales##": 7022,
      "competitions##": 7023,
      "relationships##": 7024,
      "properties##": 7025,
      "festivals##": 7026,
      "purchased##": 7027,
      "autonomous##": 7028,
      "investment##": 7029,
      "guinea##": 7030,
      "80": 7031,
      "cell##": 7032,
      "ez": 7033,
      "lad": 7034,
      "sance##": 7035,
      "wu##": 7036,
      "reaching##": 7037,
      "usal": 7038,
      "apart##": 7039,
      "proph": 7040,
      "compression##": 7041,
      "predat": 7042,
      "earned##": 7043,
      "cuis": 7044,
      "belief##": 7045,
      "officer##": 7046,
      "pieces##": 7047,
      "1959##": 7048,
      "sky": 7049,
      "grown##": 7050,
      "10th##": 7051,
      "pack": 7052,
      "champions##": 7053,
      "characteristics##": 7054,
      "virgin##": 7055,
      "avoid##": 7056,
      "flag##": 7057,
      "edition##": 7058,
      "aissance##": 7059,
      "credited##": 7060,
      "contestants##": 7061,
      "chihuahua##": 7062,
      "selected##": 7063,
      "tas": 7064,
      "yl##": 7065,
      "anc": 7066,
      "encoun": 7067,
      "chair": 7068,
      "deaths##": 7069,
      "interven": 7070,
      "versity##": 7071,
      "brown##": 7072,
      "typical##": 7073,
      "penn": 7074,
      "protect##": 7075,
      "lighting##": 7076,
      "celebrated##": 7077,
      "manager##": 7078,
      "strategy##": 7079,
      "vietnam##": 7080,
      "intellectual##": 7081,
      "ix##": 7082,
      "jan##": 7083,
      "kong##": 7084,
      "og##": 7085,
      "sons##": 7086,
      "tt##": 7087,
      "vit": 7088,
      "tified##": 7089,
      "reduction##": 7090,
      "oring##": 7091,
      "legen": 7092,
      "buc": 7093,
      "mob": 7094,
      "taught##": 7095,
      "gil##": 7096,
      "bringing##": 7097,
      "torate##": 7098,
      "variation##": 7099,
      "1938##": 7100,
      "transfer##": 7101,
      "juda": 7102,
      "volun": 7103,
      "bombers##": 7104,
      "protests##": 7105,
      "favor##": 7106,
      "occupation##": 7107,
      "annexed##": 7108,
      "corruption##": 7109,
      "fortune##": 7110,
      "diversity##": 7111,
      "mah": 7112,
      "peter##": 7113,
      "2000s##": 7114,
      "ranks##": 7115,
      "eping##": 7116,
      "protected##": 7117,
      "policies##": 7118,
      "violent##": 7119,
      "cells##": 7120,
      "safety##": 7121,
      "scheduled##": 7122,
      "rainfall##": 7123,
      "montevideo##": 7124,
      "warm": 7125,
      "insur": 7126,
      "ari##": 7127,
      "oning##": 7128,
      "actual##": 7129,
      "emic##": 7130,
      "concep": 7131,
      "guard##": 7132,
      "brook": 7133,
      "opera##": 7134,
      "1941##": 7135,
      "1952##": 7136,
      "votes##": 7137,
      "industries##": 7138,
      "indicate##": 7139,
      "legislation##": 7140,
      "touch##": 7141,
      "abolished##": 7142,
      "poverty##": 7143,
      "dé": 7144,
      "pir": 7145,
      "tam": 7146,
      "tag": 7147,
      "rein": 7148,
      "among": 7149,
      "liqu": 7150,
      "congo##": 7151,
      "quite##": 7152,
      "predomin": 7153,
      "stras": 7154,
      "pub##": 7155,
      "fewer##": 7156,
      "thousand##": 7157,
      "capable##": 7158,
      "1957##": 7159,
      "communications##": 7160,
      "inion##": 7161,
      "chron": 7162,
      "mechanical##": 7163,
      "molec": 7164,
      "concluded##": 7165,
      "anthropology##": 7166,
      "suburbs##": 7167,
      "amongst##": 7168,
      "\"?##": 7169,
      "rat": 7170,
      "uef": 7171,
      "ises##": 7172,
      "simul": 7173,
      "ussr##": 7174,
      "dering##": 7175,
      "assass": 7176,
      "culmin": 7177,
      "senior##": 7178,
      "mission": 7179,
      "copies##": 7180,
      "rulers##": 7181,
      "referen": 7182,
      "macint": 7183,
      "documents##": 7184,
      "mich": 7185,
      "measures##": 7186,
      "distinction##": 7187,
      "demonstrated##": 7188,
      "category##": 7189,
      "components##": 7190,
      "challenge##": 7191,
      "encouraged##": 7192,
      "florida##": 7193,
      "accompanied##": 7194,
      "baptist##": 7195,
      "cos": 7196,
      "file##": 7197,
      "pay": 7198,
      "saying##": 7199,
      "tem": 7200,
      "ani##": 7201,
      "inher": 7202,
      "err": 7203,
      "ene##": 7204,
      "contrac": 7205,
      "debut##": 7206,
      "expos": 7207,
      "shot##": 7208,
      "notes##": 7209,
      "pubs##": 7210,
      "genes##": 7211,
      "americas##": 7212,
      "solved##": 7213,
      "generated##": 7214,
      "hol##": 7215,
      "expand##": 7216,
      "arena##": 7217,
      "bronze##": 7218,
      "secret##": 7219,
      "featuring##": 7220,
      "commander##": 7221,
      "justice##": 7222,
      "white": 7223,
      "%).##": 7224,
      "bury##": 7225,
      "card##": 7226,
      "ens": 7227,
      "siege##": 7228,
      "liv": 7229,
      "beat": 7230,
      "1917##": 7231,
      "apost": 7232,
      "expressed##": 7233,
      "forward##": 7234,
      "ocks##": 7235,
      "coal": 7236,
      "contact##": 7237,
      "secular##": 7238,
      "crete##": 7239,
      "monarchy##": 7240,
      "hosts##": 7241,
      "treati": 7242,
      "standar": 7243,
      "memory##": 7244,
      "black": 7245,
      "minimum##": 7246,
      "membership##": 7247,
      "judaism##": 7248,
      "uefa##": 7249,
      "michigan##": 7250,
      "matt": 7251,
      "pav": 7252,
      "your##": 7253,
      "inity##": 7254,
      "ern": 7255,
      "rey##": 7256,
      "aris##": 7257,
      "enemy##": 7258,
      "why##": 7259,
      "oppon": 7260,
      "ira##": 7261,
      "1910##": 7262,
      "1913##": 7263,
      "promp": 7264,
      "spar": 7265,
      "clin": 7266,
      "shop": 7267,
      "ciation##": 7268,
      "rarely##": 7269,
      "norm": 7270,
      "lodges##": 7271,
      "treated##": 7272,
      "somal": 7273,
      "europeans##": 7274,
      "foot##": 7275,
      "forest##": 7276,
      "ruler##": 7277,
      "philipp": 7278,
      "function##": 7279,
      "collapse##": 7280,
      "diplomatic##": 7281,
      "candidates##": 7282,
      "alcohol##": 7283,
      "strasbourg##": 7284,
      "fans##": 7285,
      "gil": 7286,
      "ron##": 7287,
      "zen##": 7288,
      "eland##": 7289,
      "accur": 7290,
      "iro##": 7291,
      "exclud": 7292,
      "shire##": 7293,
      "immigration##": 7294,
      "discrimin": 7295,
      "mont##": 7296,
      "subjects##": 7297,
      "relief##": 7298,
      "object##": 7299,
      "palest": 7300,
      "businesses##": 7301,
      "bombing##": 7302,
      "concerned##": 7303,
      "kanye##": 7304,
      "discs##": 7305,
      "spirit##": 7306,
      "junc": 7307,
      "campaigns##": 7308,
      "comprehensive##": 7309,
      "bag": 7310,
      "fying##": 7311,
      "hit": 7312,
      "lying##": 7313,
      "aled##": 7314,
      "rian##": 7315,
      "rists##": 7316,
      "quan": 7317,
      "cub": 7318,
      "factor##": 7319,
      "warm##": 7320,
      "1946##": 7321,
      "appropri": 7322,
      "drugs##": 7323,
      "functions##": 7324,
      "improve##": 7325,
      "spirit": 7326,
      "thur##": 7327,
      "grammy##": 7328,
      "ps3##": 7329,
      "opportunity##": 7330,
      "11th##": 7331,
      "exerc": 7332,
      "calendar##": 7333,
      "ancest": 7334,
      "cbs##": 7335,
      "fl##": 7336,
      "sle": 7337,
      "tte##": 7338,
      "zes##": 7339,
      "thy##": 7340,
      "reti": 7341,
      "ille##": 7342,
      "leds##": 7343,
      "god": 7344,
      "attend##": 7345,
      "interests##": 7346,
      "tories##": 7347,
      "rising##": 7348,
      "operates##": 7349,
      "ranging##": 7350,
      "initiated##": 7351,
      "achieve##": 7352,
      "water": 7353,
      "application##": 7354,
      "categories##": 7355,
      "pattern##": 7356,
      "eighth##": 7357,
      "reducing##": 7358,
      "referendum##": 7359,
      "cit": 7360,
      "gations##": 7361,
      "past": 7362,
      "ón##": 7363,
      "restored##": 7364,
      "asser": 7365,
      "iring##": 7366,
      "costs##": 7367,
      "firm": 7368,
      "marath": 7369,
      "bling##": 7370,
      "monica##": 7371,
      "weak": 7372,
      "origins##": 7373,
      "sens": 7374,
      "ification##": 7375,
      "patri": 7376,
      "battles##": 7377,
      "printed##": 7378,
      "practical##": 7379,
      "strategic##": 7380,
      "jerusal": 7381,
      "pronoun": 7382,
      "tournament##": 7383,
      "jerusalem##": 7384,
      "01##": 7385,
      "dal": 7386,
      "eur": 7387,
      "arre": 7388,
      "arthur##": 7389,
      "enues##": 7390,
      "roots##": 7391,
      "icate##": 7392,
      "destruction##": 7393,
      "1912##": 7394,
      "ula##": 7395,
      "never": 7396,
      "needs##": 7397,
      "shar": 7398,
      "raine##": 7399,
      "genome##": 7400,
      "steel##": 7401,
      "spectre##": 7402,
      "wii##": 7403,
      "capit": 7404,
      "tism##": 7405,
      "cult##": 7406,
      "changing##": 7407,
      "etary##": 7408,
      "1931##": 7409,
      "sistant##": 7410,
      "14th##": 7411,
      "design": 7412,
      "recognised##": 7413,
      "settlers##": 7414,
      "honor##": 7415,
      "coup##": 7416,
      "tourists##": 7417,
      "decreased##": 7418,
      "pompe": 7419,
      "models##": 7420,
      "mobile##": 7421,
      "bits##": 7422,
      "cars##": 7423,
      "ku##": 7424,
      "li##": 7425,
      "ny": 7426,
      "rh": 7427,
      "slow": 7428,
      "ym##": 7429,
      "asked##": 7430,
      "iling##": 7431,
      "ament##": 7432,
      "lia##": 7433,
      "cool": 7434,
      "trial##": 7435,
      "canal##": 7436,
      "1942##": 7437,
      "calcul": 7438,
      "ashken": 7439,
      "require##": 7440,
      "infra": 7441,
      "cathol": 7442,
      "lyn##": 7443,
      "amounts##": 7444,
      "legislative##": 7445,
      "scene##": 7446,
      "statistics##": 7447,
      "hurric": 7448,
      "wood": 7449,
      "cinem": 7450,
      "jurisdic": 7451,
      "macintosh##": 7452,
      "04##": 7453,
      "fly##": 7454,
      "gated##": 7455,
      "io##": 7456,
      "rhy": 7457,
      "rid##": 7458,
      "apar": 7459,
      "ignor": 7460,
      "cler": 7461,
      "engaged##": 7462,
      "offering##": 7463,
      "tend##": 7464,
      "cultiv": 7465,
      "mainland##": 7466,
      "suppl": 7467,
      "edy##": 7468,
      "bible##": 7469,
      "sponsor": 7470,
      "residence##": 7471,
      "docum": 7472,
      "sunday##": 7473,
      "memorial##": 7474,
      "alexand": 7475,
      "polytechn": 7476,
      "question##": 7477,
      "exhibition##": 7478,
      "immediate##": 7479,
      "component##": 7480,
      "gm##": 7481,
      "gone##": 7482,
      "know##": 7483,
      "oon##": 7484,
      "inth##": 7485,
      "inet##": 7486,
      "tier##": 7487,
      "ard": 7488,
      "arian##": 7489,
      "items##": 7490,
      "eling##": 7491,
      "acre##": 7492,
      "oli": 7493,
      "ura##": 7494,
      "dia##": 7495,
      "seems##": 7496,
      "gothic##": 7497,
      "hear": 7498,
      "anni": 7499,
      "franch": 7500,
      "borough": 7501,
      "aired##": 7502,
      "leagues##": 7503,
      "approval##": 7504,
      "medal##": 7505,
      "videos##": 7506,
      "combat##": 7507,
      "damaged##": 7508,
      "organisation##": 7509,
      "integrated##": 7510,
      "consumer##": 7511,
      "galicia##": 7512,
      "phenom": 7513,
      "inaugur": 7514,
      "astronom": 7515,
      "boroughs##": 7516,
      "aqu": 7517,
      "coc": 7518,
      "dc##": 7519,
      "selection##": 7520,
      "sounds##": 7521,
      "inj": 7522,
      "ries##": 7523,
      "agencies##": 7524,
      "perceived##": 7525,
      "coins##": 7526,
      "pur##": 7527,
      "allen##": 7528,
      "rub": 7529,
      "gun##": 7530,
      "powered##": 7531,
      "filled##": 7532,
      "difference##": 7533,
      "virgil##": 7534,
      "partn": 7535,
      "storm##": 7536,
      "manufacturers##": 7537,
      "pitch##": 7538,
      "characterized##": 7539,
      "emotion##": 7540,
      "choice##": 7541,
      "scottish##": 7542,
      "bishops##": 7543,
      "guns##": 7544,
      "failure##": 7545,
      "descendants##": 7546,
      "brooklyn##": 7547,
      "hang": 7548,
      "tul": 7549,
      "reality##": 7550,
      "atmos": 7551,
      "chie": 7552,
      "1920##": 7553,
      "layer##": 7554,
      "firm##": 7555,
      "martin##": 7556,
      "heg": 7557,
      "height##": 7558,
      "disast": 7559,
      "cartri": 7560,
      "frame##": 7561,
      "hungary##": 7562,
      "purposes##": 7563,
      "studied##": 7564,
      "appoint": 7565,
      "famili": 7566,
      "suggest##": 7567,
      "becomes##": 7568,
      "transit##": 7569,
      "debt##": 7570,
      "debate##": 7571,
      "principal##": 7572,
      "principle##": 7573,
      "progres": 7574,
      "processing##": 7575,
      "francisco##": 7576,
      "coalition##": 7577,
      "lar": 7578,
      "ris##": 7579,
      "tall": 7580,
      "ud##": 7581,
      "waves##": 7582,
      "xx": 7583,
      "theless##": 7584,
      "infl": 7585,
      "resem": 7586,
      "itor##": 7587,
      "else": 7588,
      "lie##": 7589,
      "lithu": 7590,
      "superi": 7591,
      "external##": 7592,
      "clo": 7593,
      "twil": 7594,
      "boy##": 7595,
      "boat##": 7596,
      "oured##": 7597,
      "monast": 7598,
      "tribe##": 7599,
      "shipping##": 7600,
      "belgi": 7601,
      "hok": 7602,
      "expec": 7603,
      "hub##": 7604,
      "mix##": 7605,
      "request##": 7606,
      "electrical##": 7607,
      "hospit": 7608,
      "antarctic##": 7609,
      "target##": 7610,
      "shape##": 7611,
      "besides##": 7612,
      "attributed##": 7613,
      "website##": 7614,
      "principles##": 7615,
      "substantial##": 7616,
      "nevertheless##": 7617,
      "elsewhere##": 7618,
      "',##": 7619,
      "etr": 7620,
      "eton##": 7621,
      "kson##": 7622,
      "nur": 7623,
      "ption##": 7624,
      "va": 7625,
      "als": 7626,
      "depression##": 7627,
      "1930##": 7628,
      "prote": 7629,
      "paralle": 7630,
      "predec": 7631,
      "1830##": 7632,
      "boards##": 7633,
      "fixed##": 7634,
      "mining##": 7635,
      "governing##": 7636,
      "casu": 7637,
      "covers##": 7638,
      "connection##": 7639,
      "punk##": 7640,
      "scientists##": 7641,
      "organisms##": 7642,
      "georgia##": 7643,
      "parallel##": 7644,
      "mw##": 7645,
      "sap": 7646,
      "scri": 7647,
      "vary##": 7648,
      "wav": 7649,
      "acting##": 7650,
      "esia##": 7651,
      "assumed##": 7652,
      "aming##": 7653,
      "peac": 7654,
      "peas": 7655,
      "credi": 7656,
      "guid": 7657,
      "highway##": 7658,
      "varies##": 7659,
      "founder##": 7660,
      "dominic": 7661,
      "grant##": 7662,
      "ministers##": 7663,
      "graduates##": 7664,
      "symb": 7665,
      "sacrif": 7666,
      "patterns##": 7667,
      "confirmed##": 7668,
      "copyright##": 7669,
      "exposure##": 7670,
      "shopping##": 7671,
      "normally##": 7672,
      "twilight##": 7673,
      "casualties##": 7674,
      "fast##": 7675,
      "tings##": 7676,
      "zz": 7677,
      "ara##": 7678,
      "onics##": 7679,
      "oration##": 7680,
      "elite##": 7681,
      "diary##": 7682,
      "ague##": 7683,
      "tract##": 7684,
      "count##": 7685,
      "populated##": 7686,
      "solu": 7687,
      "ference##": 7688,
      "1943##": 7689,
      "archi": 7690,
      "voters##": 7691,
      "further": 7692,
      "bush##": 7693,
      "statement##": 7694,
      "measure##": 7695,
      "arrival##": 7696,
      "transmission##": 7697,
      "prussian##": 7698,
      "concentration##": 7699,
      "alloy##": 7700,
      "wolf##": 7701,
      "behavior##": 7702,
      "seventh##": 7703,
      "'.##": 7704,
      "06##": 7705,
      "05##": 7706,
      "dun": 7707,
      "pig": 7708,
      "trou": 7709,
      "arbor##": 7710,
      "alum": 7711,
      "icon##": 7712,
      "ologi": 7713,
      "confeder": 7714,
      "entry##": 7715,
      "exc": 7716,
      "prey##": 7717,
      "work": 7718,
      "mili": 7719,
      "prised##": 7720,
      "compounds##": 7721,
      "genre##": 7722,
      "web##": 7723,
      "muse": 7724,
      "hop##": 7725,
      "1947##": 7726,
      "voice##": 7727,
      "requires##": 7728,
      "abilities##": 7729,
      "garian##": 7730,
      "balance##": 7731,
      "surviving##": 7732,
      "civilian##": 7733,
      "cypriots##": 7734,
      "advertis": 7735,
      "hardware##": 7736,
      "aic##": 7737,
      "fm##": 7738,
      "hits##": 7739,
      "look##": 7740,
      "uan##": 7741,
      "vice##": 7742,
      "reaction##": 7743,
      "enfor": 7744,
      "outer##": 7745,
      "add##": 7746,
      "1929##": 7747,
      "theater##": 7748,
      "sper": 7749,
      "cow##": 7750,
      "180##": 7751,
      "renaissance##": 7752,
      "tees##": 7753,
      "brig": 7754,
      "crimes##": 7755,
      "societies##": 7756,
      "wider##": 7757,
      "denomin": 7758,
      "1937##": 7759,
      "iciency##": 7760,
      "require": 7761,
      "sanc": 7762,
      "1898##": 7763,
      "involving##": 7764,
      "suffering##": 7765,
      "1848##": 7766,
      "distributed##": 7767,
      "ordinary##": 7768,
      "occasion": 7769,
      "radiation##": 7770,
      "mathematics##": 7771,
      "prisoners##": 7772,
      "umayyad##": 7773,
      "gulf##": 7774,
      "whitehead##": 7775,
      "03##": 7776,
      "band": 7777,
      "cc##": 7778,
      "eters##": 7779,
      "gers##": 7780,
      "obli": 7781,
      "scar": 7782,
      "wine##": 7783,
      "thri": 7784,
      "onry##": 7785,
      "sters##": 7786,
      "prohi": 7787,
      "preferred##": 7788,
      "bodies##": 7789,
      "normal##": 7790,
      "finance##": 7791,
      "famic": 7792,
      "obtained##": 7793,
      "apping##": 7794,
      "modern": 7795,
      "technologies##": 7796,
      "magne": 7797,
      "describes##": 7798,
      "networks##": 7799,
      "survived##": 7800,
      "murder##": 7801,
      "regulations##": 7802,
      "performances##": 7803,
      "neighborhoods##": 7804,
      "easy##": 7805,
      "restricted##": 7806,
      "ceremony##": 7807,
      "waste##": 7808,
      "telecom": 7809,
      "occasionally##": 7810,
      "cence##": 7811,
      "cann": 7812,
      "dr##": 7813,
      "fat": 7814,
      "mr##": 7815,
      "rab": 7816,
      "wire##": 7817,
      "injur": 7818,
      "tiles##": 7819,
      "reserves##": 7820,
      "cha": 7821,
      "agu": 7822,
      "bean##": 7823,
      "comprising##": 7824,
      "oce": 7825,
      "imposed##": 7826,
      "motion##": 7827,
      "health": 7828,
      "loans##": 7829,
      "broken##": 7830,
      "biological##": 7831,
      "1908##": 7832,
      "camp##": 7833,
      "separated##": 7834,
      "driven##": 7835,
      "lords##": 7836,
      "lywood##": 7837,
      "representing##": 7838,
      "promote##": 7839,
      "incident##": 7840,
      "socialist##": 7841,
      "implemented##": 7842,
      "veget": 7843,
      "chairman##": 7844,
      "famicom##": 7845,
      "bah": 7846,
      "dating##": 7847,
      "gi##": 7848,
      "nights##": 7849,
      "asing##": 7850,
      "unemployment##": 7851,
      "unciation##": 7852,
      "chro": 7853,
      "1916##": 7854,
      "extrac": 7855,
      "motor": 7856,
      "eggs##": 7857,
      "smith##": 7858,
      "athens##": 7859,
      "someth": 7860,
      "singer##": 7861,
      "directed##": 7862,
      "funds##": 7863,
      "advance##": 7864,
      "cycle##": 7865,
      "authors##": 7866,
      "birth": 7867,
      "slavery##": 7868,
      "friend##": 7869,
      "combination##": 7870,
      "meanwhile##": 7871,
      "promotion##": 7872,
      "citizen": 7873,
      "conduct##": 7874,
      "neighboring##": 7875,
      "cabinet##": 7876,
      "alphabe": 7877,
      "mandolin##": 7878,
      "cuisine##": 7879,
      "infrastructure##": 7880,
      "telecommun": 7881,
      "something##": 7882,
      "bt##": 7883,
      "dal##": 7884,
      "fame##": 7885,
      "fine##": 7886,
      "gon": 7887,
      "gym": 7888,
      "lem": 7889,
      "tar##": 7890,
      "inch##": 7891,
      "inscrip": 7892,
      "repu": 7893,
      "atus##": 7894,
      "unes##": 7895,
      "agon##": 7896,
      "norfolk##": 7897,
      "invention##": 7898,
      "fusion##": 7899,
      "treas": 7900,
      "crossed##": 7901,
      "azerb": 7902,
      "base": 7903,
      "influences##": 7904,
      "coverage##": 7905,
      "advoc": 7906,
      "ruling##": 7907,
      "metals##": 7908,
      "oxy": 7909,
      "couple##": 7910,
      "weekly##": 7911,
      "daylight##": 7912,
      "threatened##": 7913,
      "predominantly##": 7914,
      "furthermore##": 7915,
      "azerbai": 7916,
      "hoc": 7917,
      "mas##": 7918,
      "mud": 7919,
      "tance##": 7920,
      "temporary##": 7921,
      "wo": 7922,
      "ws##": 7923,
      "ée##": 7924,
      "ala##": 7925,
      "icit##": 7926,
      "ician##": 7927,
      "ola##": 7928,
      "agree##": 7929,
      "1925##": 7930,
      "turks##": 7931,
      "got##": 7932,
      "millen": 7933,
      "universe##": 7934,
      "fix": 7935,
      "versy##": 7936,
      "fuel##": 7937,
      "registered##": 7938,
      "huge##": 7939,
      "controversy##": 7940,
      "piece##": 7941,
      "continuing##": 7942,
      "print##": 7943,
      "titude##": 7944,
      "passing##": 7945,
      "classification##": 7946,
      "journal##": 7947,
      "neighborhood##": 7948,
      "jersey##": 7949,
      "autonomy##": 7950,
      "queens##": 7951,
      "screen##": 7952,
      "boundaries##": 7953,
      "baseball##": 7954,
      "camer": 7955,
      "fit": 7956,
      "hire##": 7957,
      "iber": 7958,
      "lv": 7959,
      "moc": 7960,
      "satur": 7961,
      "reserv": 7962,
      "stars##": 7963,
      "urg": 7964,
      "iland##": 7965,
      "address##": 7966,
      "duch": 7967,
      "petro": 7968,
      "estate##": 7969,
      "pharm": 7970,
      "bol##": 7971,
      "ogen": 7972,
      "fled##": 7973,
      "andre": 7974,
      "rug": 7975,
      "save##": 7976,
      "line": 7977,
      "obser": 7978,
      "author##": 7979,
      "compete##": 7980,
      "somewhat##": 7981,
      "brah": 7982,
      "respect##": 7983,
      "frequent##": 7984,
      "ylor##": 7985,
      "francis##": 7986,
      "strongly##": 7987,
      "infrared##": 7988,
      "christ": 7989,
      "rajas": 7990,
      "compatible##": 7991,
      "bo##": 7992,
      "ck##": 7993,
      "goo": 7994,
      "hindu": 7995,
      "mist": 7996,
      "sab": 7997,
      "uel##": 7998,
      "resi": 7999,
      "stages##": 8000,
      "eli": 8001,
      "acid##": 8002,
      "adjac": 8003,
      "usb##": 8004,
      "depos": 8005,
      "haw": 8006,
      "expres": 8007,
      "rence##": 8008,
      "flow##": 8009,
      "canon##": 8010,
      "hara##": 8011,
      "harbor##": 8012,
      "visiting##": 8013,
      "undergraduate##": 8014,
      "1876##": 8015,
      "judicial##": 8016,
      "planet##": 8017,
      "losing##": 8018,
      "experiences##": 8019,
      "ipods##": 8020,
      "oxide##": 8021,
      "constant##": 8022,
      "romantic##": 8023,
      "extreme##": 8024,
      "scenes##": 8025,
      "emphasis##": 8026,
      "balkans##": 8027,
      "doctrine##": 8028,
      "responsibility##": 8029,
      "mammals##": 8030,
      "adjacent##": 8031,
      "bay": 8032,
      "lose##": 8033,
      "none##": 8034,
      "ois##": 8035,
      "ores##": 8036,
      "rum": 8037,
      "vacu": 8038,
      "wen": 8039,
      "thur": 8040,
      "ining##": 8041,
      "inal##": 8042,
      "orities##": 8043,
      "isc": 8044,
      "lified##": 8045,
      "1921##": 8046,
      "1928##": 8047,
      "moon##": 8048,
      "corps##": 8049,
      "correspon": 8050,
      "tot": 8051,
      "crew##": 8052,
      "engine##": 8053,
      "brief##": 8054,
      "job##": 8055,
      "keeping##": 8056,
      "broad##": 8057,
      "signs##": 8058,
      "research": 8059,
      "instrument##": 8060,
      "evolution##": 8061,
      "sweden##": 8062,
      "alloys##": 8063,
      "saxon##": 8064,
      "otherwise##": 8065,
      "credit##": 8066,
      "citizenship##": 8067,
      "bak": 8068,
      "je##": 8069,
      "lamps##": 8070,
      "nbc##": 8071,
      "nato##": 8072,
      "yst": 8073,
      "assistance##": 8074,
      "unable##": 8075,
      "adults##": 8076,
      "1923##": 8077,
      "comcast##": 8078,
      "nei": 8079,
      "exists##": 8080,
      "evan##": 8081,
      "ticut##": 8082,
      "display##": 8083,
      "flour": 8084,
      "tribu": 8085,
      "wed": 8086,
      "faculty##": 8087,
      "mainstream##": 8088,
      "gross##": 8089,
      "wild##": 8090,
      "expelled##": 8091,
      "dres": 8092,
      "publics##": 8093,
      "controversi": 8094,
      "buried##": 8095,
      "sensi": 8096,
      "deleg": 8097,
      "fundam": 8098,
      "ski##": 8099,
      "visitors##": 8100,
      "ranges##": 8101,
      "literally##": 8102,
      "lux": 8103,
      "madrid##": 8104,
      "accounted##": 8105,
      "ographic##": 8106,
      "neumann##": 8107,
      "connecticut##": 8108,
      "municipal##": 8109,
      "husband##": 8110,
      "struggle##": 8111,
      "determine##": 8112,
      "orchestra##": 8113,
      "witnesses##": 8114,
      "injured##": 8115,
      "02##": 8116,
      "21st##": 8117,
      "ig##": 8118,
      "ko##": 8119,
      "las##": 8120,
      "slow##": 8121,
      "antry##": 8122,
      "rever": 8123,
      "enly##": 8124,
      "itunes##": 8125,
      "stay##": 8126,
      "alization##": 8127,
      "elabor": 8128,
      "ador##": 8129,
      "administ": 8130,
      "ables##": 8131,
      "hay": 8132,
      "worn##": 8133,
      "worst##": 8134,
      "images##": 8135,
      "eva##": 8136,
      "gover": 8137,
      "commu": 8138,
      "compact##": 8139,
      "norman##": 8140,
      "canis##": 8141,
      "hov": 8142,
      "1951##": 8143,
      "voting##": 8144,
      "1934##": 8145,
      "historian##": 8146,
      "transferred##": 8147,
      "aware##": 8148,
      "comparison##": 8149,
      "carrier##": 8150,
      "llery##": 8151,
      "committed##": 8152,
      "situated##": 8153,
      "indeed##": 8154,
      "killing##": 8155,
      "circuit##": 8156,
      "laboratory##": 8157,
      "wildlife##": 8158,
      "simultan": 8159,
      "08##": 8160,
      "bian##": 8161,
      "ci##": 8162,
      "cbc##": 8163,
      "calls##": 8164,
      "says##": 8165,
      "vel##": 8166,
      "vess": 8167,
      "wrest": 8168,
      "republics##": 8169,
      "eness##": 8170,
      "estion##": 8171,
      "emed##": 8172,
      "uscrip": 8173,
      "mak": 8174,
      "maur": 8175,
      "manuscrip": 8176,
      "clou": 8177,
      "pregn": 8178,
      "rance##": 8179,
      "flying##": 8180,
      "governed##": 8181,
      "guam##": 8182,
      "recordings##": 8183,
      "tress##": 8184,
      "airlines##": 8185,
      "drinking##": 8186,
      "someone##": 8187,
      "headed##": 8188,
      "electronics##": 8189,
      "commerce##": 8190,
      "sort##": 8191,
      "younger##": 8192,
      "myth": 8193,
      "emotional##": 8194,
      "villa##": 8195,
      "kien##": 8196,
      "beliefs##": 8197,
      "easily##": 8198,
      "benefit##": 8199,
      "macedonian##": 8200,
      "nominated##": 8201,
      "aristoc": 8202,
      "sustain": 8203,
      "ignty##": 8204,
      "apparent##": 8205,
      "rajasthan##": 8206,
      "vessels##": 8207,
      "fishing##": 8208,
      "iop": 8209,
      "kö": 8210,
      "mir##": 8211,
      "pure##": 8212,
      "rhe": 8213,
      "youth##": 8214,
      "inches##": 8215,
      "resc": 8216,
      "alps##": 8217,
      "dimen": 8218,
      "chen##": 8219,
      "convic": 8220,
      "confederation##": 8221,
      "spending##": 8222,
      "afgh": 8223,
      "taylor##": 8224,
      "com##": 8225,
      "puer": 8226,
      "internationally##": 8227,
      "doing##": 8228,
      "varieties##": 8229,
      "signals##": 8230,
      "breaking##": 8231,
      "variations##": 8232,
      "dens##": 8233,
      "fund##": 8234,
      "humid##": 8235,
      "grain##": 8236,
      "territorial##": 8237,
      "studi": 8238,
      "latino##": 8239,
      "teacher##": 8240,
      "concentrated##": 8241,
      "dollars##": 8242,
      "progress##": 8243,
      "municipality##": 8244,
      "municipalities##": 8245,
      "sovereignty##": 8246,
      "passengers##": 8247,
      "programming##": 8248,
      "scheme##": 8249,
      "seleuci": 8250,
      "atomic##": 8251,
      "350##": 8252,
      "bin##": 8253,
      "beng": 8254,
      "bad##": 8255,
      "gle##": 8256,
      "hr": 8257,
      "hz##": 8258,
      "had": 8259,
      "iv": 8260,
      "lum": 8261,
      "pella##": 8262,
      "satis": 8263,
      "toc": 8264,
      "indo##": 8265,
      "roles##": 8266,
      "suit##": 8267,
      "apore##": 8268,
      "planning##": 8269,
      "shir": 8270,
      "shore##": 8271,
      "lah##": 8272,
      "cork##": 8273,
      "routes##": 8274,
      "bloo": 8275,
      "flat##": 8276,
      "monarch##": 8277,
      "finals##": 8278,
      "suburban##": 8279,
      "productions##": 8280,
      "caa##": 8281,
      "causes##": 8282,
      "culp": 8283,
      "winner##": 8284,
      "obtain##": 8285,
      "dict": 8286,
      "scand": 8287,
      "missions##": 8288,
      "theme##": 8289,
      "morning##": 8290,
      "luf": 8291,
      "claiming##": 8292,
      "system": 8293,
      "increases##": 8294,
      "arabs##": 8295,
      "philosophical##": 8296,
      "suggests##": 8297,
      "indicated##": 8298,
      "symbol##": 8299,
      "provincial##": 8300,
      "reflected##": 8301,
      "purchase##": 8302,
      "interpretation##": 8303,
      "confid": 8304,
      "enjoyed##": 8305,
      "bicy": 8306,
      "regime##": 8307,
      "pupils##": 8308,
      "hokkien##": 8309,
      "hockey##": 8310,
      "neither##": 8311,
      "(−##": 8312,
      "aj": 8313,
      "ax##": 8314,
      "ahead##": 8315,
      "edu": 8316,
      "hil": 8317,
      "hid": 8318,
      "mo##": 8319,
      "pum": 8320,
      "pact##": 8321,
      "inum##": 8322,
      "alities##": 8323,
      "acci": 8324,
      "essions##": 8325,
      "useful##": 8326,
      "bey##": 8327,
      "ules##": 8328,
      "perception##": 8329,
      "timate##": 8330,
      "coron": 8331,
      "corresp": 8332,
      "step##": 8333,
      "rick##": 8334,
      "solid##": 8335,
      "produces##": 8336,
      "kets##": 8337,
      "developments##": 8338,
      "160##": 8339,
      "stress##": 8340,
      "prises##": 8341,
      "styles##": 8342,
      "thereafter##": 8343,
      "publicly##": 8344,
      "prayer##": 8345,
      "sacred##": 8346,
      "engineers##": 8347,
      "austrian##": 8348,
      "collapsed##": 8349,
      "vehicle##": 8350,
      "pronunciation##": 8351,
      "licensed##": 8352,
      "dramatic##": 8353,
      "attendance##": 8354,
      "eritrea##": 8355,
      "somalis##": 8356,
      "hospitals##": 8357,
      "sacrifice##": 8358,
      "ote##": 8359,
      "pec": 8360,
      "pair##": 8361,
      "ras": 8362,
      "tap": 8363,
      "tari": 8364,
      "erals##": 8365,
      "uru": 8366,
      "diet##": 8367,
      "emig": 8368,
      "ementary##": 8369,
      "liver": 8370,
      "oppos": 8371,
      "ulate##": 8372,
      "excep": 8373,
      "theories##": 8374,
      "evacu": 8375,
      "cost": 8376,
      "turing##": 8377,
      "phar": 8378,
      "sectors##": 8379,
      "decisi": 8380,
      "interstate##": 8381,
      "izes##": 8382,
      "priests##": 8383,
      "captain##": 8384,
      "brow": 8385,
      "linked##": 8386,
      "math##": 8387,
      "hard": 8388,
      "receiving##": 8389,
      "moscow##": 8390,
      "recognize##": 8391,
      "aspects##": 8392,
      "surrounded##": 8393,
      "repeated##": 8394,
      "background##": 8395,
      "chapel##": 8396,
      "neighbouring##": 8397,
      "matters##": 8398,
      "pharmac": 8399,
      "eyes##": 8400,
      "jaz": 8401,
      "lec": 8402,
      "pesti": 8403,
      "van": 8404,
      "vel": 8405,
      "zo": 8406,
      "replace##": 8407,
      "orph": 8408,
      "stan##": 8409,
      "alleg": 8410,
      "leaves##": 8411,
      "sphere##": 8412,
      "partly##": 8413,
      "pet##": 8414,
      "uman##": 8415,
      "interior##": 8416,
      "priest##": 8417,
      "brief": 8418,
      "ify##": 8419,
      "holders##": 8420,
      "educated##": 8421,
      "covering##": 8422,
      "magn": 8423,
      "metap": 8424,
      "conversion##": 8425,
      "representation##": 8426,
      "charged##": 8427,
      "translated##": 8428,
      "restrictions##": 8429,
      "pcs##": 8430,
      "athletic##": 8431,
      "unicode##": 8432,
      "proposal##": 8433,
      "volunte": 8434,
      "junction##": 8435,
      "sponsored##": 8436,
      "wavel": 8437,
      "puerto##": 8438,
      "ex##": 8439,
      "hec": 8440,
      "hud": 8441,
      "halls##": 8442,
      "jean##": 8443,
      "pan##": 8444,
      "rying##": 8445,
      "rpm##": 8446,
      "sculp": 8447,
      "reson": 8448,
      "alban": 8449,
      "amend": 8450,
      "agn": 8451,
      "protest##": 8452,
      "coff": 8453,
      "anda##": 8454,
      "weak##": 8455,
      "versary##": 8456,
      "lot##": 8457,
      "consisted##": 8458,
      "regularly##": 8459,
      "width##": 8460,
      "freder": 8461,
      "singapore##": 8462,
      "sky##": 8463,
      "skin##": 8464,
      "owners##": 8465,
      "underground##": 8466,
      "panel##": 8467,
      "navig": 8468,
      "professor##": 8469,
      "branches##": 8470,
      "learned##": 8471,
      "aspect##": 8472,
      "tini##": 8473,
      "distinguished##": 8474,
      "refuge": 8475,
      "mortality##": 8476,
      "aggres": 8477,
      "antibiotics##": 8478,
      "freemasonry##": 8479,
      "pompey##": 8480,
      "inaugurated##": 8481,
      "tulsa##": 8482,
      "rugby##": 8483,
      "vacuum##": 8484,
      "dn##": 8485,
      "ka": 8486,
      "path": 8487,
      "tempor": 8488,
      "vin##": 8489,
      "think##": 8490,
      "tious##": 8491,
      "ariz": 8492,
      "amb": 8493,
      "cons": 8494,
      "exile##": 8495,
      "noble##": 8496,
      "anglic": 8497,
      "stead": 8498,
      "tensions##": 8499,
      "edic": 8500,
      "harv": 8501,
      "crops##": 8502,
      "delayed##": 8503,
      "battles": 8504,
      "hang##": 8505,
      "artillery##": 8506,
      "silk##": 8507,
      "liberation##": 8508,
      "favor": 8509,
      "parliamentary##": 8510,
      "pictures##": 8511,
      "scored##": 8512,
      "adolescence##": 8513,
      "attracted##": 8514,
      "eliminated##": 8515,
      "renewable##": 8516,
      "samoa##": 8517,
      "philippines##": 8518,
      "designated##": 8519,
      "magnetic##": 8520,
      "urugu": 8521,
      "pestici": 8522,
      "aus": 8523,
      "gur": 8524,
      "hence##": 8525,
      "ik##": 8526,
      "jective##": 8527,
      "si##": 8528,
      "sale##": 8529,
      "wis": 8530,
      "indon": 8531,
      "refin": 8532,
      "reformation##": 8533,
      "stro": 8534,
      "rolled##": 8535,
      "esh##": 8536,
      "amph": 8537,
      "beach##": 8538,
      "abled##": 8539,
      "search##": 8540,
      "pled##": 8541,
      "1840##": 8542,
      "asts##": 8543,
      "empir": 8544,
      "musicians##": 8545,
      "cancer##": 8546,
      "relation##": 8547,
      "varying##": 8548,
      "airports##": 8549,
      "1933##": 8550,
      "appeal##": 8551,
      "stories##": 8552,
      "privil": 8553,
      "plane##": 8554,
      "occurring##": 8555,
      "ponti": 8556,
      "participated##": 8557,
      "remote##": 8558,
      "customers##": 8559,
      "faster##": 8560,
      "prepared##": 8561,
      "predators##": 8562,
      "aparte##": 8563,
      "dominican##": 8564,
      "eously##": 8565,
      "jones##": 8566,
      "rho": 8567,
      "tled##": 8568,
      "yi": 8569,
      "yards##": 8570,
      "remove##": 8571,
      "enroll": 8572,
      "icism##": 8573,
      "illegal##": 8574,
      "sight##": 8575,
      "condem": 8576,
      "admir": 8577,
      "ulties##": 8578,
      "plain##": 8579,
      "coal##": 8580,
      "bot": 8581,
      "flag": 8582,
      "locations##": 8583,
      "withdrew##": 8584,
      "apped##": 8585,
      "holid": 8586,
      "john": 8587,
      "succession##": 8588,
      "ethnic": 8589,
      "hanover##": 8590,
      "usual##": 8591,
      "papacy##": 8592,
      "boom##": 8593,
      "nationalism##": 8594,
      "1855##": 8595,
      "ottomans##": 8596,
      "terminal##": 8597,
      "railroad##": 8598,
      "yugoslav##": 8599,
      "toler": 8600,
      "sovereign##": 8601,
      "consolidated##": 8602,
      "nickname##": 8603,
      "mocking": 8604,
      "hovah##": 8605,
      "bos": 8606,
      "itive##": 8607,
      "ncaa##": 8608,
      "ror": 8609,
      "eric##": 8610,
      "arose##": 8611,
      "whel": 8612,
      "ation": 8613,
      "und": 8614,
      "chann": 8615,
      "leban": 8616,
      "1924##": 8617,
      "abul": 8618,
      "trained##": 8619,
      "theore": 8620,
      "nobel##": 8621,
      "evening##": 8622,
      "more": 8623,
      "comment": 8624,
      "fiber##": 8625,
      "montini##": 8626,
      "sylv": 8627,
      "carib": 8628,
      "anders##": 8629,
      "key": 8630,
      "eway##": 8631,
      "revenues##": 8632,
      "fresh##": 8633,
      "holder##": 8634,
      "illu": 8635,
      "tels##": 8636,
      "dependent##": 8637,
      "bases##": 8638,
      "artistic##": 8639,
      "constituted##": 8640,
      "malay": 8641,
      "initiative##": 8642,
      "gardens##": 8643,
      "separation##": 8644,
      "manufacture##": 8645,
      "punishment##": 8646,
      "armenians##": 8647,
      "favour##": 8648,
      "celebration##": 8649,
      "regulation##": 8650,
      "jackson##": 8651,
      "passenger##": 8652,
      "thesis##": 8653,
      "jehovah##": 8654,
      "subsidiary##": 8655,
      "destiny##": 8656,
      "patients##": 8657,
      "standardi": 8658,
      "opponents##": 8659,
      "militia##": 8660,
      "fundamental##": 8661,
      "caribbean##": 8662,
      "iously##": 8663,
      "utili": 8664,
      "wa##": 8665,
      "zer##": 8666,
      "incan": 8667,
      "instruc": 8668,
      "isot": 8669,
      "elder##": 8670,
      "accept##": 8671,
      "cher##": 8672,
      "confron": 8673,
      "buy##": 8674,
      "meters##": 8675,
      "taji": 8676,
      "coordin": 8677,
      "idity##": 8678,
      "color": 8679,
      "kness##": 8680,
      "warri": 8681,
      "landing##": 8682,
      "frank": 8683,
      "winners##": 8684,
      "publishing##": 8685,
      "crop##": 8686,
      "differenti": 8687,
      "ethiop": 8688,
      "resident##": 8689,
      "estimate##": 8690,
      "accounting##": 8691,
      "representative##": 8692,
      "survive##": 8693,
      "romance##": 8694,
      "narrow##": 8695,
      "elevation##": 8696,
      "personnel##": 8697,
      "deliver": 8698,
      "absorbed##": 8699,
      "replacement##": 8700,
      "emergency##": 8701,
      "surrender##": 8702,
      "context##": 8703,
      "improvements##": 8704,
      "oxygen##": 8705,
      "administered##": 8706,
      "studios##": 8707,
      "liverpool##": 8708,
      "arizona##": 8709,
      "dav": 8710,
      "rative##": 8711,
      "sy##": 8712,
      "ini##": 8713,
      "inary##": 8714,
      "inian##": 8715,
      "enn": 8716,
      "alised##": 8717,
      "ele": 8718,
      "essive##": 8719,
      "urs##": 8720,
      "emies##": 8721,
      "adher": 8722,
      "uss##": 8723,
      "hair##": 8724,
      "clergy##": 8725,
      "persia##": 8726,
      "duty##": 8727,
      "esting##": 8728,
      "phony##": 8729,
      "commem": 8730,
      "fier": 8731,
      "minute##": 8732,
      "presti": 8733,
      "invade##": 8734,
      "sau##": 8735,
      "factories##": 8736,
      "sultan##": 8737,
      "akh##": 8738,
      "athan": 8739,
      "archae": 8740,
      "thermal##": 8741,
      "midna##": 8742,
      "morph": 8743,
      "video": 8744,
      "infec": 8745,
      "sufficient##": 8746,
      "oxford##": 8747,
      "distinctive##": 8748,
      "manufactured##": 8749,
      "supplies##": 8750,
      "safe##": 8751,
      "supporting##": 8752,
      "sicily##": 8753,
      "targets##": 8754,
      "laser": 8755,
      "bissau##": 8756,
      "exclusive##": 8757,
      "stopped##": 8758,
      "anniversary##": 8759,
      "partnership##": 8760,
      "mockingbird##": 8761,
      "channels##": 8762,
      "coo": 8763,
      "ios##": 8764,
      "lag": 8765,
      "mic##": 8766,
      "mtv##": 8767,
      "sburg##": 8768,
      "told##": 8769,
      "zel": 8770,
      "anistan##": 8771,
      "inate##": 8772,
      "itary##": 8773,
      "ator": 8774,
      "oul": 8775,
      "icon": 8776,
      "activ": 8777,
      "chester##": 8778,
      "deep": 8779,
      "spr": 8780,
      "worship##": 8781,
      "motiv": 8782,
      "umn##": 8783,
      "gives##": 8784,
      "feel##": 8785,
      "blo": 8786,
      "hiv##": 8787,
      "disrup": 8788,
      "bru": 8789,
      "spectr": 8790,
      "essentially##": 8791,
      "hotels##": 8792,
      "links##": 8793,
      "efficiency##": 8794,
      "connect##": 8795,
      "1870##": 8796,
      "1909##": 8797,
      "voltage##": 8798,
      "nationalist##": 8799,
      "autumn##": 8800,
      "bombs##": 8801,
      "protestants##": 8802,
      "customs##": 8803,
      "civilians##": 8804,
      "experimental##": 8805,
      "sheet##": 8806,
      "bonaparte##": 8807,
      "ukraine##": 8808,
      "segment##": 8809,
      "modified##": 8810,
      "dvd##": 8811,
      "techniques##": 8812,
      "criticism##": 8813,
      "axis##": 8814,
      "aeneas##": 8815,
      "discrimination##": 8816,
      "spiritual##": 8817,
      "arrested##": 8818,
      "slowly##": 8819,
      "rhyth": 8820,
      "afghanistan##": 8821,
      "aud": 8822,
      "ail##": 8823,
      "kal": 8824,
      "kistan##": 8825,
      "ninth##": 8826,
      "path##": 8827,
      "yah##": 8828,
      "zones##": 8829,
      "than": 8830,
      "tis##": 8831,
      "tied##": 8832,
      "resigned##": 8833,
      "alu": 8834,
      "acle##": 8835,
      "accom": 8836,
      "eme": 8837,
      "consci": 8838,
      "sume##": 8839,
      "uset": 8840,
      "sharing##": 8841,
      "butt": 8842,
      "affe##": 8843,
      "pel##": 8844,
      "counter##": 8845,
      "goes##": 8846,
      "poll": 8847,
      "invent": 8848,
      "achuset": 8849,
      "tech##": 8850,
      "1940s##": 8851,
      "harmon": 8852,
      "pius##": 8853,
      "newfound": 8854,
      "epic##": 8855,
      "crude##": 8856,
      "virtually##": 8857,
      "titled##": 8858,
      "heads##": 8859,
      "1865##": 8860,
      "departments##": 8861,
      "horse##": 8862,
      "1889##": 8863,
      "viewers##": 8864,
      "globe##": 8865,
      "measured##": 8866,
      "physics##": 8867,
      "participate##": 8868,
      "processes##": 8869,
      "altern": 8870,
      "occasions##": 8871,
      "movies##": 8872,
      "ukrain": 8873,
      "farmers##": 8874,
      "wealthy##": 8875,
      "enforcement##": 8876,
      "jazz##": 8877,
      "frederick##": 8878,
      "newfoundland##": 8879,
      "calling##": 8880,
      "ho##": 8881,
      "lap": 8882,
      "smo": 8883,
      "send##": 8884,
      "uprising##": 8885,
      "yan": 8886,
      "ati##": 8887,
      "atively##": 8888,
      "chose##": 8889,
      "eman##": 8890,
      "performing##": 8891,
      "shr": 8892,
      "nothing##": 8893,
      "ladi": 8894,
      "coach##": 8895,
      "argo##": 8896,
      "avic": 8897,
      "pole##": 8898,
      "assa": 8899,
      "astro": 8900,
      "critici": 8901,
      "sole##": 8902,
      "begins##": 8903,
      "invited##": 8904,
      "charts##": 8905,
      "hollywood##": 8906,
      "burgh##": 8907,
      "politici": 8908,
      "releases##": 8909,
      "cryst": 8910,
      "ownership##": 8911,
      "purple##": 8912,
      "institutes##": 8913,
      "mali##": 8914,
      "1907##": 8915,
      "datab": 8916,
      "adopt##": 8917,
      "shares##": 8918,
      "composer##": 8919,
      "believ": 8920,
      "declining##": 8921,
      "massachuset": 8922,
      "vocal##": 8923,
      "substance##": 8924,
      "segments##": 8925,
      "prompted##": 8926,
      "alsace##": 8927,
      "ukrainian##": 8928,
      "massachusetts##": 8929,
      "?]##": 8930,
      "kr": 8931,
      "ment": 8932,
      "merg": 8933,
      "tong": 8934,
      "thin##": 8935,
      "tiful##": 8936,
      "red": 8937,
      "resistant##": 8938,
      "assigned##": 8939,
      "adding##": 8940,
      "irs##": 8941,
      "prec": 8942,
      "mines##": 8943,
      "cappella##": 8944,
      "housed##": 8945,
      "warfare##": 8946,
      "strike##": 8947,
      "missing##": 8948,
      "funded##": 8949,
      "funeral##": 8950,
      "printing##": 8951,
      "gray##": 8952,
      "sequence##": 8953,
      "soviets##": 8954,
      "beyonce##": 8955,
      "baltic##": 8956,
      "platform##": 8957,
      "inhabited##": 8958,
      "radar##": 8959,
      "broadcasts##": 8960,
      "stronger##": 8961,
      "possibility##": 8962,
      "pushed##": 8963,
      "babyl": 8964,
      "aimed##": 8965,
      "expedition##": 8966,
      "pharmaceu": 8967,
      "abulary##": 8968,
      "sylvania##": 8969,
      "fish": 8970,
      "hdi##": 8971,
      "kh##": 8972,
      "mer##": 8973,
      "wings##": 8974,
      "inn##": 8975,
      "inter##": 8976,
      "inland##": 8977,
      "reformed##": 8978,
      "recovered##": 8979,
      "stating##": 8980,
      "esi": 8981,
      "chuan##": 8982,
      "sudan##": 8983,
      "sugar##": 8984,
      "bear##": 8985,
      "depar": 8986,
      "aps##": 8987,
      "proclaimed##": 8988,
      "protoc": 8989,
      "abbre": 8990,
      "trust##": 8991,
      "exemp": 8992,
      "clan##": 8993,
      "dub": 8994,
      "terror": 8995,
      "ima##": 8996,
      "1815##": 8997,
      "bohem": 8998,
      "block##": 8999,
      "mild##": 9000,
      "secure##": 9001,
      "devast": 9002,
      "factory##": 9003,
      "soil##": 9004,
      "illa##": 9005,
      "hypo": 9006,
      "writings##": 9007,
      "varied##": 9008,
      "1932##": 9009,
      "strict##": 9010,
      "births##": 9011,
      "responded##": 9012,
      "extension##": 9013,
      "walter##": 9014,
      "commerci": 9015,
      "affect##": 9016,
      "architect##": 9017,
      "accused##": 9018,
      "settlements##": 9019,
      "connecting##": 9020,
      "caliph": 9021,
      "rebels##": 9022,
      "decrease##": 9023,
      "macedon##": 9024,
      "guaran": 9025,
      "snow": 9026,
      "reputation##": 9027,
      "abbrevi": 9028,
      "110##": 9029,
      "aked##": 9030,
      "gin##": 9031,
      "iel##": 9032,
      "kur": 9033,
      "khan##": 9034,
      "tone##": 9035,
      "want##": 9036,
      "zn##": 9037,
      "zation##": 9038,
      "che##": 9039,
      "life": 9040,
      "opium##": 9041,
      "abu##": 9042,
      "see": 9043,
      "imag": 9044,
      "meat##": 9045,
      "umental##": 9046,
      "1860##": 9047,
      "counc": 9048,
      "dison##": 9049,
      "poll##": 9050,
      "assent##": 9051,
      "voic": 9052,
      "writes##": 9053,
      "tioning##": 9054,
      "overwhel": 9055,
      "glaci": 9056,
      "passage##": 9057,
      "merely##": 9058,
      "towers##": 9059,
      "closer##": 9060,
      "1857##": 9061,
      "scholar##": 9062,
      "thereby##": 9063,
      "celebrations##": 9064,
      "condition##": 9065,
      "statistical##": 9066,
      "revival##": 9067,
      "appropriate##": 9068,
      "museums##": 9069,
      "alphabet##": 9070,
      "researchers##": 9071,
      "hudson##": 9072,
      "commemor": 9073,
      "dless##": 9074,
      "dged##": 9075,
      "eye##": 9076,
      "jr##": 9077,
      "kie": 9078,
      "nm##": 9079,
      "sz": 9080,
      "stim": 9081,
      "vul": 9082,
      "ved": 9083,
      "əs##": 9084,
      "anth": 9085,
      "inos##": 9086,
      "revers": 9087,
      "arm##": 9088,
      "ridge##": 9089,
      "owing##": 9090,
      "plaza##": 9091,
      "raid##": 9092,
      "maria##": 9093,
      "bermud": 9094,
      "helic": 9095,
      "victim": 9096,
      "strip##": 9097,
      "independently##": 9098,
      "ashed##": 9099,
      "defend##": 9100,
      "samuel##": 9101,
      "1871##": 9102,
      "cambridge##": 9103,
      "aids##": 9104,
      "partially##": 9105,
      "graph##": 9106,
      "villages##": 9107,
      "machines##": 9108,
      "taxes##": 9109,
      "thirteen##": 9110,
      "infring": 9111,
      "rolling##": 9112,
      "promise##": 9113,
      "promised##": 9114,
      "details##": 9115,
      "julian##": 9116,
      "alfred##": 9117,
      "quantum##": 9118,
      "phenomen": 9119,
      "denominations##": 9120,
      "incandescent##": 9121,
      "bermuda##": 9122,
      "ares##": 9123,
      "citing##": 9124,
      "eper##": 9125,
      "kir": 9126,
      "ling": 9127,
      "nfl##": 9128,
      "ph##": 9129,
      "saving##": 9130,
      "vity##": 9131,
      "xes##": 9132,
      "inqu": 9133,
      "onym": 9134,
      "diver": 9135,
      "embr": 9136,
      "depu": 9137,
      "exual##": 9138,
      "spend##": 9139,
      "raids##": 9140,
      "twaffe##": 9141,
      "angxi##": 9142,
      "marines##": 9143,
      "argent": 9144,
      "displayed##": 9145,
      "loan": 9146,
      "load##": 9147,
      "tissu": 9148,
      "airs##": 9149,
      "embar": 9150,
      "ills##": 9151,
      "illum": 9152,
      "1935##": 9153,
[...]
